unsigned char tflite_models_model_1c16_f_d10_tflite[] = {
  0x1c, 0x00, 0x00, 0x00, 0x54, 0x46, 0x4c, 0x33, 0x14, 0x00, 0x20, 0x00,
  0x1c, 0x00, 0x18, 0x00, 0x14, 0x00, 0x10, 0x00, 0x0c, 0x00, 0x00, 0x00,
  0x08, 0x00, 0x04, 0x00, 0x14, 0x00, 0x00, 0x00, 0x1c, 0x00, 0x00, 0x00,
  0x80, 0x00, 0x00, 0x00, 0xd8, 0x00, 0x00, 0x00, 0xfc, 0x06, 0x00, 0x00,
  0x0c, 0x07, 0x00, 0x00, 0xc4, 0x0d, 0x00, 0x00, 0x03, 0x00, 0x00, 0x00,
  0x01, 0x00, 0x00, 0x00, 0x04, 0x00, 0x00, 0x00, 0x46, 0xf8, 0xff, 0xff,
  0x0c, 0x00, 0x00, 0x00, 0x1c, 0x00, 0x00, 0x00, 0x38, 0x00, 0x00, 0x00,
  0x0f, 0x00, 0x00, 0x00, 0x73, 0x65, 0x72, 0x76, 0x69, 0x6e, 0x67, 0x5f,
  0x64, 0x65, 0x66, 0x61, 0x75, 0x6c, 0x74, 0x00, 0x01, 0x00, 0x00, 0x00,
  0x04, 0x00, 0x00, 0x00, 0x9c, 0xff, 0xff, 0xff, 0x0b, 0x00, 0x00, 0x00,
  0x04, 0x00, 0x00, 0x00, 0x05, 0x00, 0x00, 0x00, 0x64, 0x65, 0x6e, 0x73,
  0x65, 0x00, 0x00, 0x00, 0x01, 0x00, 0x00, 0x00, 0x04, 0x00, 0x00, 0x00,
  0xe6, 0xf8, 0xff, 0xff, 0x04, 0x00, 0x00, 0x00, 0x07, 0x00, 0x00, 0x00,
  0x69, 0x6e, 0x70, 0x75, 0x74, 0x5f, 0x31, 0x00, 0x02, 0x00, 0x00, 0x00,
  0x34, 0x00, 0x00, 0x00, 0x04, 0x00, 0x00, 0x00, 0xdc, 0xff, 0xff, 0xff,
  0x0e, 0x00, 0x00, 0x00, 0x04, 0x00, 0x00, 0x00, 0x13, 0x00, 0x00, 0x00,
  0x43, 0x4f, 0x4e, 0x56, 0x45, 0x52, 0x53, 0x49, 0x4f, 0x4e, 0x5f, 0x4d,
  0x45, 0x54, 0x41, 0x44, 0x41, 0x54, 0x41, 0x00, 0x08, 0x00, 0x0c, 0x00,
  0x08, 0x00, 0x04, 0x00, 0x08, 0x00, 0x00, 0x00, 0x0d, 0x00, 0x00, 0x00,
  0x04, 0x00, 0x00, 0x00, 0x13, 0x00, 0x00, 0x00, 0x6d, 0x69, 0x6e, 0x5f,
  0x72, 0x75, 0x6e, 0x74, 0x69, 0x6d, 0x65, 0x5f, 0x76, 0x65, 0x72, 0x73,
  0x69, 0x6f, 0x6e, 0x00, 0x0f, 0x00, 0x00, 0x00, 0x20, 0x06, 0x00, 0x00,
  0x18, 0x06, 0x00, 0x00, 0x04, 0x06, 0x00, 0x00, 0x84, 0x05, 0x00, 0x00,
  0x4c, 0x05, 0x00, 0x00, 0x34, 0x05, 0x00, 0x00, 0x20, 0x05, 0x00, 0x00,
  0xb0, 0x00, 0x00, 0x00, 0xa8, 0x00, 0x00, 0x00, 0xa0, 0x00, 0x00, 0x00,
  0x98, 0x00, 0x00, 0x00, 0x90, 0x00, 0x00, 0x00, 0x88, 0x00, 0x00, 0x00,
  0x68, 0x00, 0x00, 0x00, 0x04, 0x00, 0x00, 0x00, 0x96, 0xf9, 0xff, 0xff,
  0x04, 0x00, 0x00, 0x00, 0x54, 0x00, 0x00, 0x00, 0x0c, 0x00, 0x00, 0x00,
  0x08, 0x00, 0x0e, 0x00, 0x08, 0x00, 0x04, 0x00, 0x08, 0x00, 0x00, 0x00,
  0x10, 0x00, 0x00, 0x00, 0x24, 0x00, 0x00, 0x00, 0x00, 0x00, 0x06, 0x00,
  0x08, 0x00, 0x04, 0x00, 0x06, 0x00, 0x00, 0x00, 0x04, 0x00, 0x00, 0x00,
  0x00, 0x00, 0x00, 0x00, 0x00, 0x00, 0x0a, 0x00, 0x10, 0x00, 0x0c, 0x00,
  0x08, 0x00, 0x04, 0x00, 0x0a, 0x00, 0x00, 0x00, 0x02, 0x00, 0x00, 0x00,
  0x02, 0x00, 0x00, 0x00, 0x04, 0x00, 0x00, 0x00, 0x06, 0x00, 0x00, 0x00,
  0x32, 0x2e, 0x31, 0x33, 0x2e, 0x30, 0x00, 0x00, 0xf6, 0xf9, 0xff, 0xff,
  0x04, 0x00, 0x00, 0x00, 0x10, 0x00, 0x00, 0x00, 0x31, 0x2e, 0x31, 0x30,
  0x2e, 0x30, 0x00, 0x00, 0x00, 0x00, 0x00, 0x00, 0x00, 0x00, 0x00, 0x00,
  0xfc, 0xf3, 0xff, 0xff, 0x00, 0xf4, 0xff, 0xff, 0x04, 0xf4, 0xff, 0xff,
  0x08, 0xf4, 0xff, 0xff, 0x0c, 0xf4, 0xff, 0xff, 0x26, 0xfa, 0xff, 0xff,
  0x04, 0x00, 0x00, 0x00, 0x60, 0x04, 0x00, 0x00, 0x41, 0x86, 0x05, 0xbf,
  0xc8, 0x6b, 0x8e, 0xbc, 0xa2, 0x7c, 0x7e, 0xbf, 0x05, 0x77, 0x19, 0xbe,
  0xac, 0x3e, 0x25, 0xbe, 0x4c, 0xa9, 0xdd, 0xbd, 0xc0, 0x7d, 0x3e, 0x3d,
  0x0a, 0x72, 0x00, 0xbd, 0xd5, 0x87, 0x9a, 0x3e, 0xa4, 0x2a, 0x27, 0x3e,
  0x08, 0xb6, 0xdd, 0x3e, 0x83, 0xfb, 0x51, 0xbe, 0x47, 0x76, 0x11, 0xbe,
  0xa9, 0x8d, 0xf8, 0xbe, 0xe6, 0xc2, 0x00, 0xbe, 0x02, 0x49, 0xa6, 0xbe,
  0x8d, 0x48, 0xaa, 0xbe, 0x20, 0x3b, 0x1b, 0xbe, 0xee, 0x50, 0x9b, 0x3d,
  0x8f, 0xf8, 0x2c, 0x3e, 0x54, 0x83, 0xc2, 0x3e, 0x58, 0xb2, 0xf1, 0x3d,
  0x27, 0x15, 0xde, 0x3e, 0xcf, 0x7a, 0x00, 0x3e, 0x0d, 0xac, 0xe7, 0xbd,
  0xc5, 0x23, 0xde, 0xbf, 0xd0, 0x5b, 0x9b, 0xbf, 0xae, 0xb8, 0x0f, 0xbf,
  0x6f, 0xb0, 0x25, 0x40, 0xf9, 0x42, 0xc7, 0x3f, 0x4d, 0x83, 0xd3, 0x3e,
  0x39, 0xf7, 0x68, 0xbf, 0x78, 0x19, 0xdb, 0x3d, 0x59, 0x30, 0x6d, 0xbe,
  0xa4, 0x13, 0x82, 0xbe, 0xfe, 0x7f, 0x74, 0xbd, 0x9a, 0xad, 0x16, 0xbe,
  0xf3, 0x47, 0xab, 0xbd, 0x95, 0xce, 0xff, 0xbd, 0x47, 0xeb, 0x2f, 0xbe,
  0xf7, 0x1a, 0x98, 0xbc, 0x79, 0xb1, 0xb1, 0xbe, 0x12, 0x4f, 0xf1, 0xbd,
  0xfd, 0x03, 0x92, 0xbe, 0xcd, 0x62, 0xd3, 0xbd, 0x2e, 0x41, 0xb4, 0xbc,
  0x2a, 0xb3, 0xd9, 0xbc, 0xed, 0xcd, 0xdb, 0xbc, 0xaa, 0x71, 0x00, 0xbe,
  0x75, 0x72, 0xba, 0x3d, 0xc7, 0x0b, 0x84, 0xbe, 0xcc, 0xdb, 0x60, 0x3e,
  0x24, 0xa0, 0x6e, 0xbe, 0x40, 0xf3, 0xe1, 0xbf, 0x7c, 0xf0, 0x38, 0x3c,
  0x1c, 0x1d, 0xe0, 0x3f, 0x20, 0x72, 0xfe, 0xbe, 0xa8, 0xfc, 0xd3, 0xbd,
  0xd4, 0x7a, 0xda, 0xbd, 0x48, 0x81, 0xf5, 0x3e, 0x78, 0xaa, 0xe2, 0x3e,
  0xb2, 0x55, 0xdf, 0x3e, 0xdf, 0x6a, 0x04, 0x3f, 0x81, 0xf7, 0xde, 0xbb,
  0x08, 0x5b, 0x0d, 0x3f, 0xce, 0x0b, 0x00, 0x3d, 0xbc, 0x72, 0x54, 0xbe,
  0x6b, 0xf0, 0x8b, 0xbf, 0x22, 0x45, 0x6c, 0xbf, 0xc8, 0xb1, 0xe6, 0xbe,
  0x9b, 0x90, 0xe8, 0x3d, 0xfa, 0xe0, 0x95, 0xbd, 0x5b, 0x16, 0x26, 0x3e,
  0xba, 0xc4, 0x67, 0x3e, 0x1b, 0x99, 0x9d, 0x3e, 0x2b, 0x24, 0xb3, 0x3d,
  0x1b, 0x87, 0x43, 0x3e, 0x24, 0x77, 0x49, 0xbe, 0xba, 0xd6, 0x9d, 0xbc,
  0xfc, 0xb6, 0xaa, 0xbe, 0x04, 0x8c, 0xc5, 0xbe, 0x6b, 0x02, 0xb5, 0xbf,
  0xe0, 0x6b, 0x48, 0xbf, 0x97, 0x5c, 0x00, 0xbf, 0x32, 0x21, 0x19, 0xbf,
  0xcf, 0x63, 0x7f, 0xbf, 0x38, 0x6b, 0x7a, 0xbf, 0xbd, 0x0c, 0xbf, 0x3e,
  0xfc, 0xbe, 0x94, 0x3e, 0x3d, 0xc5, 0x5a, 0x3e, 0x28, 0x4b, 0x45, 0x3e,
  0x95, 0x59, 0x4d, 0x3e, 0xbb, 0x6f, 0x6e, 0x3d, 0x6d, 0x7b, 0xad, 0xbd,
  0x84, 0xa4, 0x65, 0xbe, 0x17, 0x33, 0x01, 0xbd, 0x00, 0x97, 0xb3, 0x3d,
  0x84, 0x38, 0x4d, 0xbc, 0xbf, 0xb3, 0x30, 0x3e, 0x04, 0xc5, 0xbf, 0xbd,
  0xf5, 0xe0, 0x89, 0xbd, 0xff, 0x40, 0x6c, 0xbf, 0xbb, 0x81, 0x0d, 0xbf,
  0xef, 0xd5, 0x92, 0xbc, 0xe5, 0x58, 0xae, 0x3e, 0x29, 0x3c, 0x96, 0xbc,
  0xca, 0x37, 0x56, 0x3e, 0x5d, 0x36, 0x2c, 0x3d, 0x06, 0xd6, 0xbc, 0x3e,
  0x20, 0x9f, 0x05, 0x3f, 0x19, 0x97, 0x3c, 0xbf, 0xea, 0xa7, 0x20, 0xbf,
  0xf3, 0x20, 0x1f, 0x3f, 0x3b, 0xcb, 0x8c, 0x3d, 0x03, 0x28, 0x47, 0xbf,
  0x9a, 0xd3, 0x2b, 0xbf, 0xb3, 0xab, 0xab, 0xbe, 0x1e, 0xc3, 0xe6, 0xbd,
  0xe5, 0xe2, 0xb8, 0xbe, 0xc8, 0xc5, 0xce, 0xbe, 0xcb, 0x29, 0x9d, 0xbe,
  0x2a, 0xba, 0xc0, 0xbe, 0x91, 0x55, 0xd9, 0x3c, 0x4b, 0xa6, 0xe4, 0xbd,
  0x5d, 0x77, 0x29, 0x3f, 0x10, 0x2b, 0xda, 0x3e, 0x42, 0x68, 0x0d, 0x3f,
  0x0c, 0x27, 0xe5, 0x3e, 0x81, 0x52, 0x5f, 0x3e, 0x6a, 0x8a, 0xf1, 0x3e,
  0xa4, 0x88, 0xa9, 0x3c, 0xa4, 0x75, 0x0f, 0xbf, 0x78, 0xc7, 0x4a, 0xbf,
  0xfc, 0x52, 0xaf, 0xbe, 0x1f, 0x4e, 0xdb, 0xbe, 0x2f, 0x68, 0x11, 0xbe,
  0x7d, 0xaf, 0x37, 0x3e, 0x2d, 0xcf, 0x10, 0xbf, 0x8c, 0xb3, 0x9d, 0xbf,
  0x07, 0x8f, 0xd2, 0xbd, 0x13, 0x59, 0x8c, 0x3e, 0x10, 0xff, 0x9b, 0x3e,
  0xdd, 0x0b, 0x0a, 0xbd, 0xbd, 0x9a, 0xc8, 0xbe, 0x62, 0x42, 0xad, 0xbe,
  0xe0, 0xff, 0x64, 0xbe, 0x91, 0x3f, 0x7b, 0xbe, 0xa0, 0x6a, 0xf9, 0x3c,
  0x7d, 0xc9, 0x6c, 0xbe, 0xa5, 0x82, 0xb6, 0x3d, 0xbc, 0xe0, 0x26, 0xbd,
  0x9a, 0x4d, 0x9f, 0xbd, 0xc1, 0x6e, 0x51, 0x3e, 0x87, 0x1d, 0x9e, 0x3c,
  0x0b, 0x15, 0x23, 0x3e, 0x1f, 0x66, 0x36, 0xbd, 0x11, 0x38, 0x47, 0xbe,
  0xe5, 0x90, 0x37, 0xbf, 0xf0, 0x83, 0x58, 0xbf, 0xb6, 0x00, 0x7b, 0x3e,
  0x2c, 0x3e, 0x87, 0x3e, 0x34, 0x87, 0x88, 0x3e, 0x7a, 0xdb, 0x61, 0x3e,
  0xdf, 0x9c, 0x75, 0x3e, 0x1f, 0xfa, 0x8f, 0x3e, 0x56, 0xaf, 0x29, 0x3e,
  0x5d, 0x19, 0x71, 0xbf, 0x08, 0x6b, 0x06, 0x3b, 0x14, 0x17, 0xb7, 0xbe,
  0x87, 0x80, 0xd1, 0x3d, 0x2a, 0x10, 0x87, 0x3f, 0x5c, 0xbf, 0x0c, 0x3f,
  0x2e, 0x9c, 0x52, 0xbd, 0x2a, 0xea, 0x99, 0x3d, 0x3b, 0x7f, 0x65, 0x3d,
  0xab, 0xf5, 0x80, 0xbd, 0x4b, 0x66, 0x2c, 0xbe, 0x7b, 0x4e, 0x82, 0xbe,
  0x85, 0xae, 0x81, 0xbe, 0xa5, 0x4d, 0x89, 0xbe, 0x85, 0x2b, 0x1b, 0x3e,
  0x35, 0xe3, 0xb9, 0xbd, 0x59, 0xae, 0x74, 0x3e, 0x61, 0x70, 0xf0, 0x3d,
  0x53, 0x6c, 0x54, 0x3e, 0x18, 0x67, 0x23, 0x3e, 0x27, 0x2a, 0x69, 0x3e,
  0x4a, 0x16, 0x4f, 0xbd, 0xa9, 0x05, 0xbf, 0x3d, 0x10, 0x3c, 0xb2, 0x3d,
  0x70, 0x6e, 0xde, 0xbd, 0xf5, 0x9e, 0x88, 0xbf, 0xc5, 0xc6, 0xb9, 0xbf,
  0xb2, 0x05, 0x63, 0xbf, 0xb7, 0x51, 0x28, 0xbf, 0x73, 0x6a, 0x4a, 0xbf,
  0x58, 0x88, 0xb7, 0x3d, 0x72, 0x5d, 0x99, 0x3e, 0x01, 0xe4, 0xbe, 0xbe,
  0x78, 0xe8, 0x0e, 0xbf, 0xcd, 0xc1, 0xab, 0xbf, 0xf6, 0x83, 0x59, 0xbf,
  0x8c, 0x4d, 0xed, 0x3d, 0x53, 0x04, 0x50, 0x3e, 0xf6, 0xdf, 0xa5, 0x3e,
  0xab, 0x2f, 0x33, 0x3e, 0x57, 0x71, 0xfc, 0x3e, 0xef, 0xec, 0x6b, 0x3e,
  0xa3, 0x66, 0x3e, 0xbd, 0x7c, 0x44, 0xad, 0xbe, 0x71, 0x71, 0x06, 0xbf,
  0xbe, 0x87, 0x31, 0xbe, 0x47, 0x2d, 0x52, 0xbe, 0x45, 0x3c, 0xac, 0xbd,
  0x16, 0xa0, 0x10, 0xbe, 0x58, 0x2f, 0x34, 0xbe, 0x13, 0xf0, 0x94, 0xbe,
  0xed, 0x98, 0xa3, 0xbd, 0x2f, 0x00, 0x0e, 0xbd, 0x42, 0x00, 0x65, 0xbe,
  0xeb, 0x37, 0x2b, 0xbe, 0x58, 0x1c, 0x34, 0x3f, 0xd1, 0xb0, 0x82, 0x3f,
  0x3b, 0xd5, 0x24, 0x3f, 0x34, 0x4d, 0x92, 0xbf, 0x43, 0x25, 0x8e, 0xbf,
  0x1f, 0x05, 0xb3, 0xbf, 0x7b, 0xd1, 0x86, 0xbf, 0x8a, 0x27, 0x8c, 0xbd,
  0x23, 0x8c, 0x9e, 0x3d, 0x32, 0x99, 0x8c, 0xbc, 0x8c, 0xeb, 0x3b, 0x3c,
  0xfb, 0x7d, 0x38, 0xbd, 0x94, 0x9a, 0xaa, 0xbd, 0x1f, 0xf0, 0x53, 0xbe,
  0x3f, 0x4c, 0x87, 0x3e, 0xc9, 0x27, 0xc4, 0x3d, 0x4a, 0x06, 0x38, 0x3e,
  0x9b, 0xc7, 0xc4, 0x3d, 0x9c, 0xcc, 0x1c, 0xbd, 0x0d, 0x9e, 0x65, 0x3d,
  0x0c, 0x31, 0x11, 0x3d, 0x60, 0xaf, 0xc0, 0x3e, 0x60, 0x5b, 0x5e, 0xbd,
  0x69, 0x04, 0x42, 0xbe, 0x8e, 0x97, 0xaf, 0xbc, 0x12, 0x31, 0x0e, 0x3e,
  0x03, 0x45, 0x8f, 0x3e, 0xaa, 0xb3, 0xa0, 0x3e, 0xc0, 0x76, 0x4e, 0x3d,
  0xd5, 0xb1, 0xae, 0xbf, 0xac, 0x15, 0x27, 0xbf, 0x9f, 0x0b, 0xab, 0xbe,
  0xae, 0x16, 0xe8, 0xbe, 0x7a, 0x11, 0x22, 0xbf, 0x86, 0xad, 0x9c, 0xbf,
  0xfd, 0xd0, 0x98, 0xbf, 0x71, 0xe9, 0x0c, 0xbf, 0x7a, 0x38, 0xb5, 0x3d,
  0x4c, 0x25, 0x9a, 0x3e, 0x47, 0x9e, 0xa2, 0x3d, 0xff, 0xe7, 0xcf, 0xbd,
  0x15, 0xc5, 0x89, 0x3e, 0xdd, 0x77, 0xbc, 0x3d, 0xe3, 0xa1, 0xa8, 0x3e,
  0x3b, 0x41, 0xa9, 0x3e, 0x07, 0x1d, 0x97, 0x3e, 0xcf, 0x1f, 0xbb, 0x3a,
  0xcf, 0x69, 0x10, 0x3e, 0x94, 0x10, 0xb2, 0x3d, 0x4d, 0xbe, 0xa4, 0xbd,
  0xf8, 0xa3, 0x7a, 0xbe, 0x1d, 0xc3, 0x41, 0xbf, 0xfb, 0x98, 0xb1, 0xbe,
  0xe5, 0xd3, 0x8d, 0xbe, 0x56, 0xba, 0x96, 0xbe, 0x43, 0x71, 0xb0, 0xbe,
  0x28, 0x6f, 0x2f, 0x3f, 0x89, 0xf1, 0x5d, 0x3f, 0x2f, 0xf6, 0x49, 0xbe,
  0x92, 0xfe, 0xff, 0xff, 0x04, 0x00, 0x00, 0x00, 0x04, 0x00, 0x00, 0x00,
  0xfd, 0xff, 0xff, 0xff, 0xa2, 0xfe, 0xff, 0xff, 0x04, 0x00, 0x00, 0x00,
  0x08, 0x00, 0x00, 0x00, 0xff, 0xff, 0xff, 0xff, 0x1c, 0x00, 0x00, 0x00,
  0xb6, 0xfe, 0xff, 0xff, 0x04, 0x00, 0x00, 0x00, 0x28, 0x00, 0x00, 0x00,
  0x55, 0xb3, 0x9c, 0xbd, 0x7b, 0x84, 0xdd, 0x3f, 0x22, 0xda, 0x68, 0xbe,
  0x50, 0x20, 0xff, 0xbe, 0xf3, 0x92, 0x1c, 0x3e, 0x36, 0x58, 0x6b, 0xbd,
  0x5a, 0x10, 0x42, 0xbe, 0x04, 0xa6, 0x12, 0x3e, 0xa3, 0x74, 0x2e, 0xbf,
  0xba, 0xa9, 0x8f, 0xbe, 0xea, 0xfe, 0xff, 0xff, 0x04, 0x00, 0x00, 0x00,
  0x70, 0x00, 0x00, 0x00, 0x85, 0x33, 0x6f, 0x3e, 0xc0, 0x8e, 0x11, 0x3f,
  0x39, 0x9c, 0xda, 0xbe, 0x6d, 0x43, 0xea, 0xbe, 0x1f, 0xa8, 0xe9, 0x3d,
  0x2a, 0x6c, 0x67, 0x3e, 0xe9, 0x0c, 0xeb, 0x3e, 0x81, 0x28, 0x06, 0x3f,
  0xdd, 0x58, 0x1c, 0x3f, 0x09, 0x82, 0x37, 0x3f, 0xb0, 0xc4, 0x23, 0x3f,
  0x54, 0x5d, 0x5b, 0x3f, 0x55, 0x82, 0x40, 0x3f, 0xa1, 0x77, 0x14, 0x3f,
  0x4e, 0x51, 0x14, 0x3f, 0x47, 0x1d, 0xf6, 0x3e, 0x33, 0x36, 0x1b, 0x3f,
  0xd7, 0xfe, 0xf0, 0x3e, 0x2b, 0x19, 0xb1, 0x3e, 0xfc, 0x2c, 0x73, 0x3e,
  0xf7, 0x61, 0xa3, 0x3e, 0x76, 0xaf, 0xb2, 0x3d, 0x1e, 0xdc, 0x3a, 0x3e,
  0xef, 0x05, 0xdb, 0xbd, 0x29, 0x95, 0x9b, 0xbe, 0xe2, 0x70, 0x1c, 0xbf,
  0x8c, 0xb1, 0x15, 0xbf, 0x69, 0x89, 0xa1, 0xbd, 0x66, 0xff, 0xff, 0xff,
  0x04, 0x00, 0x00, 0x00, 0x04, 0x00, 0x00, 0x00, 0x59, 0xa7, 0x50, 0x3f,
  0x60, 0xf9, 0xff, 0xff, 0x64, 0xf9, 0xff, 0xff, 0x0f, 0x00, 0x00, 0x00,
  0x4d, 0x4c, 0x49, 0x52, 0x20, 0x43, 0x6f, 0x6e, 0x76, 0x65, 0x72, 0x74,
  0x65, 0x64, 0x2e, 0x00, 0x01, 0x00, 0x00, 0x00, 0x14, 0x00, 0x00, 0x00,
  0x00, 0x00, 0x0e, 0x00, 0x18, 0x00, 0x14, 0x00, 0x10, 0x00, 0x0c, 0x00,
  0x08, 0x00, 0x04, 0x00, 0x0e, 0x00, 0x00, 0x00, 0x14, 0x00, 0x00, 0x00,
  0x1c, 0x00, 0x00, 0x00, 0x68, 0x01, 0x00, 0x00, 0x6c, 0x01, 0x00, 0x00,
  0x70, 0x01, 0x00, 0x00, 0x04, 0x00, 0x00, 0x00, 0x6d, 0x61, 0x69, 0x6e,
  0x00, 0x00, 0x00, 0x00, 0x05, 0x00, 0x00, 0x00, 0x20, 0x01, 0x00, 0x00,
  0xbc, 0x00, 0x00, 0x00, 0x84, 0x00, 0x00, 0x00, 0x40, 0x00, 0x00, 0x00,
  0x04, 0x00, 0x00, 0x00, 0x62, 0xff, 0xff, 0xff, 0x1c, 0x00, 0x00, 0x00,
  0x00, 0x00, 0x00, 0x09, 0x1c, 0x00, 0x00, 0x00, 0x20, 0x00, 0x00, 0x00,
  0x04, 0x00, 0x00, 0x00, 0x00, 0x00, 0x06, 0x00, 0x08, 0x00, 0x04, 0x00,
  0x06, 0x00, 0x00, 0x00, 0x00, 0x00, 0x80, 0x3f, 0x01, 0x00, 0x00, 0x00,
  0x0b, 0x00, 0x00, 0x00, 0x01, 0x00, 0x00, 0x00, 0x0a, 0x00, 0x00, 0x00,
  0x9a, 0xff, 0xff, 0xff, 0x14, 0x00, 0x00, 0x00, 0x00, 0x00, 0x00, 0x08,
  0x10, 0x00, 0x00, 0x00, 0x14, 0x00, 0x00, 0x00, 0x03, 0x00, 0x00, 0x00,
  0x20, 0xfa, 0xff, 0xff, 0x01, 0x00, 0x00, 0x00, 0x0a, 0x00, 0x00, 0x00,
  0x03, 0x00, 0x00, 0x00, 0x09, 0x00, 0x00, 0x00, 0x06, 0x00, 0x00, 0x00,
  0x03, 0x00, 0x00, 0x00, 0x00, 0x00, 0x0a, 0x00, 0x10, 0x00, 0x0c, 0x00,
  0x08, 0x00, 0x04, 0x00, 0x0a, 0x00, 0x00, 0x00, 0x0c, 0x00, 0x00, 0x00,
  0x10, 0x00, 0x00, 0x00, 0x02, 0x00, 0x00, 0x00, 0x01, 0x00, 0x00, 0x00,
  0x09, 0x00, 0x00, 0x00, 0x02, 0x00, 0x00, 0x00, 0x08, 0x00, 0x00, 0x00,
  0x04, 0x00, 0x00, 0x00, 0x00, 0x00, 0x0e, 0x00, 0x18, 0x00, 0x14, 0x00,
  0x10, 0x00, 0x0c, 0x00, 0x0b, 0x00, 0x04, 0x00, 0x0e, 0x00, 0x00, 0x00,
  0x20, 0x00, 0x00, 0x00, 0x00, 0x00, 0x00, 0x01, 0x2c, 0x00, 0x00, 0x00,
  0x30, 0x00, 0x00, 0x00, 0x01, 0x00, 0x00, 0x00, 0x0c, 0x00, 0x14, 0x00,
  0x13, 0x00, 0x0c, 0x00, 0x08, 0x00, 0x07, 0x00, 0x0c, 0x00, 0x00, 0x00,
  0x00, 0x00, 0x00, 0x01, 0x01, 0x00, 0x00, 0x00, 0x01, 0x00, 0x00, 0x00,
  0x00, 0x00, 0x00, 0x01, 0x01, 0x00, 0x00, 0x00, 0x08, 0x00, 0x00, 0x00,
  0x03, 0x00, 0x00, 0x00, 0x07, 0x00, 0x00, 0x00, 0x02, 0x00, 0x00, 0x00,
  0x01, 0x00, 0x00, 0x00, 0x00, 0x00, 0x0e, 0x00, 0x14, 0x00, 0x00, 0x00,
  0x10, 0x00, 0x0c, 0x00, 0x0b, 0x00, 0x04, 0x00, 0x0e, 0x00, 0x00, 0x00,
  0x10, 0x00, 0x00, 0x00, 0x00, 0x00, 0x00, 0x34, 0x0c, 0x00, 0x00, 0x00,
  0x10, 0x00, 0x00, 0x00, 0xf0, 0xfa, 0xff, 0xff, 0x01, 0x00, 0x00, 0x00,
  0x07, 0x00, 0x00, 0x00, 0x02, 0x00, 0x00, 0x00, 0x00, 0x00, 0x00, 0x00,
  0x05, 0x00, 0x00, 0x00, 0x01, 0x00, 0x00, 0x00, 0x0b, 0x00, 0x00, 0x00,
  0x01, 0x00, 0x00, 0x00, 0x00, 0x00, 0x00, 0x00, 0x0c, 0x00, 0x00, 0x00,
  0xb8, 0x04, 0x00, 0x00, 0x48, 0x04, 0x00, 0x00, 0xdc, 0x03, 0x00, 0x00,
  0x88, 0x03, 0x00, 0x00, 0x3c, 0x03, 0x00, 0x00, 0xd0, 0x02, 0x00, 0x00,
  0x88, 0x02, 0x00, 0x00, 0x14, 0x02, 0x00, 0x00, 0x30, 0x01, 0x00, 0x00,
  0xd4, 0x00, 0x00, 0x00, 0x60, 0x00, 0x00, 0x00, 0x04, 0x00, 0x00, 0x00,
  0x8e, 0xfb, 0xff, 0xff, 0x00, 0x00, 0x00, 0x01, 0x14, 0x00, 0x00, 0x00,
  0x1c, 0x00, 0x00, 0x00, 0x1c, 0x00, 0x00, 0x00, 0x0c, 0x00, 0x00, 0x00,
  0x34, 0x00, 0x00, 0x00, 0x02, 0x00, 0x00, 0x00, 0xff, 0xff, 0xff, 0xff,
  0x0a, 0x00, 0x00, 0x00, 0x74, 0xfb, 0xff, 0xff, 0x19, 0x00, 0x00, 0x00,
  0x53, 0x74, 0x61, 0x74, 0x65, 0x66, 0x75, 0x6c, 0x50, 0x61, 0x72, 0x74,
  0x69, 0x74, 0x69, 0x6f, 0x6e, 0x65, 0x64, 0x43, 0x61, 0x6c, 0x6c, 0x3a,
  0x30, 0x00, 0x00, 0x00, 0x02, 0x00, 0x00, 0x00, 0x01, 0x00, 0x00, 0x00,
  0x0a, 0x00, 0x00, 0x00, 0xe6, 0xfb, 0xff, 0xff, 0x00, 0x00, 0x00, 0x01,
  0x14, 0x00, 0x00, 0x00, 0x1c, 0x00, 0x00, 0x00, 0x1c, 0x00, 0x00, 0x00,
  0x0b, 0x00, 0x00, 0x00, 0x4c, 0x00, 0x00, 0x00, 0x02, 0x00, 0x00, 0x00,
  0xff, 0xff, 0xff, 0xff, 0x0a, 0x00, 0x00, 0x00, 0xcc, 0xfb, 0xff, 0xff,
  0x30, 0x00, 0x00, 0x00, 0x73, 0x65, 0x71, 0x75, 0x65, 0x6e, 0x74, 0x69,
  0x61, 0x6c, 0x2f, 0x64, 0x65, 0x6e, 0x73, 0x65, 0x2f, 0x4d, 0x61, 0x74,
  0x4d, 0x75, 0x6c, 0x3b, 0x73, 0x65, 0x71, 0x75, 0x65, 0x6e, 0x74, 0x69,
  0x61, 0x6c, 0x2f, 0x64, 0x65, 0x6e, 0x73, 0x65, 0x2f, 0x42, 0x69, 0x61,
  0x73, 0x41, 0x64, 0x64, 0x00, 0x00, 0x00, 0x00, 0x02, 0x00, 0x00, 0x00,
  0x01, 0x00, 0x00, 0x00, 0x0a, 0x00, 0x00, 0x00, 0x56, 0xfc, 0xff, 0xff,
  0x00, 0x00, 0x00, 0x01, 0x14, 0x00, 0x00, 0x00, 0x1c, 0x00, 0x00, 0x00,
  0x1c, 0x00, 0x00, 0x00, 0x0a, 0x00, 0x00, 0x00, 0x34, 0x00, 0x00, 0x00,
  0x02, 0x00, 0x00, 0x00, 0xff, 0xff, 0xff, 0xff, 0x1c, 0x00, 0x00, 0x00,
  0x3c, 0xfc, 0xff, 0xff, 0x1a, 0x00, 0x00, 0x00, 0x73, 0x65, 0x71, 0x75,
  0x65, 0x6e, 0x74, 0x69, 0x61, 0x6c, 0x2f, 0x66, 0x6c, 0x61, 0x74, 0x74,
  0x65, 0x6e, 0x2f, 0x52, 0x65, 0x73, 0x68, 0x61, 0x70, 0x65, 0x00, 0x00,
  0x02, 0x00, 0x00, 0x00, 0x01, 0x00, 0x00, 0x00, 0x1c, 0x00, 0x00, 0x00,
  0xae, 0xfc, 0xff, 0xff, 0x00, 0x00, 0x00, 0x01, 0x14, 0x00, 0x00, 0x00,
  0x24, 0x00, 0x00, 0x00, 0x24, 0x00, 0x00, 0x00, 0x09, 0x00, 0x00, 0x00,
  0xb4, 0x00, 0x00, 0x00, 0x04, 0x00, 0x00, 0x00, 0xff, 0xff, 0xff, 0xff,
  0x01, 0x00, 0x00, 0x00, 0x1c, 0x00, 0x00, 0x00, 0x01, 0x00, 0x00, 0x00,
  0x9c, 0xfc, 0xff, 0xff, 0x93, 0x00, 0x00, 0x00, 0x73, 0x65, 0x71, 0x75,
  0x65, 0x6e, 0x74, 0x69, 0x61, 0x6c, 0x2f, 0x63, 0x6f, 0x6e, 0x76, 0x31,
  0x64, 0x2f, 0x52, 0x65, 0x6c, 0x75, 0x3b, 0x73, 0x65, 0x71, 0x75, 0x65,
  0x6e, 0x74, 0x69, 0x61, 0x6c, 0x2f, 0x63, 0x6f, 0x6e, 0x76, 0x31, 0x64,
  0x2f, 0x42, 0x69, 0x61, 0x73, 0x41, 0x64, 0x64, 0x3b, 0x73, 0x65, 0x71,
  0x75, 0x65, 0x6e, 0x74, 0x69, 0x61, 0x6c, 0x2f, 0x63, 0x6f, 0x6e, 0x76,
  0x31, 0x64, 0x2f, 0x43, 0x6f, 0x6e, 0x76, 0x31, 0x44, 0x2f, 0x53, 0x71,
  0x75, 0x65, 0x65, 0x7a, 0x65, 0x3b, 0x73, 0x65, 0x71, 0x75, 0x65, 0x6e,
  0x74, 0x69, 0x61, 0x6c, 0x2f, 0x63, 0x6f, 0x6e, 0x76, 0x31, 0x64, 0x2f,
  0x42, 0x69, 0x61, 0x73, 0x41, 0x64, 0x64, 0x2f, 0x52, 0x65, 0x61, 0x64,
  0x56, 0x61, 0x72, 0x69, 0x61, 0x62, 0x6c, 0x65, 0x4f, 0x70, 0x3b, 0x73,
  0x65, 0x71, 0x75, 0x65, 0x6e, 0x74, 0x69, 0x61, 0x6c, 0x2f, 0x63, 0x6f,
  0x6e, 0x76, 0x31, 0x64, 0x2f, 0x43, 0x6f, 0x6e, 0x76, 0x31, 0x44, 0x00,
  0x04, 0x00, 0x00, 0x00, 0x01, 0x00, 0x00, 0x00, 0x01, 0x00, 0x00, 0x00,
  0x1c, 0x00, 0x00, 0x00, 0x01, 0x00, 0x00, 0x00, 0x8e, 0xfd, 0xff, 0xff,
  0x00, 0x00, 0x00, 0x01, 0x14, 0x00, 0x00, 0x00, 0x24, 0x00, 0x00, 0x00,
  0x24, 0x00, 0x00, 0x00, 0x08, 0x00, 0x00, 0x00, 0x44, 0x00, 0x00, 0x00,
  0x04, 0x00, 0x00, 0x00, 0xff, 0xff, 0xff, 0xff, 0x01, 0x00, 0x00, 0x00,
  0x1c, 0x00, 0x00, 0x00, 0x1c, 0x00, 0x00, 0x00, 0x7c, 0xfd, 0xff, 0xff,
  0x23, 0x00, 0x00, 0x00, 0x73, 0x65, 0x71, 0x75, 0x65, 0x6e, 0x74, 0x69,
  0x61, 0x6c, 0x2f, 0x63, 0x6f, 0x6e, 0x76, 0x31, 0x64, 0x2f, 0x43, 0x6f,
  0x6e, 0x76, 0x31, 0x44, 0x2f, 0x45, 0x78, 0x70, 0x61, 0x6e, 0x64, 0x44,
  0x69, 0x6d, 0x73, 0x00, 0x04, 0x00, 0x00, 0x00, 0x01, 0x00, 0x00, 0x00,
  0x01, 0x00, 0x00, 0x00, 0x1c, 0x00, 0x00, 0x00, 0x1c, 0x00, 0x00, 0x00,
  0x6a, 0xfe, 0xff, 0xff, 0x00, 0x00, 0x00, 0x01, 0x10, 0x00, 0x00, 0x00,
  0x10, 0x00, 0x00, 0x00, 0x07, 0x00, 0x00, 0x00, 0x24, 0x00, 0x00, 0x00,
  0xd4, 0xfd, 0xff, 0xff, 0x17, 0x00, 0x00, 0x00, 0x73, 0x65, 0x71, 0x75,
  0x65, 0x6e, 0x74, 0x69, 0x61, 0x6c, 0x2f, 0x64, 0x65, 0x6e, 0x73, 0x65,
  0x2f, 0x4d, 0x61, 0x74, 0x4d, 0x75, 0x6c, 0x00, 0x02, 0x00, 0x00, 0x00,
  0x0a, 0x00, 0x00, 0x00, 0x1c, 0x00, 0x00, 0x00, 0xae, 0xff, 0xff, 0xff,
  0x00, 0x00, 0x00, 0x01, 0x14, 0x00, 0x00, 0x00, 0x14, 0x00, 0x00, 0x00,
  0x06, 0x00, 0x00, 0x00, 0x00, 0x00, 0x00, 0x02, 0x34, 0x00, 0x00, 0x00,
  0x1c, 0xfe, 0xff, 0xff, 0x27, 0x00, 0x00, 0x00, 0x73, 0x65, 0x71, 0x75,
  0x65, 0x6e, 0x74, 0x69, 0x61, 0x6c, 0x2f, 0x63, 0x6f, 0x6e, 0x76, 0x31,
  0x64, 0x2f, 0x43, 0x6f, 0x6e, 0x76, 0x31, 0x44, 0x2f, 0x45, 0x78, 0x70,
  0x61, 0x6e, 0x64, 0x44, 0x69, 0x6d, 0x73, 0x2f, 0x64, 0x69, 0x6d, 0x00,
  0x00, 0x00, 0x00, 0x00, 0x00, 0x00, 0x16, 0x00, 0x1c, 0x00, 0x18, 0x00,
  0x17, 0x00, 0x10, 0x00, 0x0c, 0x00, 0x08, 0x00, 0x00, 0x00, 0x00, 0x00,
  0x00, 0x00, 0x07, 0x00, 0x16, 0x00, 0x00, 0x00, 0x00, 0x00, 0x00, 0x01,
  0x14, 0x00, 0x00, 0x00, 0x14, 0x00, 0x00, 0x00, 0x05, 0x00, 0x00, 0x00,
  0x00, 0x00, 0x00, 0x02, 0x28, 0x00, 0x00, 0x00, 0x84, 0xfe, 0xff, 0xff,
  0x18, 0x00, 0x00, 0x00, 0x73, 0x65, 0x71, 0x75, 0x65, 0x6e, 0x74, 0x69,
  0x61, 0x6c, 0x2f, 0x66, 0x6c, 0x61, 0x74, 0x74, 0x65, 0x6e, 0x2f, 0x43,
  0x6f, 0x6e, 0x73, 0x74, 0x00, 0x00, 0x00, 0x00, 0x01, 0x00, 0x00, 0x00,
  0x02, 0x00, 0x00, 0x00, 0x5e, 0xff, 0xff, 0xff, 0x00, 0x00, 0x00, 0x01,
  0x10, 0x00, 0x00, 0x00, 0x10, 0x00, 0x00, 0x00, 0x04, 0x00, 0x00, 0x00,
  0x34, 0x00, 0x00, 0x00, 0xc8, 0xfe, 0xff, 0xff, 0x27, 0x00, 0x00, 0x00,
  0x73, 0x65, 0x71, 0x75, 0x65, 0x6e, 0x74, 0x69, 0x61, 0x6c, 0x2f, 0x64,
  0x65, 0x6e, 0x73, 0x65, 0x2f, 0x42, 0x69, 0x61, 0x73, 0x41, 0x64, 0x64,
  0x2f, 0x52, 0x65, 0x61, 0x64, 0x56, 0x61, 0x72, 0x69, 0x61, 0x62, 0x6c,
  0x65, 0x4f, 0x70, 0x00, 0x01, 0x00, 0x00, 0x00, 0x0a, 0x00, 0x00, 0x00,
  0xae, 0xff, 0xff, 0xff, 0x00, 0x00, 0x00, 0x01, 0x10, 0x00, 0x00, 0x00,
  0x10, 0x00, 0x00, 0x00, 0x03, 0x00, 0x00, 0x00, 0x28, 0x00, 0x00, 0x00,
  0x18, 0xff, 0xff, 0xff, 0x18, 0x00, 0x00, 0x00, 0x73, 0x65, 0x71, 0x75,
  0x65, 0x6e, 0x74, 0x69, 0x61, 0x6c, 0x2f, 0x63, 0x6f, 0x6e, 0x76, 0x31,
  0x64, 0x2f, 0x43, 0x6f, 0x6e, 0x76, 0x31, 0x44, 0x00, 0x00, 0x00, 0x00,
  0x04, 0x00, 0x00, 0x00, 0x01, 0x00, 0x00, 0x00, 0x01, 0x00, 0x00, 0x00,
  0x01, 0x00, 0x00, 0x00, 0x1c, 0x00, 0x00, 0x00, 0x00, 0x00, 0x16, 0x00,
  0x18, 0x00, 0x14, 0x00, 0x00, 0x00, 0x10, 0x00, 0x0c, 0x00, 0x08, 0x00,
  0x00, 0x00, 0x00, 0x00, 0x00, 0x00, 0x07, 0x00, 0x16, 0x00, 0x00, 0x00,
  0x00, 0x00, 0x00, 0x01, 0x10, 0x00, 0x00, 0x00, 0x10, 0x00, 0x00, 0x00,
  0x02, 0x00, 0x00, 0x00, 0x38, 0x00, 0x00, 0x00, 0x80, 0xff, 0xff, 0xff,
  0x28, 0x00, 0x00, 0x00, 0x73, 0x65, 0x71, 0x75, 0x65, 0x6e, 0x74, 0x69,
  0x61, 0x6c, 0x2f, 0x63, 0x6f, 0x6e, 0x76, 0x31, 0x64, 0x2f, 0x42, 0x69,
  0x61, 0x73, 0x41, 0x64, 0x64, 0x2f, 0x52, 0x65, 0x61, 0x64, 0x56, 0x61,
  0x72, 0x69, 0x61, 0x62, 0x6c, 0x65, 0x4f, 0x70, 0x00, 0x00, 0x00, 0x00,
  0x01, 0x00, 0x00, 0x00, 0x01, 0x00, 0x00, 0x00, 0x00, 0x00, 0x16, 0x00,
  0x1c, 0x00, 0x18, 0x00, 0x00, 0x00, 0x14, 0x00, 0x10, 0x00, 0x0c, 0x00,
  0x00, 0x00, 0x00, 0x00, 0x08, 0x00, 0x07, 0x00, 0x16, 0x00, 0x00, 0x00,
  0x00, 0x00, 0x00, 0x01, 0x14, 0x00, 0x00, 0x00, 0x24, 0x00, 0x00, 0x00,
  0x24, 0x00, 0x00, 0x00, 0x01, 0x00, 0x00, 0x00, 0x3c, 0x00, 0x00, 0x00,
  0x03, 0x00, 0x00, 0x00, 0xff, 0xff, 0xff, 0xff, 0x1c, 0x00, 0x00, 0x00,
  0x1c, 0x00, 0x00, 0x00, 0x04, 0x00, 0x04, 0x00, 0x04, 0x00, 0x00, 0x00,
  0x19, 0x00, 0x00, 0x00, 0x73, 0x65, 0x72, 0x76, 0x69, 0x6e, 0x67, 0x5f,
  0x64, 0x65, 0x66, 0x61, 0x75, 0x6c, 0x74, 0x5f, 0x69, 0x6e, 0x70, 0x75,
  0x74, 0x5f, 0x31, 0x3a, 0x30, 0x00, 0x00, 0x00, 0x03, 0x00, 0x00, 0x00,
  0x01, 0x00, 0x00, 0x00, 0x1c, 0x00, 0x00, 0x00, 0x1c, 0x00, 0x00, 0x00,
  0x05, 0x00, 0x00, 0x00, 0x50, 0x00, 0x00, 0x00, 0x34, 0x00, 0x00, 0x00,
  0x24, 0x00, 0x00, 0x00, 0x14, 0x00, 0x00, 0x00, 0x04, 0x00, 0x00, 0x00,
  0xd0, 0xff, 0xff, 0xff, 0x19, 0x00, 0x00, 0x00, 0x00, 0x00, 0x00, 0x19,
  0xdc, 0xff, 0xff, 0xff, 0x09, 0x00, 0x00, 0x00, 0x00, 0x00, 0x00, 0x09,
  0xe8, 0xff, 0xff, 0xff, 0x16, 0x00, 0x00, 0x00, 0x00, 0x00, 0x00, 0x16,
  0xf4, 0xff, 0xff, 0xff, 0x03, 0x00, 0x00, 0x00, 0x00, 0x00, 0x00, 0x03,
  0x0c, 0x00, 0x0c, 0x00, 0x0b, 0x00, 0x00, 0x00, 0x00, 0x00, 0x04, 0x00,
  0x0c, 0x00, 0x00, 0x00, 0x46, 0x00, 0x00, 0x00, 0x00, 0x00, 0x00, 0x46
};
unsigned int tflite_models_model_1c16_f_d10_tflite_len = 3672;
