unsigned char tflite_models_model_2mp4_f_d64r_d10s_tflite[] = {
  0x1c, 0x00, 0x00, 0x00, 0x54, 0x46, 0x4c, 0x33, 0x14, 0x00, 0x20, 0x00,
  0x1c, 0x00, 0x18, 0x00, 0x14, 0x00, 0x10, 0x00, 0x0c, 0x00, 0x00, 0x00,
  0x08, 0x00, 0x04, 0x00, 0x14, 0x00, 0x00, 0x00, 0x1c, 0x00, 0x00, 0x00,
  0x84, 0x00, 0x00, 0x00, 0xdc, 0x00, 0x00, 0x00, 0x18, 0x3e, 0x00, 0x00,
  0x28, 0x3e, 0x00, 0x00, 0x74, 0x44, 0x00, 0x00, 0x03, 0x00, 0x00, 0x00,
  0x01, 0x00, 0x00, 0x00, 0x04, 0x00, 0x00, 0x00, 0xda, 0xc0, 0xff, 0xff,
  0x0c, 0x00, 0x00, 0x00, 0x1c, 0x00, 0x00, 0x00, 0x3c, 0x00, 0x00, 0x00,
  0x0f, 0x00, 0x00, 0x00, 0x73, 0x65, 0x72, 0x76, 0x69, 0x6e, 0x67, 0x5f,
  0x64, 0x65, 0x66, 0x61, 0x75, 0x6c, 0x74, 0x00, 0x01, 0x00, 0x00, 0x00,
  0x04, 0x00, 0x00, 0x00, 0x98, 0xff, 0xff, 0xff, 0x0a, 0x00, 0x00, 0x00,
  0x04, 0x00, 0x00, 0x00, 0x0a, 0x00, 0x00, 0x00, 0x4c, 0x34, 0x5f, 0x44,
  0x65, 0x6e, 0x73, 0x65, 0x31, 0x30, 0x00, 0x00, 0x01, 0x00, 0x00, 0x00,
  0x04, 0x00, 0x00, 0x00, 0xce, 0xc1, 0xff, 0xff, 0x04, 0x00, 0x00, 0x00,
  0x07, 0x00, 0x00, 0x00, 0x69, 0x6e, 0x70, 0x75, 0x74, 0x5f, 0x31, 0x00,
  0x02, 0x00, 0x00, 0x00, 0x34, 0x00, 0x00, 0x00, 0x04, 0x00, 0x00, 0x00,
  0xdc, 0xff, 0xff, 0xff, 0x0d, 0x00, 0x00, 0x00, 0x04, 0x00, 0x00, 0x00,
  0x13, 0x00, 0x00, 0x00, 0x43, 0x4f, 0x4e, 0x56, 0x45, 0x52, 0x53, 0x49,
  0x4f, 0x4e, 0x5f, 0x4d, 0x45, 0x54, 0x41, 0x44, 0x41, 0x54, 0x41, 0x00,
  0x08, 0x00, 0x0c, 0x00, 0x08, 0x00, 0x04, 0x00, 0x08, 0x00, 0x00, 0x00,
  0x0c, 0x00, 0x00, 0x00, 0x04, 0x00, 0x00, 0x00, 0x13, 0x00, 0x00, 0x00,
  0x6d, 0x69, 0x6e, 0x5f, 0x72, 0x75, 0x6e, 0x74, 0x69, 0x6d, 0x65, 0x5f,
  0x76, 0x65, 0x72, 0x73, 0x69, 0x6f, 0x6e, 0x00, 0x0e, 0x00, 0x00, 0x00,
  0x38, 0x3d, 0x00, 0x00, 0x30, 0x3d, 0x00, 0x00, 0xf8, 0x3c, 0x00, 0x00,
  0xe8, 0x3b, 0x00, 0x00, 0xd0, 0x3b, 0x00, 0x00, 0xc0, 0x0a, 0x00, 0x00,
  0xb0, 0x00, 0x00, 0x00, 0xa8, 0x00, 0x00, 0x00, 0xa0, 0x00, 0x00, 0x00,
  0x98, 0x00, 0x00, 0x00, 0x90, 0x00, 0x00, 0x00, 0x88, 0x00, 0x00, 0x00,
  0x68, 0x00, 0x00, 0x00, 0x04, 0x00, 0x00, 0x00, 0x7a, 0xc2, 0xff, 0xff,
  0x04, 0x00, 0x00, 0x00, 0x54, 0x00, 0x00, 0x00, 0x0c, 0x00, 0x00, 0x00,
  0x08, 0x00, 0x0e, 0x00, 0x08, 0x00, 0x04, 0x00, 0x08, 0x00, 0x00, 0x00,
  0x10, 0x00, 0x00, 0x00, 0x24, 0x00, 0x00, 0x00, 0x00, 0x00, 0x06, 0x00,
  0x08, 0x00, 0x04, 0x00, 0x06, 0x00, 0x00, 0x00, 0x04, 0x00, 0x00, 0x00,
  0x00, 0x00, 0x00, 0x00, 0x00, 0x00, 0x0a, 0x00, 0x10, 0x00, 0x0c, 0x00,
  0x08, 0x00, 0x04, 0x00, 0x0a, 0x00, 0x00, 0x00, 0x02, 0x00, 0x00, 0x00,
  0x02, 0x00, 0x00, 0x00, 0x04, 0x00, 0x00, 0x00, 0x06, 0x00, 0x00, 0x00,
  0x32, 0x2e, 0x31, 0x33, 0x2e, 0x31, 0x00, 0x00, 0xda, 0xc2, 0xff, 0xff,
  0x04, 0x00, 0x00, 0x00, 0x10, 0x00, 0x00, 0x00, 0x31, 0x2e, 0x35, 0x2e,
  0x30, 0x00, 0x00, 0x00, 0x00, 0x00, 0x00, 0x00, 0x00, 0x00, 0x00, 0x00,
  0x50, 0xbd, 0xff, 0xff, 0x54, 0xbd, 0xff, 0xff, 0x58, 0xbd, 0xff, 0xff,
  0x5c, 0xbd, 0xff, 0xff, 0x60, 0xbd, 0xff, 0xff, 0x0a, 0xc3, 0xff, 0xff,
  0x04, 0x00, 0x00, 0x00, 0x00, 0x0a, 0x00, 0x00, 0x6a, 0xff, 0x6c, 0x3e,
  0xe7, 0x68, 0x0d, 0xbd, 0xa1, 0x50, 0x59, 0x3d, 0xc6, 0xdd, 0x7a, 0x3e,
  0x5c, 0x4a, 0x5b, 0xbe, 0xb4, 0xeb, 0x8f, 0x3c, 0xfc, 0x3e, 0x5b, 0xbe,
  0x89, 0x97, 0x42, 0x3e, 0x48, 0x93, 0x93, 0xbe, 0x6b, 0x5c, 0x67, 0xbe,
  0x78, 0x6f, 0x59, 0x3d, 0xc1, 0x39, 0x44, 0xbe, 0xc1, 0x74, 0x36, 0x3d,
  0x3e, 0xe4, 0x8c, 0xbd, 0x1a, 0x71, 0xcb, 0x3d, 0x44, 0x8e, 0x6b, 0xbe,
  0xee, 0xe2, 0x5c, 0xbe, 0x7e, 0x19, 0x98, 0xbc, 0x05, 0x2d, 0x78, 0xbe,
  0x5f, 0x6e, 0x92, 0x3d, 0x21, 0x9e, 0x89, 0xbe, 0x56, 0x72, 0x87, 0xbe,
  0xd7, 0x94, 0xde, 0xbd, 0xdd, 0x44, 0x39, 0x3e, 0xb0, 0x5b, 0x89, 0x3d,
  0xc7, 0xb5, 0x2f, 0xbd, 0x27, 0xe5, 0x76, 0x3e, 0x1e, 0x3f, 0x50, 0x3c,
  0x1d, 0x05, 0xfd, 0x3d, 0xb5, 0x21, 0x52, 0x3e, 0x62, 0x76, 0x0f, 0xbd,
  0x40, 0xeb, 0xcb, 0x3d, 0xe8, 0xcb, 0x95, 0x3b, 0x4c, 0x35, 0x1b, 0x3e,
  0xdf, 0xcf, 0x45, 0xbe, 0x47, 0x01, 0x42, 0xbd, 0xe9, 0xd7, 0x74, 0xbe,
  0x2d, 0xa3, 0x3f, 0x3e, 0x09, 0x67, 0x88, 0xbd, 0x06, 0xaa, 0x64, 0xbe,
  0x21, 0x58, 0x6b, 0x3e, 0xa0, 0xb7, 0x8a, 0x3e, 0xf2, 0xc1, 0x50, 0xbe,
  0xde, 0xaf, 0x6b, 0x3d, 0xd4, 0x70, 0x51, 0x3d, 0xb2, 0xe8, 0x86, 0xbe,
  0xc0, 0x26, 0x30, 0x3e, 0x21, 0xca, 0x84, 0xbe, 0x6d, 0xa3, 0xe5, 0x3c,
  0x59, 0x8f, 0xd4, 0xbd, 0x16, 0x79, 0xb3, 0xbd, 0x80, 0x7b, 0x75, 0x3e,
  0x52, 0x78, 0x65, 0x3e, 0xeb, 0xe3, 0x3c, 0xbc, 0x21, 0xf8, 0xdb, 0x3b,
  0xbb, 0xe3, 0xd7, 0xbc, 0xeb, 0x67, 0xe5, 0xbd, 0x7b, 0x34, 0xbe, 0xbd,
  0xa5, 0xd8, 0xcc, 0x3d, 0xf7, 0xc0, 0xe1, 0x3a, 0xed, 0x2f, 0xac, 0x3c,
  0x65, 0xfb, 0xc6, 0xbd, 0xb8, 0x0e, 0x0b, 0x3e, 0xf3, 0x1b, 0x9b, 0x3d,
  0x02, 0xc9, 0x7f, 0xbe, 0x1f, 0x75, 0x83, 0xbd, 0x25, 0x27, 0x99, 0xbd,
  0x88, 0x48, 0x0c, 0x3e, 0x54, 0xbe, 0xea, 0xbd, 0x3f, 0x9e, 0x93, 0xbe,
  0xfb, 0xf9, 0x96, 0x3d, 0x08, 0x20, 0x3f, 0xbd, 0xc2, 0x0d, 0x7f, 0xbe,
  0xe0, 0x1b, 0x01, 0xbd, 0x8e, 0x0d, 0x86, 0x3e, 0xbf, 0x35, 0x43, 0x3e,
  0xde, 0xb9, 0x89, 0x3e, 0xc8, 0x6e, 0x34, 0xbe, 0x82, 0x51, 0x78, 0xbe,
  0xb8, 0x9f, 0xbe, 0x3d, 0xa8, 0x16, 0x4d, 0xbe, 0x6c, 0xe9, 0x58, 0xbe,
  0x1a, 0x1f, 0x18, 0x3c, 0x25, 0x2a, 0x81, 0x3e, 0x95, 0x28, 0x7c, 0x3e,
  0xec, 0x31, 0x04, 0xbe, 0xaa, 0x60, 0x20, 0x3e, 0xaf, 0x41, 0x9e, 0x3c,
  0x8a, 0xf0, 0x4a, 0x3d, 0xdf, 0xe7, 0xed, 0xbd, 0x53, 0xd3, 0x55, 0x3e,
  0xd1, 0x6c, 0xa6, 0x3d, 0x61, 0x15, 0xf5, 0x3c, 0x42, 0x52, 0x3a, 0x3e,
  0x87, 0xaa, 0x9f, 0x3d, 0xda, 0x63, 0x76, 0x3e, 0x02, 0xf4, 0x2f, 0xbe,
  0x2b, 0x55, 0x9b, 0xbd, 0x38, 0xef, 0x3c, 0xbe, 0x72, 0x20, 0x1a, 0xbe,
  0xcf, 0xfb, 0xd4, 0xbc, 0x99, 0xa9, 0x07, 0x3e, 0xd2, 0x42, 0x0a, 0x3e,
  0x40, 0xd3, 0xb6, 0x3d, 0x47, 0x35, 0x5c, 0x3d, 0xfe, 0x60, 0x7b, 0xbc,
  0xd4, 0xe3, 0x36, 0xbe, 0xdf, 0xd2, 0x29, 0xbd, 0xce, 0x72, 0x53, 0x3e,
  0x3b, 0xeb, 0x11, 0xbd, 0xc9, 0xaa, 0x09, 0x3d, 0x99, 0x5c, 0xc5, 0xbd,
  0x83, 0x7c, 0x82, 0x3d, 0xb3, 0xc5, 0x10, 0x3d, 0x26, 0x1f, 0x59, 0xbe,
  0xcb, 0x36, 0x4b, 0xbe, 0x50, 0x4e, 0x28, 0xbe, 0x8a, 0xa6, 0x1f, 0x3d,
  0xd0, 0x4b, 0x39, 0x3e, 0x8b, 0x13, 0x50, 0x3e, 0xfb, 0x72, 0x2e, 0xbe,
  0x31, 0x42, 0xad, 0xbd, 0x9b, 0xe6, 0x49, 0x3d, 0x60, 0xc7, 0xfd, 0x3d,
  0x41, 0x86, 0x58, 0xbe, 0xc0, 0xda, 0x06, 0xbe, 0xeb, 0xa9, 0x14, 0x3e,
  0xb3, 0xc9, 0x88, 0xbc, 0x63, 0x3e, 0x8a, 0xbe, 0x10, 0x2e, 0xb6, 0xbb,
  0x35, 0xc4, 0x78, 0xbe, 0x46, 0x27, 0xe8, 0x3d, 0x19, 0x42, 0x86, 0xbd,
  0xff, 0x50, 0x3d, 0x3d, 0x6f, 0x3a, 0x59, 0x3e, 0x1f, 0x8a, 0xe6, 0xbd,
  0x67, 0xda, 0xcf, 0xbd, 0x88, 0x66, 0xb5, 0x3c, 0xae, 0x62, 0x1e, 0xbe,
  0x9e, 0xb3, 0x84, 0xbe, 0x12, 0xde, 0x87, 0xbe, 0xc8, 0x52, 0x3b, 0x3e,
  0x15, 0xd7, 0x95, 0x3e, 0x4e, 0xb2, 0x46, 0x3e, 0xce, 0x3a, 0x4f, 0xbe,
  0x0c, 0xd2, 0x3c, 0xbe, 0x6c, 0x17, 0x93, 0x3d, 0xe6, 0x75, 0x4a, 0x3e,
  0xd9, 0xe3, 0x90, 0xbe, 0xa5, 0x56, 0x8b, 0xbd, 0x45, 0x43, 0x3b, 0x3e,
  0x81, 0x61, 0x09, 0x3d, 0xa4, 0xca, 0x01, 0x3e, 0x5e, 0x22, 0x85, 0x3e,
  0x37, 0xc4, 0x8d, 0xbc, 0x99, 0xb8, 0x68, 0x3e, 0x08, 0xbc, 0x73, 0xbe,
  0x44, 0x77, 0xa1, 0xbd, 0x7f, 0x6b, 0x7e, 0xbd, 0x59, 0xe3, 0xc7, 0x3c,
  0xcb, 0x59, 0x72, 0x3e, 0x0d, 0x68, 0x27, 0xbe, 0x60, 0x94, 0x24, 0x3e,
  0x7c, 0xb9, 0xd2, 0xbd, 0xbb, 0x7e, 0xcb, 0x3d, 0x5c, 0xcc, 0xc2, 0x3d,
  0x75, 0x70, 0x34, 0x3e, 0x1d, 0x8f, 0x1c, 0x3e, 0xca, 0xec, 0xbb, 0xbd,
  0x8b, 0xbd, 0xb6, 0x3d, 0x84, 0xf9, 0x03, 0x3e, 0xd6, 0xcc, 0x90, 0xbe,
  0x84, 0xff, 0x29, 0x3e, 0xae, 0x65, 0x9a, 0x3d, 0xd9, 0x66, 0x61, 0x3d,
  0x92, 0x6c, 0xf8, 0xbd, 0x75, 0x8c, 0x24, 0x3e, 0x79, 0xe0, 0x79, 0xbc,
  0x3b, 0x06, 0x22, 0x3d, 0x9d, 0x36, 0x7b, 0x3e, 0xff, 0x62, 0x26, 0x3e,
  0xf7, 0x70, 0xe5, 0xbd, 0xe1, 0x69, 0x5b, 0xbe, 0x68, 0x6c, 0x5b, 0xbd,
  0xc6, 0x09, 0x87, 0xbe, 0x31, 0x01, 0x9e, 0x3d, 0x06, 0x06, 0x16, 0xbd,
  0xf9, 0xcd, 0xbf, 0x3d, 0xbf, 0xc5, 0x82, 0x3c, 0xea, 0x65, 0xdf, 0x3d,
  0x6f, 0x79, 0xb1, 0xbd, 0x3a, 0x94, 0x47, 0xbe, 0x41, 0xc7, 0x94, 0xbe,
  0x80, 0x39, 0x51, 0x39, 0x1c, 0x9a, 0x62, 0x3e, 0x5e, 0x9f, 0x53, 0xbc,
  0x28, 0x96, 0x25, 0xbe, 0xb4, 0x18, 0xa2, 0x3d, 0xb5, 0xc2, 0x41, 0x3e,
  0x43, 0x0a, 0x8a, 0xbe, 0x97, 0xd6, 0x76, 0xbe, 0x31, 0x11, 0x55, 0xbe,
  0xc0, 0x55, 0x6d, 0xbd, 0x69, 0x3c, 0x94, 0x3d, 0x39, 0xe1, 0x4b, 0xbe,
  0xc7, 0xf3, 0x3a, 0xbe, 0x3d, 0xcf, 0x8f, 0xbe, 0xc9, 0x2e, 0x53, 0x3e,
  0x5d, 0xd9, 0x00, 0x3e, 0x33, 0xa6, 0x88, 0x3d, 0x35, 0x0c, 0x1e, 0x3d,
  0xcd, 0x17, 0x07, 0x3e, 0xd8, 0x3a, 0x2e, 0xbe, 0xa0, 0xac, 0x0e, 0xbe,
  0xec, 0xbf, 0x8b, 0xbb, 0x2d, 0x93, 0x15, 0x3e, 0x2f, 0x42, 0x63, 0x3d,
  0x50, 0xea, 0x6a, 0xbe, 0x52, 0x56, 0xeb, 0x3d, 0xd7, 0xc4, 0x1b, 0x3e,
  0x85, 0xb7, 0x93, 0xbd, 0x4b, 0x18, 0x98, 0x3d, 0xb0, 0xa6, 0x81, 0xbe,
  0x3d, 0x69, 0xec, 0x3c, 0x98, 0x90, 0x24, 0xbd, 0xf8, 0xf6, 0x5a, 0xbe,
  0x84, 0x8b, 0x67, 0xbe, 0x2f, 0x31, 0x9b, 0xbc, 0x49, 0xef, 0xa3, 0x3d,
  0xe9, 0x3c, 0xab, 0xbd, 0xda, 0xeb, 0x72, 0x3e, 0xa9, 0x20, 0x74, 0xbd,
  0xab, 0x1d, 0x49, 0x3e, 0xd0, 0xfa, 0x7f, 0x3e, 0x9b, 0x90, 0x41, 0x3e,
  0x48, 0x44, 0x0a, 0x3e, 0x14, 0xfd, 0x54, 0xbe, 0x5d, 0x30, 0xe1, 0xbd,
  0xd7, 0x26, 0x09, 0x3e, 0xb6, 0x94, 0x45, 0x3e, 0xba, 0x09, 0x27, 0x3e,
  0x55, 0x56, 0xf8, 0x3d, 0xe1, 0x49, 0x77, 0x3e, 0x05, 0x1e, 0xe4, 0x3d,
  0x00, 0xf8, 0x3e, 0xbe, 0x57, 0x6a, 0x1c, 0x3d, 0x15, 0x11, 0x00, 0x3e,
  0x7e, 0x33, 0x81, 0x3d, 0xf3, 0x06, 0x1e, 0xbe, 0x4c, 0x1b, 0x8b, 0x3e,
  0x60, 0xf3, 0x7c, 0xbb, 0x0e, 0x6d, 0x1f, 0xbe, 0x97, 0x36, 0xa8, 0xbc,
  0x62, 0x13, 0x1b, 0xbe, 0x12, 0x81, 0x5c, 0x3e, 0xb5, 0x1f, 0xaf, 0x3d,
  0xbf, 0x68, 0x6a, 0x3e, 0xd4, 0x60, 0x87, 0xbe, 0xdf, 0xd1, 0x18, 0xbe,
  0x7a, 0x54, 0x19, 0xbe, 0x61, 0xdb, 0x77, 0xbe, 0xef, 0xd4, 0x54, 0x3e,
  0xa5, 0x8f, 0x62, 0x3e, 0x0b, 0x59, 0xcc, 0xbd, 0x5a, 0xc9, 0xc9, 0xbd,
  0x7e, 0x9a, 0x3f, 0x3e, 0x78, 0x9c, 0xb5, 0xbd, 0x96, 0x74, 0x95, 0x3e,
  0x51, 0x7c, 0x15, 0x3e, 0x8d, 0x38, 0xe3, 0xbd, 0x5d, 0x48, 0x4d, 0xbe,
  0x9f, 0xee, 0x2b, 0x3e, 0x3d, 0x12, 0xb5, 0x3d, 0x8b, 0x1e, 0x7c, 0x3e,
  0xc0, 0x51, 0x5d, 0x3d, 0x7a, 0x2c, 0x83, 0xbe, 0x31, 0x2a, 0x4f, 0xbc,
  0x7a, 0x77, 0x62, 0xbe, 0x1c, 0x0e, 0x00, 0x3e, 0xd2, 0xa7, 0x56, 0xbe,
  0x6d, 0x87, 0xd3, 0x3d, 0x27, 0xcc, 0x08, 0xbe, 0xb8, 0xf8, 0xa6, 0xbc,
  0xec, 0x1b, 0xc6, 0x3d, 0x21, 0xb2, 0x35, 0x3d, 0x70, 0x5a, 0x48, 0xbe,
  0x17, 0xe9, 0x04, 0x3d, 0xf0, 0xe4, 0x54, 0xbe, 0x77, 0x9c, 0x76, 0x3e,
  0xfa, 0x25, 0x54, 0xbe, 0x73, 0xb8, 0x52, 0x3e, 0x91, 0x13, 0x94, 0x3e,
  0x0f, 0x52, 0x95, 0x3d, 0x1e, 0xf3, 0x82, 0x3e, 0xbf, 0x69, 0x07, 0x3e,
  0x77, 0xde, 0xb8, 0xbc, 0xac, 0x9d, 0x85, 0xbe, 0xaf, 0x06, 0x86, 0xbe,
  0x2f, 0x45, 0xef, 0x3d, 0x61, 0x10, 0x01, 0xbe, 0x58, 0x58, 0x88, 0xbe,
  0x37, 0x91, 0x59, 0xbe, 0xd2, 0x0c, 0x89, 0x3e, 0x27, 0x4b, 0xe5, 0xbd,
  0xad, 0xad, 0xe2, 0x3d, 0xdf, 0x42, 0xe7, 0xbd, 0x8d, 0x44, 0xf7, 0x3d,
  0xe5, 0x21, 0x5b, 0x3d, 0x6b, 0xd2, 0x81, 0x3e, 0x08, 0x1f, 0x44, 0xbe,
  0x98, 0xc2, 0x26, 0x3e, 0x94, 0x34, 0x11, 0x3e, 0x02, 0xd1, 0x78, 0x3e,
  0xfb, 0xc1, 0xeb, 0x3d, 0x45, 0x01, 0x37, 0xbe, 0x92, 0x77, 0xf9, 0xbd,
  0x15, 0x11, 0x5c, 0x3e, 0x89, 0x2f, 0x89, 0xbe, 0x8f, 0x7b, 0x49, 0xbe,
  0xf4, 0x75, 0x42, 0xbc, 0x0c, 0x4a, 0xe4, 0xbd, 0x59, 0x42, 0x8e, 0xbd,
  0x96, 0x93, 0x0e, 0x3e, 0xc2, 0x3d, 0x16, 0x3e, 0x4b, 0xff, 0x61, 0x3e,
  0x4b, 0xf4, 0x35, 0x3e, 0xdb, 0x8b, 0x1f, 0xbe, 0x22, 0xe6, 0x21, 0xbe,
  0x1d, 0x3a, 0x8a, 0x3e, 0x0d, 0xd2, 0x12, 0x3d, 0x76, 0x4b, 0x32, 0x3e,
  0xca, 0xb1, 0xce, 0x3c, 0x58, 0x60, 0x70, 0xbd, 0xca, 0xde, 0x26, 0xbe,
  0x7e, 0x34, 0x2e, 0xbe, 0xa0, 0x00, 0x83, 0x3d, 0xdd, 0x4f, 0xcd, 0xbc,
  0x86, 0xf1, 0x7f, 0xbe, 0xb0, 0xd7, 0xca, 0x3d, 0x68, 0x83, 0x21, 0xbe,
  0x09, 0xd7, 0x33, 0xbe, 0x92, 0xa7, 0x81, 0x3e, 0x79, 0x92, 0x83, 0xbe,
  0xf8, 0xda, 0x84, 0xbd, 0x3b, 0x81, 0x17, 0xbe, 0xf4, 0xc4, 0x10, 0x3e,
  0x0c, 0xd2, 0xc8, 0xbd, 0xbd, 0x9d, 0x69, 0x3e, 0x65, 0x79, 0x42, 0x3e,
  0xce, 0xb8, 0x22, 0x3e, 0xec, 0x89, 0x38, 0x3e, 0x49, 0x90, 0x07, 0xbe,
  0x8c, 0xe2, 0x82, 0x3e, 0xac, 0xba, 0x2d, 0x3b, 0x84, 0xd4, 0x52, 0x3e,
  0x12, 0x48, 0x49, 0x3e, 0xd8, 0x3d, 0x95, 0xbd, 0x2e, 0xc7, 0x76, 0xbe,
  0x64, 0x19, 0xcd, 0xbc, 0xdf, 0x43, 0x51, 0x3e, 0x52, 0x50, 0x8d, 0xbe,
  0x69, 0xc9, 0x64, 0xbe, 0x5a, 0x1d, 0x08, 0xbd, 0x59, 0x03, 0x9a, 0xbc,
  0x6c, 0x17, 0x2c, 0x3e, 0xd9, 0xb8, 0xcf, 0x3d, 0xc5, 0x8d, 0xe7, 0x3d,
  0x00, 0xfa, 0xd8, 0x3d, 0xa1, 0x4d, 0x8c, 0xbe, 0x37, 0x13, 0x89, 0xbd,
  0x00, 0x1e, 0x67, 0x3e, 0xd7, 0xff, 0x7f, 0xbe, 0xf9, 0x32, 0x83, 0xbd,
  0x7a, 0x9f, 0x73, 0xbe, 0x07, 0x90, 0x02, 0xbe, 0x13, 0xd6, 0x3d, 0x3d,
  0x98, 0x1e, 0x41, 0x3e, 0x61, 0x3a, 0xa7, 0x3c, 0x89, 0xab, 0x1e, 0x3e,
  0xef, 0x3a, 0xbc, 0xbd, 0xe6, 0xea, 0x22, 0x3d, 0x45, 0x7c, 0x3f, 0xbe,
  0x66, 0xc2, 0x49, 0x3e, 0x9d, 0x6b, 0x83, 0xbd, 0xf0, 0x42, 0x54, 0x3c,
  0x7c, 0xd0, 0x86, 0x3e, 0x0b, 0x28, 0x6f, 0xbe, 0x61, 0xfc, 0x45, 0xbe,
  0x72, 0xfd, 0x91, 0x3d, 0x1b, 0xac, 0x46, 0x3e, 0x7b, 0x93, 0x18, 0x3e,
  0xae, 0xdb, 0xae, 0x3d, 0xf9, 0xa0, 0xde, 0xbc, 0x7b, 0x95, 0x1f, 0x3e,
  0xf5, 0x46, 0x3f, 0xbe, 0xcf, 0x75, 0xb4, 0x3d, 0x7a, 0xad, 0x82, 0xbe,
  0xc6, 0x49, 0x3b, 0x3e, 0xa2, 0x13, 0x8e, 0x3d, 0x84, 0x43, 0x52, 0xbe,
  0xf5, 0xae, 0x70, 0x3e, 0xdb, 0x88, 0x5e, 0x3e, 0xa5, 0x05, 0x3e, 0xbd,
  0xd5, 0x40, 0x8a, 0xbe, 0x7b, 0x3b, 0x61, 0xbe, 0x4a, 0x3f, 0x8b, 0x3d,
  0xca, 0xe3, 0x40, 0x3e, 0x02, 0x0d, 0xc4, 0x3d, 0xae, 0x0e, 0xf9, 0xbd,
  0x47, 0x22, 0x46, 0xbe, 0x60, 0xcc, 0x68, 0xbe, 0xed, 0xd0, 0x32, 0x3e,
  0xb6, 0xaf, 0x4a, 0xbe, 0x3e, 0x54, 0x2e, 0xbd, 0x64, 0x1e, 0x88, 0xbe,
  0xca, 0x9c, 0x82, 0xbe, 0x7a, 0xf8, 0x26, 0xbe, 0xe9, 0x20, 0x4a, 0x3c,
  0x40, 0x7e, 0x00, 0xbd, 0x75, 0x51, 0x51, 0xbe, 0x3c, 0x21, 0x44, 0x3e,
  0x5e, 0xc1, 0xa8, 0xbb, 0xa6, 0x02, 0x2f, 0x3d, 0x8a, 0xf5, 0xd0, 0xbd,
  0x73, 0xcf, 0xf9, 0xba, 0x56, 0x6c, 0xd9, 0xbc, 0xec, 0xf8, 0xb8, 0xbc,
  0x66, 0xac, 0x89, 0x3e, 0x2f, 0x9a, 0xfe, 0xbd, 0x05, 0x7f, 0x83, 0x3b,
  0xdb, 0x31, 0x84, 0x3e, 0x40, 0x88, 0x76, 0xbd, 0xef, 0xea, 0x89, 0x3e,
  0x92, 0xdb, 0x4b, 0xbe, 0xd3, 0x20, 0xe0, 0x3c, 0x02, 0xe3, 0xa1, 0x3c,
  0xe0, 0x06, 0x3a, 0x3e, 0x15, 0xa4, 0x53, 0xbd, 0xb1, 0xc7, 0xad, 0x3d,
  0xbc, 0x9c, 0x2e, 0x3e, 0x86, 0x83, 0x91, 0x3d, 0xc5, 0x25, 0x0a, 0xbd,
  0x54, 0xb2, 0x71, 0xbd, 0xc3, 0x31, 0xf4, 0x3b, 0xb8, 0xff, 0x8b, 0xbc,
  0x2c, 0xcc, 0x43, 0xbc, 0x1d, 0x7c, 0xdd, 0x3b, 0x51, 0x0d, 0x37, 0x3e,
  0x1b, 0x63, 0x1c, 0xbe, 0x1b, 0xed, 0x7b, 0xbe, 0xa7, 0x1c, 0x76, 0x3e,
  0xc6, 0x8d, 0xa6, 0x3d, 0x03, 0x0f, 0xc5, 0xbd, 0xa6, 0x60, 0x5e, 0x3e,
  0x22, 0x5f, 0xc8, 0x3d, 0x1c, 0x81, 0x4e, 0x3e, 0xb1, 0xe0, 0x93, 0xbe,
  0x3d, 0x64, 0x31, 0x3e, 0xb2, 0x6c, 0x11, 0x3e, 0xf7, 0xa1, 0x29, 0x3e,
  0x76, 0xd4, 0x57, 0xbe, 0xb2, 0xaa, 0x39, 0x3e, 0x9f, 0x15, 0x63, 0x3e,
  0xb6, 0x65, 0xe3, 0x3d, 0xb7, 0x2f, 0x2a, 0xbe, 0x36, 0x0d, 0x0e, 0xbd,
  0xd5, 0x78, 0x03, 0xbd, 0x52, 0xc6, 0xc2, 0x3d, 0x42, 0xe0, 0x08, 0xbe,
  0x82, 0xd7, 0x9e, 0xbd, 0x17, 0x0c, 0xff, 0x3d, 0x48, 0xd1, 0x3d, 0x3e,
  0x40, 0x0f, 0x4f, 0x3e, 0x24, 0xce, 0x06, 0xbe, 0x24, 0x5c, 0x75, 0xbe,
  0xe5, 0x0e, 0x9a, 0xbd, 0xf8, 0x11, 0xff, 0x3c, 0xfa, 0xd4, 0x15, 0xbe,
  0x9c, 0x3b, 0x5b, 0xbc, 0xa7, 0xce, 0xf1, 0xbd, 0x8c, 0xd5, 0xf2, 0x3d,
  0x7d, 0x2e, 0x1f, 0xbe, 0x9c, 0x73, 0xfe, 0x3d, 0x1e, 0x0b, 0x58, 0x3c,
  0x90, 0x75, 0xcd, 0x3c, 0x48, 0xec, 0x9e, 0xbc, 0xcb, 0xe9, 0x44, 0x3d,
  0x14, 0x44, 0x3f, 0xbe, 0x60, 0x5e, 0x07, 0xbd, 0x5f, 0x18, 0x6f, 0xbe,
  0x3d, 0xac, 0x88, 0xbe, 0xbc, 0x2e, 0x7b, 0x3d, 0x1d, 0xdc, 0x72, 0x3e,
  0x52, 0x2d, 0x7c, 0xbd, 0x0b, 0xfa, 0x7d, 0xbd, 0xfc, 0x55, 0xd4, 0x3d,
  0xd1, 0xdf, 0x1c, 0xbe, 0xcf, 0x38, 0x3e, 0xbe, 0xef, 0x28, 0x8e, 0x3d,
  0x82, 0xd6, 0x24, 0xbe, 0x99, 0xc7, 0x43, 0x3c, 0x82, 0xa9, 0x77, 0x3e,
  0x2d, 0x74, 0x2f, 0x3e, 0xc9, 0x14, 0x59, 0x3e, 0x28, 0xb1, 0xac, 0xbd,
  0x5c, 0xab, 0xf7, 0xbd, 0x5a, 0x1f, 0xdd, 0xbd, 0xa4, 0xe8, 0x7d, 0xbe,
  0x79, 0xda, 0x96, 0xbd, 0x99, 0x6c, 0x5e, 0x3e, 0xf0, 0xff, 0x82, 0xbe,
  0x1a, 0xc9, 0x70, 0xbe, 0xbb, 0x60, 0x3e, 0xbe, 0xff, 0xc6, 0x01, 0xbe,
  0x63, 0x23, 0x94, 0x3d, 0x58, 0x55, 0x13, 0x3e, 0x42, 0xc5, 0x6a, 0xbe,
  0xde, 0x22, 0x2c, 0x3e, 0x93, 0x2e, 0x32, 0x3e, 0xde, 0x71, 0x45, 0xbe,
  0xf2, 0x52, 0xba, 0xbd, 0x4b, 0xed, 0x88, 0xbe, 0xb0, 0x1d, 0x4a, 0x3e,
  0x2b, 0x42, 0x53, 0x3e, 0x9d, 0x49, 0x06, 0x3e, 0xfe, 0x2d, 0x9e, 0xbd,
  0x29, 0xf2, 0x84, 0xbe, 0xa9, 0x96, 0x11, 0x3e, 0x00, 0xeb, 0x29, 0xbe,
  0x8c, 0xef, 0x72, 0xbe, 0x60, 0x14, 0x3e, 0x3e, 0x12, 0x5f, 0xd0, 0xbd,
  0x35, 0x74, 0xc3, 0x3d, 0x3f, 0x91, 0xed, 0x3c, 0x03, 0xeb, 0x03, 0xbe,
  0xb6, 0x2e, 0x0f, 0x3d, 0xcd, 0xec, 0x2f, 0x3c, 0xbb, 0x10, 0x9e, 0xbd,
  0xd9, 0x9f, 0x5c, 0x3e, 0xd3, 0xd2, 0x6c, 0x3e, 0x50, 0xb0, 0xb9, 0xbc,
  0x68, 0x25, 0x27, 0x3e, 0xd4, 0xdd, 0x8c, 0xbe, 0xa1, 0xf0, 0x93, 0xbe,
  0x37, 0xa4, 0xd5, 0x3d, 0x52, 0xdd, 0x5e, 0xbd, 0x6e, 0x23, 0x5e, 0x3d,
  0x64, 0x96, 0xcc, 0xbd, 0x0e, 0xa0, 0x29, 0xbe, 0x5d, 0x52, 0x03, 0xbe,
  0x13, 0xa3, 0x83, 0xbd, 0x76, 0x26, 0xe7, 0x3d, 0x28, 0xfa, 0xff, 0x3d,
  0x08, 0xab, 0xd3, 0xbd, 0x21, 0x6e, 0xda, 0xbd, 0x7a, 0x0d, 0x5c, 0xbe,
  0xe3, 0x4e, 0x84, 0x3e, 0xb5, 0x88, 0x6a, 0x3e, 0x31, 0x90, 0xea, 0x3d,
  0xf8, 0x60, 0xa0, 0xbb, 0x82, 0xf2, 0x53, 0xbe, 0x8b, 0x08, 0x05, 0x3e,
  0xf0, 0x1f, 0x89, 0x3e, 0xb4, 0xd8, 0xa8, 0xbd, 0x6e, 0xfd, 0x39, 0xbd,
  0x9b, 0x17, 0x90, 0x3e, 0x31, 0x15, 0x81, 0xbe, 0xaf, 0x04, 0x7e, 0x3e,
  0x91, 0x7a, 0x4b, 0xbe, 0xc0, 0xb5, 0x60, 0xbd, 0x30, 0xd1, 0x01, 0xbe,
  0xb5, 0x69, 0x62, 0x3e, 0x06, 0x74, 0x31, 0x3e, 0x1d, 0xa1, 0xe7, 0xbd,
  0x12, 0xe3, 0xe2, 0x3d, 0x78, 0xa8, 0x07, 0x3b, 0x4c, 0x73, 0x82, 0xbc,
  0x89, 0x20, 0x58, 0xbe, 0x73, 0xea, 0x53, 0xbe, 0x09, 0x2f, 0x86, 0x3e,
  0x3c, 0x92, 0x1c, 0x3e, 0x35, 0x60, 0x7d, 0xbe, 0xce, 0xde, 0x33, 0x3e,
  0x79, 0xa5, 0x18, 0x3e, 0x5a, 0x8d, 0xa6, 0xbd, 0x3b, 0x45, 0x80, 0xbd,
  0xbc, 0xb6, 0x79, 0x3d, 0xa7, 0x96, 0x0d, 0x3d, 0xc5, 0x80, 0x2c, 0xbe,
  0xb5, 0x36, 0x7d, 0xbe, 0x4a, 0xaf, 0x43, 0x3d, 0x6b, 0x3c, 0x8a, 0x3e,
  0x58, 0x29, 0x58, 0xbd, 0xdb, 0x8b, 0x83, 0xbe, 0xa7, 0x6f, 0x7c, 0x3e,
  0x84, 0x04, 0x22, 0x3e, 0xa7, 0xb0, 0x89, 0xbe, 0x69, 0x17, 0xe6, 0xbd,
  0xe3, 0xb7, 0xa3, 0xbd, 0x29, 0x66, 0xa6, 0x3d, 0xb6, 0x12, 0xa7, 0x3d,
  0x27, 0x1a, 0x5b, 0x3d, 0x97, 0x0f, 0x10, 0x3e, 0x79, 0xf9, 0x5e, 0xbe,
  0xf0, 0xee, 0x0c, 0xbe, 0x9d, 0x6e, 0x5b, 0x3e, 0xe7, 0x43, 0x25, 0xbe,
  0xa7, 0x4a, 0x3e, 0xbe, 0x17, 0x42, 0xd2, 0xbd, 0x7f, 0x6d, 0x76, 0x3e,
  0x85, 0x6e, 0xd5, 0xbd, 0xd8, 0x24, 0x84, 0xbe, 0xed, 0x3d, 0xb8, 0x3d,
  0xa2, 0xb1, 0x70, 0x3e, 0xb5, 0xac, 0xdb, 0xbd, 0xd7, 0x54, 0xdb, 0xbc,
  0x09, 0x7d, 0x33, 0xbd, 0xe5, 0xa0, 0x2f, 0x3e, 0xf8, 0xa6, 0xd1, 0xbd,
  0xd3, 0xec, 0xb3, 0xbd, 0x65, 0x1b, 0x7c, 0xbe, 0xda, 0xe4, 0xde, 0x3d,
  0xdb, 0x68, 0xef, 0xbd, 0xc7, 0x92, 0x31, 0xbe, 0x77, 0x72, 0x45, 0xbe,
  0x00, 0xcf, 0x3d, 0xbe, 0x13, 0xa9, 0x0e, 0x3e, 0x67, 0xa0, 0x80, 0xbe,
  0x67, 0x6d, 0x5e, 0x3e, 0xa7, 0xe1, 0x2b, 0xbe, 0xce, 0xe7, 0x86, 0xbe,
  0x7a, 0xbf, 0x61, 0xbd, 0xf8, 0x0b, 0x6c, 0xbe, 0xd6, 0x34, 0x9e, 0xbd,
  0xa2, 0x79, 0x5e, 0xbd, 0x4d, 0x90, 0x08, 0xbe, 0xb8, 0xe5, 0x96, 0x3d,
  0x14, 0xf4, 0x8b, 0xbe, 0x5d, 0x34, 0xb3, 0x3c, 0x61, 0xaf, 0x25, 0x3e,
  0x16, 0xcd, 0xff, 0xff, 0x04, 0x00, 0x00, 0x00, 0x00, 0x31, 0x00, 0x00,
  0x31, 0x29, 0x13, 0xbe, 0xcd, 0x7d, 0x0c, 0x3e, 0x86, 0x5c, 0x20, 0xbe,
  0xb8, 0x3b, 0x34, 0x3e, 0x40, 0x94, 0x60, 0xbe, 0xe2, 0x28, 0x48, 0xbe,
  0xa0, 0x69, 0x28, 0x3e, 0xa0, 0x2d, 0xad, 0x3d, 0x18, 0x7e, 0x78, 0xbd,
  0x84, 0xfc, 0xce, 0xbd, 0xa7, 0x6d, 0x3b, 0xbd, 0xdd, 0xea, 0x52, 0xbe,
  0xc0, 0xd6, 0x66, 0x3d, 0xb2, 0x1e, 0xee, 0x3d, 0x52, 0xea, 0x2e, 0xbe,
  0xfb, 0x74, 0xba, 0x3c, 0x36, 0x1e, 0x01, 0xbd, 0x27, 0xdc, 0x81, 0x3d,
  0x90, 0x57, 0x03, 0x3e, 0x3c, 0xce, 0xb6, 0x3d, 0xed, 0x8c, 0x38, 0xbe,
  0x5b, 0x72, 0x16, 0xbe, 0xb9, 0x01, 0x0b, 0x3d, 0x18, 0xc4, 0xcd, 0xbd,
  0x8a, 0xc2, 0x13, 0x3e, 0xd8, 0x9a, 0x8e, 0xbd, 0xee, 0xfe, 0x7b, 0x3d,
  0xdb, 0x46, 0xdc, 0x3b, 0x61, 0x47, 0x9b, 0xbd, 0xa6, 0x4f, 0xa4, 0x3d,
  0xdb, 0xcc, 0xad, 0xbd, 0x60, 0xb2, 0x91, 0x3d, 0xa9, 0x45, 0x2d, 0xbe,
  0x24, 0xe8, 0xf0, 0xbd, 0x66, 0xa0, 0x02, 0x3d, 0x5f, 0x8c, 0x72, 0x3d,
  0xd6, 0x9c, 0x3b, 0xbd, 0xba, 0x79, 0xbe, 0x3c, 0x35, 0x79, 0x17, 0x3d,
  0x39, 0x80, 0x3d, 0x3d, 0x0c, 0x1d, 0xbc, 0x3d, 0xa6, 0x37, 0x67, 0xbe,
  0x20, 0xa1, 0xf1, 0x3b, 0xf1, 0xa2, 0x27, 0xbe, 0x7c, 0x20, 0x81, 0x3d,
  0x95, 0x07, 0x1d, 0x3e, 0x63, 0x3f, 0xb9, 0x3d, 0x13, 0xe2, 0xdb, 0x3d,
  0x2f, 0xbe, 0x0f, 0xbe, 0xd7, 0x79, 0x31, 0xbe, 0x78, 0xc0, 0x2f, 0x3e,
  0x63, 0xe8, 0x23, 0x3e, 0x53, 0x67, 0x34, 0x3e, 0x0e, 0xaa, 0x45, 0x3e,
  0x0c, 0x5c, 0x13, 0xbe, 0x40, 0x58, 0x9b, 0x3b, 0xcc, 0x9f, 0x1e, 0xbe,
  0x9c, 0x76, 0x59, 0x3d, 0xd8, 0xbd, 0x3a, 0xbe, 0x5a, 0x95, 0x3e, 0xbe,
  0x29, 0xcd, 0xd1, 0x3d, 0x10, 0x1a, 0x38, 0x3c, 0xc8, 0xd8, 0x26, 0xbe,
  0x4c, 0xcf, 0x86, 0xbc, 0xe5, 0x6e, 0x17, 0xbe, 0x5a, 0x64, 0x38, 0x3e,
  0x59, 0xbf, 0xd4, 0xbd, 0x13, 0xd1, 0xa2, 0xbd, 0xbb, 0x22, 0xb4, 0x3d,
  0xc9, 0x3d, 0x45, 0x3e, 0x60, 0x65, 0x91, 0x3c, 0xa4, 0x70, 0x83, 0xbd,
  0x74, 0xbb, 0x22, 0xbe, 0x83, 0xcc, 0x88, 0x3d, 0xcf, 0xca, 0xb3, 0xbd,
  0xe9, 0xa2, 0xd4, 0xbd, 0x53, 0xe1, 0x49, 0xbe, 0xaf, 0x12, 0x0b, 0xbe,
  0x08, 0xf2, 0x9e, 0xbd, 0x7d, 0xd2, 0x31, 0x3e, 0xd6, 0xf9, 0xe6, 0x3d,
  0xdf, 0x90, 0x26, 0xbe, 0xcc, 0x57, 0x28, 0x3d, 0x57, 0xe6, 0x66, 0xbd,
  0xf3, 0x79, 0x13, 0x3e, 0xdf, 0x0f, 0xdc, 0x3c, 0x1c, 0xff, 0xc2, 0x3d,
  0x6d, 0xdc, 0xbd, 0xbb, 0x0d, 0xdf, 0x47, 0xbe, 0x2d, 0xfd, 0x15, 0xbe,
  0xf2, 0xc4, 0x56, 0xbd, 0xb2, 0x43, 0x5a, 0xbe, 0x90, 0x5d, 0x93, 0x3d,
  0xa8, 0x3a, 0xa3, 0x3d, 0xd5, 0x5a, 0x0c, 0xbe, 0x2d, 0x98, 0xf5, 0x3d,
  0xa2, 0xdf, 0xbf, 0xbd, 0x9d, 0x3f, 0x1f, 0xbe, 0x3a, 0x75, 0x4a, 0x3e,
  0x3a, 0x18, 0x31, 0x3e, 0xae, 0xde, 0x03, 0xbe, 0x7e, 0xf0, 0x46, 0x3a,
  0x5a, 0x50, 0x2b, 0xbe, 0xff, 0x6a, 0xba, 0x3d, 0xf0, 0xf0, 0xf7, 0x3d,
  0xca, 0xa5, 0x58, 0xbe, 0x07, 0x6c, 0xf1, 0x3d, 0x37, 0x9e, 0x40, 0xbe,
  0x01, 0xab, 0x33, 0x3e, 0x78, 0x86, 0x12, 0xbd, 0xd1, 0x9b, 0x05, 0x3e,
  0x11, 0xda, 0x04, 0xbe, 0xfc, 0x44, 0xd5, 0x3c, 0xd7, 0x6b, 0x30, 0x3e,
  0x0f, 0x44, 0x4c, 0x3e, 0xb6, 0x40, 0x18, 0x3e, 0x0d, 0x65, 0x0e, 0x3e,
  0x97, 0x57, 0x3a, 0x3e, 0x0e, 0xa4, 0xac, 0x3d, 0xef, 0x1f, 0x45, 0x3e,
  0x32, 0xe7, 0xc1, 0xbd, 0x4c, 0xb0, 0x8a, 0x3d, 0x39, 0x0f, 0x6a, 0xbd,
  0x07, 0x53, 0x20, 0x3d, 0x5b, 0x7e, 0x56, 0xbe, 0x38, 0x67, 0x35, 0xbe,
  0xc8, 0x97, 0x21, 0x3e, 0xbb, 0x41, 0x55, 0x3e, 0xa8, 0x0c, 0x1c, 0x3e,
  0x19, 0xd3, 0xde, 0x3d, 0x56, 0x0c, 0x05, 0xbe, 0x55, 0xf4, 0xf0, 0xbd,
  0xf8, 0x06, 0xd2, 0xbd, 0x39, 0xaa, 0xfd, 0xbd, 0x7e, 0x4e, 0x64, 0xbd,
  0x29, 0x9a, 0x11, 0xbe, 0x79, 0xd5, 0x48, 0x3e, 0xa1, 0xb7, 0x0d, 0xbc,
  0x8d, 0x55, 0x56, 0xbe, 0x9f, 0x3c, 0xbe, 0x3d, 0x74, 0xb9, 0x17, 0xbd,
  0xfd, 0x65, 0xc3, 0xbd, 0x53, 0x50, 0xdf, 0x3d, 0x85, 0x60, 0x59, 0x3e,
  0x0b, 0x6a, 0xf4, 0xbd, 0x7c, 0x81, 0xae, 0x3c, 0x4e, 0x8d, 0xcf, 0xbd,
  0xf8, 0x2c, 0xf3, 0x3d, 0x90, 0x4b, 0xf3, 0x3c, 0x04, 0x25, 0x02, 0xbd,
  0x2f, 0xa5, 0xda, 0xbd, 0x28, 0x15, 0xa4, 0x3d, 0xaf, 0x28, 0x17, 0x3e,
  0xe7, 0x3f, 0x05, 0xbe, 0x9c, 0x89, 0x28, 0xbe, 0xfb, 0x21, 0x90, 0x3d,
  0x48, 0xbf, 0x22, 0xb9, 0x2d, 0xc7, 0x47, 0xbe, 0x5c, 0x66, 0xb8, 0xbb,
  0x1c, 0xe9, 0x31, 0x3d, 0x8f, 0xf1, 0xf8, 0xbd, 0xee, 0x06, 0xc7, 0xbd,
  0xba, 0x78, 0x1d, 0xbd, 0x83, 0x7e, 0x3f, 0xbd, 0xbe, 0xb8, 0x80, 0xbb,
  0x31, 0xbc, 0xbd, 0x3d, 0xc2, 0x25, 0xdd, 0xbb, 0x86, 0x6b, 0x82, 0xbd,
  0x49, 0xcc, 0xf2, 0xbd, 0x21, 0xab, 0xad, 0x3d, 0xc8, 0x78, 0x57, 0x3a,
  0x34, 0xdb, 0x37, 0xbe, 0x36, 0x44, 0x05, 0x3c, 0xa6, 0x27, 0xc9, 0x3d,
  0xf5, 0xa6, 0x9f, 0x3d, 0x77, 0xb8, 0x78, 0xbd, 0x4f, 0x53, 0x1e, 0xbe,
  0xff, 0x52, 0xc4, 0xbd, 0x34, 0x96, 0x12, 0xbe, 0x71, 0x6d, 0x04, 0x3e,
  0x72, 0xee, 0x8e, 0xbb, 0x3c, 0x5c, 0x36, 0x3e, 0x5d, 0x4a, 0x5e, 0x3e,
  0x25, 0xf6, 0xd3, 0xbc, 0xc6, 0x50, 0x6b, 0x3e, 0xe2, 0x64, 0x07, 0xbe,
  0x8a, 0x51, 0xf4, 0xbd, 0xb0, 0x25, 0x44, 0x3c, 0xfd, 0x2b, 0x70, 0xbc,
  0x48, 0xb0, 0x39, 0x3d, 0x89, 0xfa, 0xff, 0x3d, 0x2d, 0x22, 0x8a, 0x3d,
  0xd6, 0x18, 0xe4, 0x3b, 0xc4, 0x4b, 0x04, 0x3e, 0xb2, 0x23, 0x8d, 0x3d,
  0x25, 0x70, 0xf1, 0xbd, 0xaa, 0x9a, 0x1f, 0xbe, 0x73, 0xa9, 0x5d, 0xbe,
  0x8e, 0xdb, 0x43, 0x3e, 0x69, 0x01, 0xa7, 0x3d, 0xb4, 0xf8, 0x88, 0xbd,
  0xd8, 0x11, 0xb1, 0xbd, 0xe0, 0x86, 0x49, 0xbe, 0x4e, 0xeb, 0xb0, 0x3d,
  0xd2, 0xf2, 0x00, 0x3b, 0x48, 0x62, 0x64, 0xbb, 0xe7, 0xe4, 0x3f, 0xbe,
  0x84, 0xb5, 0xf4, 0x3d, 0xaf, 0xb2, 0xae, 0x3d, 0x25, 0xef, 0x09, 0x3e,
  0x40, 0xeb, 0x60, 0x3e, 0x82, 0x71, 0xe0, 0x3d, 0x04, 0x7a, 0xf0, 0xbd,
  0xff, 0x57, 0x06, 0xbe, 0x57, 0x34, 0x2e, 0xbc, 0x82, 0xc2, 0xc3, 0x3d,
  0x5a, 0xb7, 0xb8, 0xbd, 0x5c, 0xc3, 0x2e, 0xbe, 0x8b, 0x49, 0x4f, 0x3e,
  0xb5, 0x98, 0x2a, 0xbe, 0x41, 0x36, 0xe4, 0x3d, 0xa9, 0x69, 0x5e, 0x3e,
  0xa3, 0x38, 0x07, 0xbe, 0x10, 0x36, 0x4f, 0xbc, 0x83, 0x23, 0x5c, 0x3e,
  0xa0, 0xee, 0x55, 0xbe, 0x03, 0xaa, 0x82, 0x3d, 0xf0, 0x66, 0x05, 0xbe,
  0x0d, 0x25, 0x59, 0xbd, 0x4c, 0x15, 0x9a, 0x3c, 0x20, 0x9f, 0x6c, 0x3c,
  0x7f, 0x89, 0x0c, 0x3d, 0x8f, 0x2a, 0x49, 0xbc, 0x8f, 0x90, 0x1d, 0x3d,
  0xf9, 0x20, 0x30, 0xbd, 0x38, 0x6f, 0x59, 0x3e, 0xe0, 0xcd, 0x58, 0x3e,
  0x7e, 0x50, 0x08, 0xbe, 0x5a, 0x6f, 0x0b, 0xbe, 0xb0, 0xa8, 0x89, 0xbd,
  0xff, 0xb8, 0x0e, 0xbe, 0x41, 0x86, 0xa2, 0x3d, 0x6b, 0x91, 0x35, 0xbd,
  0x99, 0xf2, 0x37, 0x3e, 0x1e, 0x35, 0x74, 0x3e, 0xdb, 0xea, 0x1d, 0xbe,
  0xc2, 0x2e, 0x37, 0xbd, 0x84, 0x5a, 0xed, 0x3b, 0x37, 0x23, 0x2e, 0xbe,
  0x3a, 0xf5, 0x18, 0xbe, 0xc0, 0x8a, 0x66, 0xbd, 0x00, 0x94, 0xfc, 0xb9,
  0xec, 0x7f, 0x29, 0xbe, 0xf4, 0x82, 0x2b, 0xbe, 0x5e, 0xad, 0xc1, 0x3d,
  0x33, 0x93, 0x28, 0x3e, 0x86, 0x48, 0x29, 0x3e, 0x2f, 0xf7, 0x04, 0xbe,
  0x3b, 0xe7, 0x10, 0x3e, 0x9d, 0xd4, 0x16, 0x3e, 0x5b, 0x12, 0x30, 0x3d,
  0x8e, 0x76, 0x03, 0x3e, 0x24, 0x32, 0x07, 0xbe, 0x42, 0x01, 0x1d, 0xbe,
  0x9c, 0x53, 0x29, 0xbe, 0xdb, 0xdd, 0xc0, 0xbd, 0x48, 0xc8, 0xdf, 0xbc,
  0x9e, 0xff, 0xe7, 0x3c, 0xd6, 0x9c, 0x24, 0x3d, 0xb3, 0x1f, 0x2a, 0xbe,
  0xed, 0x2e, 0x13, 0xbc, 0xcc, 0xfb, 0x37, 0xbe, 0x7f, 0x9d, 0x39, 0x3e,
  0xcb, 0x2e, 0x33, 0xbd, 0x7f, 0x3f, 0x68, 0xbe, 0x1d, 0x6a, 0x6d, 0x3e,
  0x15, 0x9c, 0x31, 0xbe, 0xdf, 0x47, 0xbe, 0x3d, 0x88, 0xd0, 0x04, 0xbe,
  0xbd, 0xd9, 0x81, 0x3c, 0x0d, 0x61, 0x59, 0x3d, 0x74, 0x97, 0x20, 0x3e,
  0x26, 0x6d, 0x9b, 0x3c, 0x97, 0x0b, 0xc5, 0x3d, 0x87, 0x85, 0x55, 0x3e,
  0x88, 0x59, 0x11, 0x3d, 0xb4, 0x21, 0xe1, 0xbd, 0x20, 0xe9, 0xb5, 0x3b,
  0x46, 0xfc, 0xa1, 0xbd, 0xcf, 0x1f, 0x5f, 0x3e, 0xa2, 0xc4, 0x40, 0x3d,
  0x50, 0xd2, 0x08, 0x3e, 0x76, 0xc1, 0xdd, 0xbd, 0x5b, 0x87, 0xcb, 0x3d,
  0xbe, 0x8d, 0x5b, 0x3e, 0x01, 0x76, 0x95, 0xbd, 0x30, 0x69, 0x7f, 0x3d,
  0xec, 0x4c, 0x1d, 0xbe, 0x93, 0x54, 0xe7, 0xbb, 0xcb, 0x6a, 0x40, 0x3d,
  0x54, 0xec, 0x12, 0x3e, 0xc4, 0xdd, 0x29, 0xbe, 0x0f, 0xb9, 0xb9, 0x3c,
  0x2e, 0x33, 0xe6, 0xbd, 0x86, 0x31, 0xc7, 0xbc, 0x02, 0x45, 0xc0, 0xbd,
  0x53, 0xc2, 0x42, 0xbd, 0xcc, 0xe4, 0xfb, 0x3d, 0xe0, 0xcc, 0x3d, 0x3e,
  0xa7, 0x9e, 0x36, 0xbe, 0xf4, 0xb1, 0xd3, 0xbd, 0xf2, 0x2c, 0x20, 0xba,
  0xd6, 0x70, 0x41, 0xbe, 0x01, 0xf3, 0x42, 0x3d, 0xdc, 0x9f, 0xe8, 0x3d,
  0x97, 0xb4, 0x2c, 0x3d, 0x05, 0x2c, 0x17, 0x3e, 0x0a, 0xf5, 0x03, 0x3e,
  0x23, 0x61, 0x66, 0xbd, 0xa9, 0xbe, 0x54, 0x3d, 0xef, 0xa3, 0xaa, 0xbd,
  0x1f, 0x03, 0x11, 0xbe, 0x55, 0x7a, 0x37, 0xbd, 0x52, 0x65, 0x2d, 0x3d,
  0x34, 0x41, 0x71, 0xbd, 0x05, 0xaf, 0x15, 0x3e, 0x4a, 0x5c, 0xa3, 0x3c,
  0xe9, 0x17, 0xbc, 0xbc, 0xf4, 0x27, 0x32, 0x3e, 0x32, 0x48, 0xae, 0xbd,
  0x3f, 0x33, 0x36, 0xbe, 0xba, 0x44, 0x04, 0xbe, 0xd0, 0x0f, 0xa6, 0x3b,
  0xff, 0x6a, 0x12, 0x3e, 0x8c, 0x50, 0x27, 0x3e, 0xf7, 0xe6, 0x09, 0x3e,
  0x6a, 0xd7, 0x3e, 0xbe, 0x92, 0xb3, 0x1a, 0xbe, 0x4a, 0x14, 0x64, 0x3e,
  0xef, 0x78, 0x55, 0xbd, 0x5c, 0x1f, 0xf0, 0x3d, 0xac, 0xa0, 0x3a, 0xbe,
  0x51, 0xd7, 0x60, 0xbe, 0x18, 0x78, 0xf7, 0xbc, 0x58, 0x1c, 0x42, 0xbe,
  0xcc, 0x2e, 0x9e, 0x3c, 0x35, 0x9d, 0x03, 0xbe, 0x04, 0xa6, 0x4f, 0x3e,
  0x92, 0xa0, 0xe0, 0xbc, 0xc0, 0xd6, 0x56, 0xbd, 0xa3, 0x95, 0xe2, 0xbd,
  0x9b, 0x1a, 0x8f, 0x3d, 0xaf, 0x44, 0x74, 0x3c, 0xab, 0x86, 0x3c, 0xbe,
  0x80, 0xf0, 0x19, 0x3e, 0xf7, 0x77, 0x07, 0xbe, 0x0c, 0xbc, 0xa7, 0xb9,
  0xd6, 0xe2, 0x49, 0x3e, 0x8d, 0x9f, 0x0c, 0x3d, 0xad, 0x9c, 0x5a, 0x3c,
  0x67, 0x2f, 0x71, 0x3c, 0xbc, 0xef, 0x55, 0x3d, 0xe3, 0x94, 0x14, 0xbe,
  0xa9, 0xba, 0x51, 0x3e, 0xc7, 0xcb, 0x0b, 0x3e, 0xcc, 0xa3, 0x01, 0xbe,
  0xda, 0x74, 0x38, 0x3e, 0xfd, 0x01, 0x45, 0x3e, 0x88, 0x7f, 0x21, 0x3e,
  0xf0, 0x75, 0xeb, 0x3d, 0xc8, 0xe6, 0x86, 0x3d, 0xe4, 0xba, 0xdb, 0x3d,
  0x9b, 0x98, 0x8b, 0xbd, 0xb1, 0x42, 0x09, 0x3e, 0xa7, 0x5e, 0x4b, 0xbe,
  0x07, 0xd9, 0x50, 0x3e, 0xaf, 0xb7, 0x1c, 0xbe, 0xfa, 0x7a, 0x38, 0xbe,
  0x4c, 0x14, 0xb6, 0x3d, 0xf3, 0x36, 0x8f, 0x3d, 0x50, 0x88, 0x3d, 0x3d,
  0xca, 0x41, 0x04, 0x3e, 0xe1, 0x07, 0xc6, 0x3d, 0x9a, 0x3b, 0x90, 0xbd,
  0xd0, 0x87, 0x0f, 0xbe, 0xc0, 0x95, 0xdb, 0xbc, 0x3a, 0x03, 0x1f, 0x3e,
  0x90, 0x51, 0x5d, 0xbe, 0x68, 0x7b, 0xf0, 0xbc, 0xa8, 0xdb, 0x2f, 0xbc,
  0xc2, 0x16, 0x02, 0xbe, 0x4a, 0x76, 0x26, 0xbe, 0x2b, 0x3b, 0x08, 0xbe,
  0x84, 0xea, 0x22, 0x3e, 0xe2, 0xd0, 0x38, 0xbe, 0x56, 0x08, 0x29, 0xbe,
  0x07, 0xe5, 0x59, 0xbe, 0x20, 0x48, 0x30, 0xbe, 0xe0, 0x38, 0x12, 0x3c,
  0x98, 0x1e, 0x5c, 0x3e, 0x27, 0x75, 0x8b, 0xbc, 0xd2, 0x73, 0x6b, 0xbe,
  0x1f, 0xd3, 0x2b, 0x3e, 0x32, 0x5f, 0xb3, 0xbd, 0x6b, 0x67, 0xc4, 0x3d,
  0xa2, 0xda, 0xde, 0xbd, 0x88, 0xb4, 0xef, 0xbb, 0x33, 0xba, 0x54, 0xbd,
  0xfc, 0x54, 0x1b, 0x3e, 0xd6, 0xc5, 0x74, 0x3e, 0xd7, 0x5d, 0x2f, 0x3d,
  0x1d, 0x43, 0x64, 0x3d, 0xfc, 0x57, 0xa6, 0xbd, 0xb1, 0xac, 0x0d, 0x3e,
  0xe2, 0x49, 0x14, 0x3d, 0xc3, 0x72, 0x65, 0x3e, 0x92, 0x4d, 0x4f, 0x3e,
  0xda, 0x08, 0x6e, 0x3e, 0x6d, 0x35, 0x30, 0x3e, 0x41, 0x1e, 0x28, 0x3d,
  0x8f, 0xe5, 0x2c, 0xbd, 0x54, 0x80, 0xfb, 0x3d, 0xca, 0x65, 0x24, 0xbd,
  0x2e, 0x0b, 0x4f, 0x3e, 0xff, 0x8e, 0x3c, 0xbe, 0xd5, 0x28, 0xad, 0xbc,
  0xe6, 0x8f, 0x09, 0xbe, 0xbd, 0xaa, 0xcc, 0x3d, 0x2e, 0x70, 0x50, 0x3e,
  0x4e, 0x5a, 0xe0, 0xbd, 0x33, 0xac, 0x35, 0xbe, 0xea, 0x24, 0xc5, 0x3c,
  0xa7, 0xd6, 0xde, 0xbd, 0x12, 0xc4, 0xdf, 0xbc, 0x48, 0xac, 0x40, 0xbe,
  0x67, 0xdc, 0x38, 0xbd, 0xd1, 0xd0, 0xf5, 0xbd, 0xf9, 0xed, 0xaf, 0xbd,
  0xcc, 0x8c, 0x34, 0x3e, 0x61, 0xb9, 0x02, 0x3d, 0xbd, 0x1d, 0x7d, 0xbc,
  0xe0, 0x2e, 0xb3, 0x3c, 0x18, 0xb0, 0x98, 0x3d, 0x60, 0xed, 0x07, 0xbd,
  0x23, 0x9d, 0x0e, 0xbe, 0xe6, 0x2e, 0x4e, 0xbe, 0x5e, 0x72, 0x81, 0xbd,
  0x86, 0xdd, 0x30, 0x3e, 0xd0, 0x00, 0xba, 0xbc, 0xaa, 0x0b, 0x95, 0xbd,
  0xec, 0x77, 0xb4, 0xbd, 0xf4, 0x28, 0xc9, 0x3d, 0x8a, 0xb9, 0xcf, 0xbd,
  0xea, 0x32, 0xf2, 0x3b, 0x20, 0x6c, 0x1d, 0x3d, 0x5d, 0xc8, 0x87, 0x3c,
  0xf7, 0xc4, 0x55, 0x3e, 0x04, 0x5a, 0x69, 0xbe, 0xc3, 0xc0, 0xc6, 0x3d,
  0x47, 0xaa, 0x09, 0x3e, 0xf4, 0xb0, 0x94, 0x3d, 0xe8, 0x18, 0xe8, 0x3d,
  0xae, 0x32, 0x24, 0xbe, 0x94, 0xbf, 0x30, 0x3e, 0xe7, 0x62, 0xcb, 0xbc,
  0x4f, 0x0d, 0x05, 0xbe, 0x6a, 0x54, 0x38, 0xbe, 0x94, 0x71, 0x0d, 0x3c,
  0xe1, 0x03, 0x1f, 0x3e, 0xb4, 0xa3, 0x21, 0x3e, 0xb2, 0xbb, 0xf4, 0xbc,
  0x8a, 0x98, 0x1b, 0x3e, 0x80, 0x1a, 0x58, 0xbe, 0xc5, 0x31, 0x6e, 0xbe,
  0xc5, 0xda, 0x2c, 0xbe, 0xcb, 0x92, 0x0c, 0x3d, 0x3c, 0x43, 0x01, 0xbe,
  0xef, 0xe2, 0xbc, 0xbc, 0xf2, 0x25, 0x3e, 0x3d, 0xec, 0xda, 0x04, 0xbd,
  0xb4, 0x7b, 0x1d, 0x3d, 0xec, 0xc0, 0xe6, 0xbd, 0x63, 0xa4, 0x20, 0xbe,
  0x80, 0x96, 0x9a, 0xba, 0xa2, 0x47, 0xcd, 0xbd, 0x06, 0x48, 0x06, 0xbc,
  0xfc, 0xd6, 0x01, 0x3d, 0xa6, 0x4c, 0x66, 0xbd, 0x4e, 0xef, 0x62, 0xbe,
  0x9f, 0x28, 0x0b, 0x3e, 0x90, 0xec, 0x81, 0x3d, 0x87, 0x82, 0x45, 0xbe,
  0x98, 0x91, 0x48, 0x3d, 0x5a, 0x37, 0x62, 0x3d, 0xa6, 0x9a, 0x9c, 0xbd,
  0xde, 0x4a, 0x1a, 0xbe, 0x7c, 0x31, 0x03, 0xbd, 0x67, 0xb0, 0xc6, 0x3d,
  0x72, 0x46, 0xe4, 0xbb, 0x0a, 0x19, 0xb5, 0x3d, 0x4d, 0xe7, 0xc3, 0xbc,
  0x7e, 0xdf, 0x38, 0xbe, 0x44, 0x92, 0x01, 0x3d, 0xaa, 0xd8, 0x29, 0xbe,
  0xc8, 0xf4, 0x3c, 0x3d, 0x0f, 0x96, 0xb9, 0xbd, 0x52, 0xb5, 0x05, 0xbe,
  0xe8, 0xdb, 0xbe, 0xbd, 0x23, 0xf4, 0x6e, 0x3e, 0xc4, 0xf3, 0xd4, 0x3d,
  0xd4, 0x5d, 0x25, 0xbe, 0xca, 0x6d, 0xc9, 0xbd, 0x26, 0x79, 0x4a, 0xbe,
  0x2b, 0x19, 0x95, 0x3d, 0xef, 0x1f, 0x50, 0x3d, 0x0b, 0xf8, 0x5c, 0xbd,
  0x9a, 0x3f, 0x70, 0xbd, 0x4e, 0xa7, 0x00, 0xbe, 0xd5, 0x2a, 0x14, 0x3e,
  0xfc, 0x10, 0x31, 0xbe, 0xdb, 0xf2, 0x86, 0x3c, 0x3e, 0x61, 0x7b, 0xbd,
  0xb1, 0xf5, 0x8a, 0x3d, 0x64, 0x43, 0xa2, 0x3d, 0x27, 0x85, 0x4f, 0x3e,
  0x89, 0xb6, 0xff, 0x3d, 0x1d, 0xe7, 0x2e, 0x3e, 0x01, 0xc8, 0xb0, 0x3d,
  0xb9, 0xbb, 0x04, 0x3e, 0xe2, 0x4d, 0xd4, 0x3d, 0x71, 0x13, 0x90, 0x3c,
  0x0e, 0xc1, 0x43, 0x3e, 0x90, 0x5c, 0x31, 0xbc, 0x4b, 0xbf, 0x7a, 0xbd,
  0xbf, 0x0a, 0xeb, 0xbc, 0xc3, 0x40, 0x32, 0x3e, 0xb6, 0xfe, 0x80, 0xbd,
  0xba, 0x51, 0xe3, 0xbb, 0x09, 0xe8, 0x11, 0x3e, 0x30, 0x26, 0x94, 0x3d,
  0x8c, 0x0f, 0x3b, 0x3e, 0x47, 0xab, 0xe9, 0x3d, 0x05, 0x27, 0x3b, 0x3e,
  0xb1, 0x73, 0x42, 0xbe, 0x76, 0x49, 0x5f, 0xbe, 0xc4, 0x52, 0x51, 0x3e,
  0x4c, 0xde, 0xe3, 0x3d, 0xbd, 0x7c, 0x43, 0x3e, 0x83, 0x19, 0x1c, 0xbe,
  0x75, 0x28, 0x0e, 0xbe, 0x59, 0x2d, 0xc9, 0xbd, 0xf3, 0x27, 0x83, 0xbd,
  0xb8, 0xfb, 0x37, 0x3d, 0xa6, 0xfa, 0x07, 0xbe, 0xa6, 0xe3, 0xbf, 0xbd,
  0x55, 0xe6, 0x65, 0xbd, 0x9a, 0xa4, 0x59, 0xbe, 0x2b, 0x09, 0x6c, 0x3e,
  0xe3, 0x35, 0x9b, 0xbd, 0x10, 0xb1, 0x07, 0xbe, 0xaf, 0x86, 0x0f, 0x3d,
  0xbc, 0xa2, 0x11, 0x3e, 0x94, 0xf2, 0xe2, 0x3c, 0x8a, 0x0b, 0x00, 0xbe,
  0x31, 0xba, 0x6e, 0x3e, 0x2b, 0xf6, 0x19, 0x3e, 0xb6, 0x7f, 0x0f, 0xbe,
  0x98, 0x15, 0x22, 0xbe, 0x4c, 0xf7, 0xf9, 0x3d, 0xc0, 0x17, 0x22, 0xbd,
  0x69, 0xec, 0x25, 0xbe, 0xa6, 0xe7, 0x25, 0xbe, 0xf8, 0x6c, 0xb4, 0xbb,
  0x6b, 0xa3, 0x43, 0x3e, 0x44, 0x05, 0x60, 0xbe, 0xb5, 0x1a, 0x76, 0xbe,
  0x7c, 0xef, 0x16, 0x3d, 0x89, 0xb1, 0xeb, 0xbd, 0x91, 0x71, 0x9a, 0x3b,
  0x0c, 0x0b, 0x1b, 0xbe, 0xb1, 0x0b, 0x34, 0x3e, 0xaa, 0x43, 0x65, 0x3e,
  0xff, 0xf6, 0x8b, 0xbd, 0x4d, 0x0d, 0x09, 0x3c, 0x3e, 0x8c, 0x16, 0xbd,
  0xe1, 0xec, 0x5b, 0x3d, 0xe3, 0x11, 0xc8, 0x3d, 0x62, 0x9a, 0x1e, 0x3d,
  0xb8, 0xd0, 0x1f, 0x3d, 0x80, 0x7e, 0xaf, 0x3d, 0x50, 0x87, 0x63, 0xbe,
  0xb7, 0x44, 0x3b, 0xbe, 0x68, 0x0d, 0xcf, 0xbd, 0x05, 0xeb, 0x41, 0xbe,
  0x52, 0x48, 0x66, 0xbe, 0xee, 0x9c, 0x5a, 0x3e, 0x1b, 0xb1, 0x4e, 0x3e,
  0x4f, 0xd5, 0x6c, 0xbe, 0xae, 0xed, 0xfd, 0x3c, 0xe8, 0x3c, 0x6b, 0x3c,
  0x4b, 0x70, 0x5a, 0xbd, 0xaf, 0x5c, 0x86, 0x3d, 0x42, 0x56, 0x37, 0x3e,
  0xb9, 0xe7, 0x95, 0xbd, 0xb4, 0x76, 0x60, 0xbc, 0x7c, 0x24, 0x6e, 0xbe,
  0x0d, 0x1b, 0x43, 0xbe, 0xb9, 0xeb, 0x5f, 0xbd, 0xbd, 0x94, 0x29, 0xbe,
  0x85, 0x27, 0x10, 0xbd, 0xef, 0xc8, 0xca, 0xbd, 0x62, 0x3a, 0xe9, 0x3d,
  0x45, 0x7c, 0x28, 0x3e, 0xca, 0xdc, 0x50, 0xbe, 0x77, 0x70, 0x5e, 0xbe,
  0x02, 0xf6, 0x37, 0xbe, 0xb8, 0x02, 0x10, 0xbe, 0x58, 0x88, 0x70, 0xbe,
  0x33, 0x67, 0xef, 0xbc, 0x21, 0xd8, 0x38, 0xbe, 0xdf, 0xde, 0x24, 0xbe,
  0x2e, 0x8d, 0x19, 0x3e, 0x2f, 0x6b, 0x9e, 0x3c, 0xca, 0x01, 0xd2, 0xbd,
  0xa0, 0xc3, 0xc0, 0x3d, 0x72, 0x54, 0x15, 0xbd, 0x12, 0x69, 0x3d, 0x3d,
  0x1b, 0x89, 0xc0, 0xbd, 0xd2, 0x84, 0xf4, 0x3d, 0x56, 0x3e, 0xe3, 0xbd,
  0x48, 0x2c, 0x54, 0x3d, 0xc2, 0xde, 0xaa, 0xbd, 0x69, 0xc9, 0x1c, 0x3e,
  0x53, 0xa6, 0xfc, 0xbc, 0x36, 0xde, 0x72, 0x3d, 0x10, 0x54, 0x2b, 0x3d,
  0x9e, 0x28, 0x49, 0xbe, 0x20, 0x9b, 0x8c, 0xbc, 0xf5, 0x8d, 0x40, 0x3e,
  0x47, 0x09, 0x75, 0x3e, 0xa4, 0x56, 0x15, 0x3d, 0xdc, 0x16, 0x18, 0xbe,
  0x4a, 0x18, 0x2e, 0xbd, 0xfa, 0xb8, 0xad, 0xbd, 0xb6, 0x80, 0x20, 0x3e,
  0x45, 0x3c, 0x05, 0xbe, 0xd1, 0x68, 0x24, 0x3e, 0x66, 0x8b, 0x4b, 0x3e,
  0x8b, 0x39, 0x4e, 0x3e, 0xc0, 0xef, 0x73, 0xbc, 0x96, 0x72, 0x2f, 0x3e,
  0xc4, 0xee, 0x4e, 0xbd, 0xf1, 0x84, 0x49, 0xbe, 0x96, 0xcc, 0x0f, 0xbe,
  0xf2, 0x98, 0x19, 0xbc, 0x60, 0x40, 0x50, 0x3e, 0x69, 0xe1, 0xfa, 0xbd,
  0x46, 0xf2, 0x2b, 0x3e, 0xfd, 0x81, 0x50, 0x3c, 0x7c, 0xcf, 0x12, 0x3e,
  0x32, 0x40, 0x86, 0x3d, 0x53, 0xf8, 0x28, 0x3e, 0xb6, 0x0e, 0x3c, 0x3e,
  0x3a, 0x7d, 0xe0, 0xbd, 0x35, 0xff, 0x1c, 0xbe, 0x37, 0x74, 0x6a, 0xbe,
  0x58, 0x8f, 0xbe, 0x3d, 0xcf, 0x72, 0xd2, 0xbd, 0x9e, 0x9b, 0xf7, 0x3d,
  0xd0, 0x74, 0x40, 0x3e, 0x3a, 0xde, 0x45, 0x3d, 0xc1, 0xf5, 0x29, 0xbd,
  0xb0, 0xde, 0xbc, 0xbd, 0x68, 0xcc, 0x3d, 0x3d, 0x31, 0x83, 0x35, 0x3e,
  0x20, 0x1b, 0xe2, 0xbd, 0x39, 0xe6, 0x50, 0xbd, 0x0d, 0x93, 0x1b, 0x3e,
  0x89, 0xd2, 0xc6, 0x3d, 0x56, 0x68, 0xd8, 0xbd, 0xf0, 0xb1, 0x75, 0xbe,
  0xe2, 0xec, 0xd0, 0xbd, 0x96, 0x85, 0x06, 0x3e, 0x1a, 0x86, 0x88, 0xbd,
  0x95, 0xb5, 0x7a, 0xbd, 0xed, 0x35, 0xc6, 0xbd, 0x54, 0x1c, 0xaf, 0x3d,
  0x50, 0x17, 0x68, 0xbc, 0xe8, 0xa9, 0x43, 0xbe, 0x58, 0xdc, 0x2b, 0x3e,
  0x89, 0xef, 0x48, 0x3d, 0x71, 0x7a, 0x33, 0xbe, 0x76, 0x77, 0x12, 0xbe,
  0xd8, 0xde, 0x76, 0xbd, 0x87, 0x72, 0xad, 0xbd, 0x64, 0x18, 0x42, 0xbd,
  0xe2, 0x11, 0x41, 0xbc, 0x2d, 0x42, 0xe1, 0x3d, 0x9d, 0x3f, 0x85, 0x3d,
  0x18, 0xfd, 0x3d, 0xbe, 0x3b, 0x5e, 0x44, 0xbd, 0xc8, 0xf0, 0xc0, 0x3c,
  0x00, 0xf8, 0x63, 0x3e, 0xea, 0xad, 0x79, 0xbd, 0xfe, 0x5b, 0xaf, 0xbb,
  0x40, 0x64, 0x0a, 0xbe, 0x8a, 0x3e, 0x28, 0x3e, 0x6f, 0x4a, 0x68, 0x3e,
  0xc4, 0x85, 0x78, 0x3d, 0x52, 0xac, 0xb3, 0x3d, 0x84, 0x08, 0x2a, 0xbe,
  0xd3, 0x04, 0x03, 0xbd, 0x46, 0x32, 0x31, 0xbd, 0xb5, 0x91, 0x54, 0xbb,
  0xb8, 0x32, 0x0b, 0x3c, 0x84, 0x37, 0xc4, 0xbd, 0x13, 0xc5, 0x2b, 0xbe,
  0xa2, 0xc1, 0x22, 0xbc, 0xe5, 0xcd, 0x4b, 0xbe, 0x6d, 0x6c, 0xf1, 0xbd,
  0xb0, 0x2e, 0x7c, 0x3c, 0x06, 0x24, 0x04, 0xbd, 0x56, 0x7a, 0x50, 0x3d,
  0x40, 0x29, 0xe6, 0xb8, 0x61, 0x1b, 0x89, 0x3c, 0x7d, 0x81, 0x0c, 0x3e,
  0x39, 0x54, 0x0a, 0x3e, 0x7b, 0x94, 0xd6, 0x3d, 0x4c, 0xbd, 0xc4, 0x3d,
  0x7a, 0xde, 0x09, 0xbe, 0x11, 0xd4, 0x65, 0xbe, 0x75, 0x61, 0xf6, 0xbd,
  0xbf, 0xf0, 0x56, 0x3e, 0x88, 0x8d, 0x36, 0x3e, 0xef, 0x0b, 0xb7, 0x3d,
  0xf0, 0x5d, 0x4c, 0xbe, 0x68, 0x55, 0x97, 0xbd, 0x3b, 0xbb, 0xb8, 0xbd,
  0x17, 0xda, 0x15, 0x3e, 0xa6, 0x1f, 0x92, 0x3d, 0x7e, 0x19, 0x8e, 0xbd,
  0x68, 0x1f, 0x61, 0x3e, 0xa7, 0x6e, 0x37, 0xbe, 0x19, 0x3d, 0x08, 0x3d,
  0x43, 0x94, 0x5b, 0x3d, 0xc7, 0x2c, 0x2a, 0x3e, 0xeb, 0x2f, 0x5b, 0xbe,
  0xfb, 0x38, 0x50, 0xbe, 0xa3, 0x4f, 0x24, 0xbe, 0x58, 0xb9, 0xfc, 0xbd,
  0x3d, 0xf7, 0xb1, 0xbd, 0x17, 0x1c, 0x05, 0xbe, 0x5e, 0x5c, 0x58, 0x3d,
  0x39, 0x76, 0x48, 0x3e, 0xdf, 0x5b, 0xcd, 0x3c, 0xaa, 0x53, 0xe6, 0x3d,
  0xa5, 0x5f, 0x4a, 0x3e, 0x5a, 0x58, 0x1a, 0x3e, 0x88, 0x61, 0x50, 0xbe,
  0x1c, 0x07, 0x5c, 0x3e, 0x68, 0x1a, 0xe4, 0xbd, 0xc7, 0x80, 0x25, 0x3e,
  0xb6, 0x55, 0xcc, 0xbd, 0xcb, 0xef, 0x21, 0x3e, 0xd9, 0x43, 0xf3, 0xbb,
  0x17, 0xf2, 0xff, 0xbd, 0x63, 0xde, 0xbe, 0x3d, 0x1b, 0x36, 0x48, 0xbe,
  0xbb, 0x8e, 0xe4, 0x3d, 0xa6, 0x28, 0x11, 0x3e, 0xd9, 0x67, 0x73, 0x3e,
  0xa7, 0x7b, 0x08, 0xbe, 0xac, 0x25, 0x9a, 0x3d, 0xa6, 0x77, 0x0a, 0x3e,
  0x1e, 0x97, 0x18, 0x3d, 0xd7, 0x21, 0x85, 0xbd, 0x76, 0x49, 0x32, 0x3d,
  0xf0, 0xfc, 0x76, 0xbc, 0x10, 0x51, 0x02, 0x3e, 0xc7, 0x56, 0x4e, 0x3e,
  0x78, 0xf7, 0x2c, 0x3a, 0x54, 0xd3, 0x1c, 0x3c, 0x1e, 0x8d, 0xa6, 0x3d,
  0x08, 0x0d, 0xe7, 0x3d, 0x9b, 0x0d, 0xd8, 0xbd, 0x04, 0xc9, 0x73, 0xbd,
  0xf8, 0x61, 0xe4, 0x3d, 0x4f, 0x96, 0x09, 0x3e, 0xd2, 0x1f, 0x22, 0xbc,
  0xe3, 0x59, 0xca, 0xbd, 0x10, 0x49, 0x2c, 0x3d, 0xc2, 0x77, 0xd5, 0xbd,
  0xc0, 0xd1, 0x99, 0xbb, 0x35, 0xdb, 0x67, 0x3e, 0xd8, 0xa1, 0x66, 0xbd,
  0x9a, 0x52, 0x21, 0xbe, 0x6a, 0xdb, 0x19, 0x3d, 0x5f, 0x35, 0x2c, 0xbc,
  0x07, 0xd2, 0x43, 0xbe, 0x62, 0xfe, 0x2e, 0x3e, 0x2d, 0xac, 0x86, 0xbd,
  0x69, 0x91, 0x21, 0x3e, 0x1f, 0xc5, 0x4c, 0xbe, 0x02, 0x51, 0x41, 0xbe,
  0x6c, 0xc1, 0xf7, 0x3d, 0xb6, 0x93, 0x50, 0x3d, 0xff, 0x4b, 0x5c, 0xbe,
  0xc2, 0xb1, 0x63, 0x3d, 0xf1, 0xf9, 0x28, 0x3e, 0x88, 0x83, 0x00, 0xbd,
  0x5a, 0x0c, 0x01, 0xbc, 0xaf, 0x4e, 0xea, 0x3d, 0xbe, 0x22, 0x97, 0xbd,
  0xd1, 0x62, 0x34, 0xbd, 0x11, 0x89, 0xf3, 0xbc, 0xe8, 0x49, 0x75, 0x3d,
  0x38, 0x68, 0x52, 0x3e, 0x41, 0xcb, 0x67, 0x3e, 0x67, 0xa1, 0x3d, 0xbe,
  0x8f, 0x26, 0x36, 0x3d, 0x93, 0xe2, 0xd0, 0xbd, 0x05, 0x4d, 0x8b, 0x3c,
  0x08, 0x8f, 0xbd, 0x3d, 0x5d, 0x53, 0xc4, 0xbd, 0x44, 0x9e, 0x40, 0xbe,
  0x10, 0x84, 0xf3, 0x3d, 0x90, 0x6b, 0x45, 0x3d, 0x18, 0xd2, 0xa6, 0xbd,
  0xdf, 0x6d, 0x0c, 0xbe, 0xef, 0x8e, 0xa8, 0xbc, 0x3b, 0x63, 0x49, 0x3e,
  0xaf, 0x2c, 0x03, 0xbe, 0x65, 0x2f, 0xd9, 0x3d, 0x28, 0x51, 0x8e, 0x3d,
  0x8c, 0xfa, 0x6b, 0xbd, 0x58, 0x95, 0x07, 0xbd, 0xa0, 0xef, 0x16, 0xbc,
  0xd4, 0x57, 0x37, 0xbd, 0x2b, 0x8e, 0x5c, 0x3e, 0x56, 0x9c, 0x32, 0xbe,
  0xe4, 0xae, 0x26, 0xbd, 0x9c, 0xe7, 0x91, 0xbd, 0xd1, 0x97, 0x12, 0xbe,
  0xe9, 0x1e, 0xf3, 0xbc, 0x58, 0x82, 0x61, 0x3e, 0x2f, 0x94, 0x18, 0x3d,
  0x44, 0x3d, 0x2f, 0xbe, 0x42, 0xdb, 0xd0, 0xbd, 0x81, 0xb1, 0x9b, 0x3d,
  0xdb, 0x96, 0xef, 0xbd, 0xac, 0xde, 0xcb, 0xbd, 0xdc, 0x6f, 0x49, 0xbd,
  0x70, 0xac, 0x45, 0xbe, 0x86, 0x55, 0xa3, 0x3d, 0xd0, 0xc1, 0xc5, 0x3d,
  0x5e, 0xed, 0xd6, 0x3d, 0xed, 0xaa, 0xc7, 0x3c, 0x62, 0x68, 0x2d, 0xbd,
  0x68, 0xc1, 0x69, 0xbd, 0x1e, 0x9e, 0xd4, 0x3c, 0x08, 0x2a, 0xf6, 0xbb,
  0x04, 0x41, 0x84, 0x3d, 0x51, 0x40, 0xc5, 0xbd, 0xe7, 0x40, 0x62, 0x3d,
  0x50, 0xf9, 0xe2, 0xbd, 0x09, 0xa0, 0x41, 0xbe, 0x74, 0xa8, 0x70, 0x3d,
  0x26, 0x77, 0xf9, 0xba, 0x60, 0xbb, 0x08, 0xbd, 0xca, 0x33, 0x6f, 0xbe,
  0x27, 0xb0, 0xcb, 0xbc, 0xaa, 0xf9, 0x5b, 0xbe, 0x60, 0x20, 0x4f, 0xbc,
  0x0d, 0xde, 0xc4, 0xbd, 0x00, 0x33, 0x00, 0x3e, 0x44, 0xe9, 0x10, 0xbe,
  0x6b, 0xea, 0xd3, 0x3d, 0x1d, 0x3b, 0x47, 0x3d, 0x2e, 0xfa, 0x94, 0xbb,
  0x8d, 0x78, 0x2b, 0x3e, 0x6f, 0xf2, 0xb2, 0xbd, 0x36, 0x15, 0x87, 0xbc,
  0xa8, 0xd4, 0xac, 0xbd, 0x84, 0x5c, 0xc0, 0x3d, 0x70, 0xe4, 0xc9, 0xbc,
  0x7e, 0xf8, 0xea, 0x3c, 0x68, 0xcc, 0xcf, 0xbd, 0x10, 0x98, 0x36, 0x3d,
  0xcc, 0x8e, 0xfe, 0x3d, 0xac, 0xcf, 0xa3, 0xbd, 0x2c, 0xe9, 0x16, 0xbe,
  0xd2, 0x5f, 0x4d, 0xbe, 0x34, 0xd4, 0xae, 0x3d, 0xf6, 0x4c, 0x70, 0xbd,
  0xae, 0x48, 0x9d, 0xbc, 0x93, 0x70, 0x31, 0xbe, 0x68, 0xdc, 0x55, 0x3e,
  0x99, 0xe0, 0x1a, 0xbe, 0xb5, 0xe1, 0x33, 0x3e, 0x30, 0x09, 0xbe, 0x3d,
  0x58, 0xf8, 0x2c, 0xbe, 0xf8, 0x9d, 0x41, 0x3e, 0x6c, 0xcb, 0x4c, 0xbd,
  0x48, 0xaa, 0x1b, 0xbe, 0xaf, 0x0c, 0xf1, 0xbd, 0x41, 0x03, 0xc2, 0x3d,
  0x3a, 0x08, 0x52, 0x3e, 0x34, 0x15, 0x05, 0x3e, 0x07, 0xe2, 0x86, 0xbc,
  0x30, 0x99, 0x5a, 0xbe, 0xc9, 0x13, 0x84, 0xbc, 0x9e, 0x8a, 0x02, 0x3e,
  0xdf, 0x96, 0xf0, 0xbd, 0x09, 0xbe, 0x3c, 0xbe, 0xd0, 0x15, 0x4b, 0xbe,
  0xc4, 0xda, 0x36, 0xbe, 0x8a, 0x05, 0x48, 0xbe, 0x82, 0x63, 0x0f, 0xbe,
  0x83, 0x23, 0x17, 0xbd, 0xa9, 0xeb, 0x46, 0xbe, 0xf4, 0x84, 0x1f, 0xbe,
  0x9a, 0xbc, 0xc9, 0x3c, 0xf0, 0xbf, 0x2e, 0xbe, 0xf9, 0xec, 0xb8, 0xbd,
  0x4a, 0x10, 0x69, 0xbe, 0x84, 0xc5, 0xe4, 0x3d, 0xf8, 0xe1, 0x57, 0xbd,
  0x98, 0x7a, 0x2c, 0x3e, 0x80, 0x37, 0x15, 0x3e, 0x22, 0xe4, 0x51, 0x3e,
  0x0c, 0x5a, 0x91, 0x3c, 0xde, 0x9e, 0x38, 0x3e, 0x60, 0xea, 0x9b, 0x3c,
  0xb7, 0x3f, 0x76, 0x3d, 0xf1, 0x4f, 0x0b, 0xbe, 0x26, 0xd8, 0xcf, 0x3d,
  0x50, 0x0b, 0xac, 0xbc, 0xa4, 0xa9, 0x5b, 0xbe, 0x66, 0x04, 0x5e, 0x3e,
  0x0a, 0xad, 0x59, 0xbe, 0x17, 0xfc, 0x51, 0xbe, 0x51, 0x27, 0x3f, 0xbe,
  0x9d, 0x0d, 0x57, 0xbe, 0xbe, 0xfe, 0x04, 0x3e, 0xd3, 0xa0, 0xe5, 0xbd,
  0xef, 0xec, 0x94, 0xbd, 0x8e, 0x0f, 0x8d, 0x3d, 0xd0, 0xbe, 0xec, 0x3d,
  0x7e, 0xdb, 0x53, 0xbe, 0x18, 0xc0, 0x61, 0xbe, 0xb4, 0xfe, 0x48, 0x3c,
  0x79, 0x0b, 0x06, 0x3e, 0xec, 0x56, 0x82, 0xbc, 0x68, 0xc9, 0xb4, 0xbc,
  0xd3, 0xf3, 0xc0, 0xbd, 0xb4, 0xf1, 0xad, 0xbd, 0x11, 0x3b, 0xdf, 0x3d,
  0xd8, 0xf1, 0xb0, 0xbb, 0x2e, 0x5f, 0x3d, 0x3e, 0x5a, 0x9b, 0x36, 0xbe,
  0xd0, 0x9e, 0x30, 0x3e, 0xa8, 0xfc, 0x85, 0xbd, 0xa3, 0xf4, 0xe4, 0x3c,
  0x04, 0x0a, 0x47, 0xbe, 0x73, 0xae, 0x08, 0x3e, 0xb1, 0x39, 0x42, 0x3d,
  0xa4, 0x5c, 0x19, 0x3e, 0x8f, 0x4d, 0x15, 0x3e, 0x46, 0x73, 0xee, 0xbc,
  0x88, 0xc3, 0xb1, 0xbd, 0x9d, 0x58, 0x16, 0x3d, 0xbe, 0xf1, 0x41, 0x3e,
  0xfa, 0x33, 0x6e, 0xbe, 0xb6, 0x3d, 0x1a, 0xbe, 0x7a, 0x54, 0xd5, 0xbc,
  0x99, 0xaa, 0x17, 0xbc, 0xdb, 0x04, 0xbc, 0x3d, 0x67, 0x5b, 0x5a, 0xbe,
  0xf4, 0x6e, 0x64, 0x3c, 0x42, 0xc0, 0x23, 0xbe, 0x84, 0x26, 0xf7, 0x3d,
  0xd8, 0x67, 0x63, 0x3d, 0xe3, 0x1e, 0x66, 0xbe, 0x36, 0x2a, 0xc8, 0xbd,
  0x95, 0x69, 0x1e, 0xbe, 0x53, 0x0d, 0xf4, 0xbd, 0x62, 0x0e, 0x4c, 0xbe,
  0xc6, 0x7f, 0x4b, 0x3e, 0x54, 0x8f, 0x68, 0x3b, 0x4d, 0xf3, 0x1e, 0xbe,
  0x54, 0xa9, 0x43, 0xbe, 0x21, 0x1b, 0x76, 0x3c, 0x86, 0x08, 0xd7, 0xbd,
  0x85, 0x69, 0xc4, 0xbd, 0x25, 0xe0, 0xae, 0x3d, 0x67, 0xa8, 0x2a, 0x3e,
  0xd2, 0x8c, 0x1d, 0x3d, 0x92, 0x6e, 0xbd, 0x3d, 0x56, 0xb2, 0x69, 0x3e,
  0xb6, 0x2b, 0x04, 0x3e, 0xaa, 0x41, 0x0b, 0xbe, 0x32, 0x2d, 0x6a, 0xbd,
  0x7b, 0xcc, 0x3f, 0x3e, 0x82, 0x29, 0x00, 0x3d, 0x0a, 0x38, 0x5b, 0xbe,
  0x17, 0x4b, 0x2e, 0x3e, 0x85, 0xa8, 0x17, 0x3e, 0x86, 0x46, 0xc8, 0xbd,
  0x05, 0x31, 0x3f, 0xbe, 0xb8, 0x9b, 0x11, 0xbd, 0xbd, 0x86, 0xe1, 0xbd,
  0x48, 0xb7, 0x48, 0x3e, 0x96, 0x39, 0x3e, 0xbe, 0x41, 0x89, 0x3a, 0xbe,
  0xe4, 0x7e, 0x04, 0xbe, 0x9c, 0x29, 0xf5, 0xbd, 0x40, 0x22, 0xf1, 0xbd,
  0x3a, 0x1a, 0x14, 0x3e, 0x5b, 0x30, 0x03, 0xbe, 0x3c, 0x58, 0xfc, 0xbd,
  0x3f, 0x5a, 0x2d, 0xbb, 0x81, 0xaf, 0xec, 0xbd, 0x76, 0x4a, 0x3b, 0xbe,
  0x8f, 0x27, 0x10, 0xbe, 0xf7, 0x53, 0xba, 0x3d, 0xa0, 0xc7, 0xdc, 0x3d,
  0x1c, 0x0a, 0x64, 0x3c, 0xce, 0xd3, 0x69, 0xbc, 0x4e, 0x62, 0x61, 0xbe,
  0xad, 0xe9, 0x4e, 0xbe, 0x76, 0x93, 0x1a, 0x3e, 0xd5, 0x23, 0x0c, 0xbe,
  0x22, 0xa3, 0xaf, 0xbd, 0x42, 0xd7, 0xd7, 0xbd, 0x96, 0xd9, 0x9d, 0xbd,
  0x81, 0x72, 0xd8, 0xbd, 0xb0, 0xc5, 0x5e, 0x3c, 0x36, 0x07, 0x9d, 0x3d,
  0x47, 0xde, 0x3d, 0xbe, 0x89, 0xbc, 0x3a, 0xbe, 0x66, 0x89, 0x82, 0xbd,
  0xef, 0x7e, 0x30, 0xbe, 0x90, 0x11, 0xf0, 0x3d, 0x90, 0xf4, 0x37, 0x3e,
  0x84, 0x20, 0x57, 0x3e, 0x8e, 0xbd, 0x3d, 0xbe, 0x77, 0x1e, 0x34, 0x3e,
  0x31, 0xfe, 0x4a, 0xbd, 0x38, 0x9d, 0x59, 0x3d, 0xbe, 0x96, 0xca, 0xbd,
  0xbe, 0x1f, 0x3a, 0x3d, 0x41, 0x78, 0x19, 0x3e, 0x0b, 0x33, 0x9f, 0x3d,
  0x65, 0x6b, 0x3b, 0xbd, 0xa2, 0x32, 0x27, 0x3e, 0xd9, 0xd7, 0x09, 0xbe,
  0x0d, 0x26, 0xde, 0x3d, 0x16, 0x84, 0x45, 0x3e, 0x2c, 0x60, 0x2e, 0x3e,
  0x0a, 0x3a, 0x24, 0xbd, 0x6b, 0x5e, 0x2c, 0xbd, 0x7d, 0x35, 0x32, 0xbe,
  0xcb, 0x44, 0x98, 0xbc, 0x5e, 0x84, 0x02, 0xbd, 0x93, 0xe8, 0x65, 0xbd,
  0xdc, 0x07, 0x5c, 0xbd, 0x4d, 0xbe, 0x4f, 0x3d, 0x79, 0x7d, 0x91, 0xbd,
  0x8d, 0xce, 0x1d, 0xbe, 0x22, 0x79, 0xca, 0x3d, 0xf3, 0x74, 0x4e, 0xbe,
  0x58, 0xc8, 0xa5, 0x3d, 0x2c, 0x87, 0x33, 0x3e, 0x53, 0x9a, 0xd6, 0x3d,
  0x86, 0x91, 0xd3, 0x3d, 0x0d, 0x72, 0x50, 0x3e, 0x99, 0x5e, 0x1b, 0x3e,
  0x54, 0x60, 0xac, 0xbd, 0x18, 0x80, 0x6a, 0x3e, 0xf4, 0x92, 0x3b, 0xbd,
  0xc4, 0xf0, 0x8c, 0xbd, 0xfb, 0x4e, 0x1f, 0x3e, 0x68, 0x46, 0x23, 0xbe,
  0xbc, 0x2c, 0xaf, 0x3b, 0x28, 0x85, 0x15, 0x3e, 0x54, 0xe2, 0x05, 0x3e,
  0x20, 0x51, 0x04, 0xbe, 0xb7, 0xb4, 0x52, 0xbe, 0xd6, 0xbd, 0x3d, 0xbe,
  0x66, 0xe8, 0x5c, 0x3e, 0x81, 0x5e, 0xc8, 0xbd, 0x26, 0x4a, 0x58, 0x3e,
  0xbe, 0x1b, 0x97, 0x3d, 0x26, 0x21, 0x6f, 0x3e, 0xb8, 0xbb, 0x52, 0x3d,
  0x83, 0xde, 0x36, 0xbe, 0xeb, 0x64, 0x0b, 0x3d, 0xcd, 0x5f, 0x20, 0x3e,
  0xdb, 0xaf, 0xed, 0xbd, 0x42, 0x6b, 0x2a, 0x3d, 0x84, 0x5c, 0xf2, 0xbd,
  0xb2, 0x91, 0x75, 0xbe, 0x38, 0x9b, 0x22, 0x3e, 0x7d, 0xc5, 0x49, 0xbe,
  0x5b, 0xee, 0xd6, 0x3d, 0xe8, 0x6a, 0x59, 0xbe, 0x36, 0xd8, 0x45, 0xbe,
  0xbc, 0x39, 0x86, 0x3d, 0x1d, 0x31, 0xac, 0x3c, 0x99, 0x4c, 0x3a, 0xbe,
  0x61, 0xcf, 0x6a, 0xbd, 0x10, 0x43, 0xdf, 0xba, 0x1f, 0xeb, 0xc4, 0x3b,
  0x9e, 0xba, 0x6f, 0xbd, 0x4d, 0x20, 0x3d, 0x3e, 0xed, 0x11, 0x0e, 0x3e,
  0xf9, 0x05, 0xa0, 0xbc, 0xbb, 0x14, 0x50, 0x3e, 0x44, 0x84, 0x22, 0xbc,
  0x44, 0x03, 0xb5, 0x3d, 0xe0, 0x92, 0xa4, 0x3c, 0x27, 0xa9, 0x00, 0x3e,
  0x4f, 0xd1, 0x8c, 0x3c, 0x56, 0x36, 0xae, 0xbd, 0xfa, 0x44, 0x30, 0x3e,
  0xba, 0x01, 0x36, 0xbe, 0xa2, 0xab, 0xc2, 0xbd, 0x38, 0x07, 0x42, 0xbe,
  0xb1, 0x1d, 0x04, 0xbe, 0xbf, 0xfb, 0x8e, 0x3d, 0x81, 0x01, 0x4a, 0x3e,
  0x9e, 0xb0, 0xda, 0xbd, 0x03, 0xa9, 0x48, 0x3e, 0x0c, 0x50, 0x91, 0xbd,
  0x18, 0xb3, 0x56, 0xbe, 0x72, 0xa8, 0x4a, 0xbe, 0x7b, 0xc8, 0x10, 0xbe,
  0x6b, 0x6a, 0xf6, 0x3c, 0xf1, 0xb3, 0x12, 0x3e, 0xf5, 0xc1, 0x0e, 0xbe,
  0xaf, 0x51, 0x30, 0x3e, 0x79, 0x9b, 0xaa, 0xbd, 0x8e, 0xb3, 0x46, 0x3e,
  0x3c, 0x69, 0x46, 0x3e, 0x34, 0x73, 0x08, 0x3e, 0xf5, 0xca, 0x93, 0x3d,
  0x5c, 0x9a, 0x20, 0x3e, 0xb2, 0x0f, 0x0f, 0xbe, 0xc2, 0x84, 0x03, 0x3e,
  0x5a, 0x0a, 0x45, 0xbe, 0x11, 0xd1, 0xae, 0xbc, 0x4e, 0x52, 0x4f, 0xbe,
  0x5a, 0x8a, 0xdf, 0x3d, 0xcb, 0xf3, 0x2a, 0x3e, 0x34, 0xa3, 0x55, 0xbe,
  0xb4, 0x03, 0x17, 0x3e, 0xb5, 0x23, 0x28, 0xbe, 0xbd, 0x90, 0x48, 0x3e,
  0xff, 0x67, 0x1f, 0x3e, 0x2b, 0x81, 0x69, 0xbe, 0x43, 0xb2, 0x02, 0xbe,
  0x17, 0x3b, 0x85, 0xbd, 0x89, 0x83, 0x21, 0x3b, 0x63, 0x91, 0x53, 0x3e,
  0x66, 0xe6, 0x6e, 0x3e, 0x0b, 0x25, 0x9f, 0x3c, 0x8d, 0x87, 0x22, 0x3e,
  0xd5, 0x78, 0x45, 0xbd, 0xe5, 0xd0, 0x30, 0xbd, 0xe8, 0xf5, 0xd8, 0x3d,
  0x3c, 0xf8, 0xb3, 0x3c, 0x99, 0x3c, 0xda, 0x3d, 0x62, 0xbc, 0xdf, 0xbc,
  0x3d, 0xda, 0x42, 0x3e, 0x31, 0xf6, 0x22, 0xbe, 0x76, 0x7d, 0x76, 0xbd,
  0x50, 0x7b, 0x2b, 0xbe, 0xb8, 0x34, 0x1f, 0x3d, 0x1e, 0xb1, 0xe2, 0xbd,
  0xee, 0x27, 0xcc, 0x3d, 0x4e, 0xf3, 0xe0, 0xbc, 0x38, 0xf3, 0x57, 0x3d,
  0x50, 0xa2, 0x57, 0x3e, 0xe0, 0x8d, 0xf7, 0x3b, 0xc2, 0x01, 0xf4, 0xbd,
  0x65, 0xe4, 0x30, 0xbd, 0x2c, 0xeb, 0x2f, 0x3d, 0xee, 0x05, 0x3b, 0x3e,
  0x30, 0x25, 0x22, 0x3e, 0x73, 0x1b, 0x2a, 0xbe, 0xcc, 0x7d, 0x5d, 0xbd,
  0xae, 0xc4, 0xd7, 0x3d, 0x37, 0x0b, 0x3b, 0xbe, 0xae, 0xd2, 0x29, 0xbe,
  0x38, 0xc4, 0x21, 0xbe, 0x28, 0xd3, 0xc1, 0x3d, 0x6f, 0x7e, 0x65, 0xbe,
  0x58, 0x9f, 0xae, 0x3d, 0x77, 0x01, 0x01, 0xbe, 0x97, 0x02, 0x8c, 0xbd,
  0x64, 0x2d, 0x85, 0xbd, 0x33, 0xbc, 0x58, 0xbe, 0x1a, 0xcf, 0x58, 0xbe,
  0xd0, 0x54, 0x71, 0x3e, 0xfe, 0x63, 0x3f, 0xbe, 0x57, 0x59, 0x49, 0x3e,
  0xf4, 0x68, 0xf3, 0x3c, 0x33, 0x3d, 0x45, 0x3d, 0x28, 0xe3, 0x3e, 0xbe,
  0xc4, 0x6b, 0x4e, 0xbd, 0xd3, 0x90, 0xea, 0xbd, 0xa2, 0x9a, 0x67, 0xbe,
  0x32, 0xa4, 0x02, 0xbe, 0xb1, 0x05, 0x63, 0x3e, 0xd0, 0x5e, 0x4c, 0xbe,
  0x67, 0x80, 0x79, 0x3d, 0x6e, 0x2b, 0x13, 0x3e, 0x1e, 0x17, 0x5c, 0x3e,
  0x78, 0xea, 0xe0, 0xbc, 0x1c, 0x9e, 0x40, 0x3e, 0x5c, 0x0b, 0x4d, 0xbe,
  0xd0, 0xe9, 0x6c, 0xbb, 0xe7, 0x9d, 0x47, 0xbe, 0x4a, 0x51, 0x60, 0xbe,
  0x3e, 0x84, 0x03, 0xbe, 0x28, 0x9a, 0x96, 0x3c, 0x11, 0x50, 0x1a, 0x3e,
  0x8a, 0x10, 0x26, 0x3e, 0x35, 0x50, 0x2b, 0x3e, 0x0c, 0x48, 0x5c, 0x3e,
  0x66, 0x6a, 0x0e, 0x3e, 0x01, 0x99, 0x3f, 0xbe, 0xa8, 0x65, 0x88, 0x3d,
  0x06, 0xc3, 0x51, 0x3e, 0xaf, 0x08, 0xda, 0xbd, 0xe7, 0xd4, 0xa5, 0x3d,
  0x3f, 0x70, 0xc1, 0x3a, 0xce, 0x07, 0x44, 0xbe, 0x0c, 0xa0, 0x3e, 0xbd,
  0x40, 0x98, 0x5b, 0xbd, 0xb1, 0x9e, 0x08, 0x3e, 0xcc, 0x3c, 0x3b, 0xbe,
  0x67, 0x6d, 0x94, 0xbd, 0xb5, 0x02, 0x05, 0x3e, 0xfe, 0x05, 0x45, 0xbe,
  0x98, 0xec, 0x26, 0x3e, 0xf9, 0x3e, 0xcf, 0x3d, 0xc6, 0xed, 0x0a, 0x3c,
  0x62, 0x4d, 0x20, 0xbe, 0x54, 0xa5, 0x41, 0x3e, 0x8e, 0x2d, 0x86, 0x3d,
  0x3e, 0xed, 0x4e, 0xbe, 0x84, 0x89, 0x9b, 0xbd, 0x82, 0xa7, 0xdd, 0x3d,
  0x8b, 0x74, 0x31, 0xbe, 0x01, 0x6b, 0xfc, 0xbd, 0xb9, 0xd5, 0x36, 0xbe,
  0x55, 0xf3, 0x1f, 0x3e, 0x3b, 0xa6, 0x26, 0x3e, 0xa4, 0xf7, 0x3f, 0x3e,
  0xa1, 0x81, 0x4b, 0xbb, 0xb8, 0xc2, 0x33, 0xbe, 0x90, 0x87, 0xa6, 0xbd,
  0xf6, 0x7d, 0x2a, 0x3e, 0x99, 0x8b, 0x4b, 0x3e, 0x47, 0x32, 0x39, 0xbe,
  0x5e, 0xe3, 0x70, 0x3e, 0xe0, 0x2d, 0x3d, 0xbc, 0xdd, 0x07, 0x6b, 0xbe,
  0x0b, 0xe1, 0xaf, 0xbc, 0x63, 0xa9, 0x45, 0xbe, 0x72, 0xd3, 0x2b, 0x3e,
  0xd1, 0x85, 0xf9, 0xbd, 0x15, 0x37, 0x3d, 0xbe, 0xd7, 0x4d, 0x33, 0xbe,
  0x36, 0x37, 0x4a, 0xbd, 0x22, 0x70, 0x07, 0xbe, 0xb0, 0x73, 0x86, 0x3d,
  0x7c, 0x5f, 0xee, 0x3d, 0xcd, 0x36, 0x4d, 0x3d, 0xa0, 0xba, 0x54, 0xbd,
  0xb5, 0x6e, 0x53, 0x3e, 0xd3, 0xe4, 0x07, 0xbe, 0x3e, 0xe3, 0xd6, 0xbd,
  0xd8, 0x4d, 0x68, 0x3e, 0x0e, 0xc8, 0x07, 0xbe, 0xee, 0x93, 0x26, 0x3d,
  0x70, 0xe4, 0x89, 0x3d, 0x96, 0x1a, 0x32, 0x3e, 0x91, 0xeb, 0x01, 0x3d,
  0xa2, 0xe9, 0x27, 0xbe, 0xff, 0x3e, 0xbf, 0xbd, 0x70, 0x92, 0xe7, 0xbd,
  0x66, 0x13, 0x77, 0x3b, 0x07, 0xea, 0x07, 0x3e, 0x72, 0x66, 0x40, 0xbe,
  0x37, 0xbb, 0x70, 0xbe, 0xda, 0x0b, 0xac, 0xbd, 0x55, 0xed, 0xca, 0x3d,
  0x35, 0x8f, 0x42, 0x3e, 0xf5, 0x01, 0xf9, 0x3d, 0xbf, 0x7b, 0x84, 0xbd,
  0x52, 0xe5, 0xed, 0xbd, 0xa1, 0x57, 0x30, 0x3d, 0xdf, 0xd0, 0xb1, 0x3b,
  0x68, 0x1b, 0x82, 0x3d, 0xfc, 0x93, 0x26, 0xbe, 0xc0, 0x8f, 0xda, 0xbd,
  0xd8, 0x4a, 0x6c, 0xbe, 0xd1, 0x95, 0xa6, 0x3c, 0xb3, 0x66, 0x7c, 0xbd,
  0xe2, 0xa4, 0x3f, 0x3e, 0x23, 0x6a, 0x61, 0x3e, 0x62, 0x1c, 0xa5, 0xbd,
  0x92, 0x07, 0x97, 0xbd, 0x18, 0x21, 0x4e, 0xbe, 0x32, 0xa7, 0xd0, 0xbd,
  0x55, 0x53, 0x40, 0x3e, 0x79, 0x07, 0x72, 0xbd, 0xbe, 0x23, 0x83, 0x3d,
  0x7e, 0x08, 0x0a, 0xbe, 0x1a, 0x0c, 0xc3, 0x3d, 0x58, 0xa1, 0x0e, 0x3e,
  0x00, 0x8f, 0xf6, 0x3d, 0x9e, 0xca, 0xd3, 0x3d, 0x74, 0xb5, 0xda, 0xbd,
  0x6c, 0xa3, 0x20, 0xbe, 0x2d, 0xe1, 0x2f, 0xbe, 0xe0, 0xdd, 0x7d, 0x3c,
  0xd0, 0x41, 0xe4, 0x3d, 0xc0, 0x8b, 0x41, 0x3d, 0x8f, 0xe3, 0x2b, 0xbd,
  0x93, 0x24, 0x18, 0x3e, 0x94, 0xf0, 0x1b, 0xbd, 0x68, 0x49, 0xb3, 0xbd,
  0x06, 0x8c, 0x36, 0xbd, 0x95, 0xea, 0xe1, 0xbd, 0xc1, 0x1c, 0xb1, 0xbd,
  0x80, 0x57, 0xe0, 0x3b, 0xf5, 0xe3, 0x5f, 0xbe, 0x8b, 0x55, 0x65, 0xbe,
  0x58, 0xa9, 0x11, 0xbe, 0x59, 0xee, 0x56, 0xbe, 0xd4, 0xc2, 0xbf, 0xbd,
  0x8f, 0x78, 0x5d, 0xbe, 0x16, 0xd0, 0x3e, 0xbd, 0x03, 0x66, 0xd2, 0x3c,
  0xd8, 0xbe, 0xa7, 0x3d, 0x9f, 0x59, 0x09, 0x3e, 0x21, 0x6e, 0x83, 0xbd,
  0x55, 0x3d, 0x88, 0x3d, 0x54, 0xae, 0x17, 0xbe, 0xcb, 0xd0, 0x2b, 0xbe,
  0x12, 0x52, 0xf6, 0xbd, 0x4f, 0x61, 0x20, 0xbe, 0xcf, 0x00, 0x93, 0x3d,
  0xdd, 0x58, 0x53, 0x3e, 0x4d, 0x65, 0xd6, 0x3d, 0x74, 0x64, 0x06, 0x3e,
  0x34, 0xd5, 0x40, 0xbe, 0xed, 0x0e, 0xd4, 0xbd, 0xee, 0x3b, 0x59, 0xbe,
  0x15, 0xe1, 0x66, 0x3e, 0x86, 0xf6, 0x00, 0x3e, 0xc3, 0x5b, 0x6f, 0x3e,
  0xf4, 0xf2, 0x66, 0xbe, 0x28, 0x95, 0x60, 0x3e, 0xe8, 0x89, 0x69, 0x3c,
  0xe1, 0xb0, 0x48, 0x3e, 0xb9, 0x49, 0x4c, 0xbe, 0x28, 0xd8, 0xa8, 0xbd,
  0x89, 0xfd, 0x93, 0x3d, 0x8d, 0xa2, 0x56, 0xbe, 0x18, 0xb2, 0xb6, 0x3d,
  0x82, 0xa7, 0x89, 0x3d, 0x19, 0x2a, 0x02, 0x3e, 0x3c, 0xac, 0x1e, 0x3d,
  0x39, 0x82, 0x2b, 0x3e, 0x1c, 0x6f, 0xaa, 0xbd, 0xd6, 0xe9, 0x19, 0xbe,
  0x49, 0xe8, 0xf5, 0x3c, 0x06, 0x49, 0x81, 0xbd, 0xf1, 0xc1, 0xc3, 0x3d,
  0x22, 0xa6, 0x37, 0xbe, 0x1c, 0x39, 0x24, 0xbe, 0x37, 0xaa, 0x3a, 0xbd,
  0x22, 0x83, 0xa3, 0xbd, 0xf6, 0x59, 0x42, 0x3e, 0x2a, 0x81, 0x44, 0xbe,
  0xad, 0x94, 0x96, 0x3c, 0xa6, 0x57, 0x15, 0xbe, 0x94, 0x04, 0x87, 0xbd,
  0x6c, 0xd3, 0x62, 0xbe, 0x04, 0x97, 0xbe, 0xbb, 0xe6, 0x4d, 0x60, 0xbe,
  0x40, 0x20, 0xe4, 0xbd, 0xa8, 0xcd, 0xa4, 0xbd, 0x61, 0xc8, 0xff, 0x3c,
  0x5b, 0x34, 0x75, 0xbe, 0x01, 0x49, 0xea, 0x3d, 0xa6, 0xf3, 0xff, 0x3c,
  0x78, 0xe9, 0x5c, 0xbd, 0x27, 0x96, 0xd5, 0x3d, 0x1d, 0x7b, 0x01, 0x3e,
  0xa2, 0xf6, 0xda, 0x3d, 0x2f, 0xc4, 0x52, 0x3d, 0xc9, 0x16, 0xd0, 0xbb,
  0x28, 0x75, 0x1b, 0x3d, 0x1b, 0x24, 0x1e, 0x3e, 0x38, 0x71, 0x35, 0xbe,
  0x90, 0x35, 0x6c, 0xbe, 0x69, 0x30, 0x92, 0xbd, 0x7c, 0xa5, 0xfe, 0xbc,
  0xc9, 0xb1, 0x0a, 0x3d, 0x58, 0x0b, 0x10, 0x3e, 0x5a, 0x70, 0x3b, 0x3e,
  0xac, 0x93, 0xcf, 0xbd, 0x0a, 0x42, 0x1e, 0xbd, 0xbc, 0xe6, 0x81, 0x3d,
  0x5c, 0xa3, 0xf1, 0xbd, 0xd1, 0x75, 0xe4, 0x3d, 0x32, 0x95, 0x37, 0xbe,
  0x1d, 0xe0, 0xb2, 0xbc, 0x9c, 0x03, 0x22, 0x3e, 0x98, 0x3e, 0x18, 0xbe,
  0x80, 0xc1, 0x15, 0x3e, 0x77, 0xd5, 0x56, 0x3e, 0xde, 0x20, 0x2f, 0xbe,
  0x92, 0xcc, 0x2c, 0xbe, 0x39, 0x17, 0x6a, 0x3d, 0x0c, 0x0d, 0xf7, 0x3d,
  0xbf, 0xa8, 0x5d, 0x3e, 0x83, 0xb8, 0x03, 0x3e, 0x23, 0x47, 0x43, 0xbe,
  0x66, 0x06, 0x7e, 0xbb, 0x92, 0xf2, 0x85, 0x3d, 0xd0, 0xed, 0x06, 0xbe,
  0xb8, 0xb7, 0x8f, 0x3c, 0x78, 0xeb, 0xd8, 0x3d, 0x7b, 0xfe, 0x3d, 0x3d,
  0x2b, 0x30, 0x13, 0x3e, 0x74, 0x1d, 0x56, 0x3e, 0xd3, 0x28, 0x0e, 0xbc,
  0x8c, 0xaa, 0x57, 0xbe, 0xbe, 0xda, 0x52, 0x3d, 0xc2, 0xe0, 0x29, 0xbe,
  0x9e, 0xef, 0x1a, 0xbe, 0xb8, 0x5e, 0x4c, 0xbe, 0x70, 0x39, 0x1d, 0xbe,
  0x07, 0xb6, 0x53, 0xbe, 0x14, 0x98, 0xfa, 0x3d, 0x3a, 0xa3, 0xc5, 0xbd,
  0xb8, 0xe8, 0xa5, 0x3c, 0xf8, 0xf3, 0x23, 0x3e, 0xce, 0x81, 0x1f, 0xbd,
  0xbd, 0xeb, 0xc4, 0x3b, 0x7e, 0x33, 0x31, 0xbe, 0xed, 0x55, 0x92, 0x3d,
  0x27, 0xf8, 0x35, 0x3e, 0xc1, 0x84, 0x65, 0x3e, 0xa0, 0x80, 0x4a, 0x3d,
  0x00, 0x44, 0xa3, 0xbd, 0xea, 0xdf, 0xbb, 0x3d, 0x90, 0xa5, 0x73, 0xbc,
  0x0a, 0x20, 0x56, 0xbd, 0x66, 0x78, 0x83, 0xbd, 0x2a, 0x2d, 0xfe, 0x3d,
  0x0b, 0xa5, 0x71, 0x3e, 0x38, 0xb8, 0xee, 0x3d, 0x9b, 0xf2, 0x1a, 0x3c,
  0x30, 0xfe, 0xa3, 0x3d, 0x2f, 0x6f, 0x1a, 0xbe, 0x51, 0x64, 0x65, 0xbe,
  0xcf, 0x40, 0x63, 0xbe, 0x68, 0x63, 0xe0, 0x3d, 0xa5, 0xff, 0x0c, 0xbe,
  0x2e, 0x67, 0xc0, 0xbd, 0xa0, 0x8b, 0x32, 0x3d, 0x57, 0x2d, 0x06, 0xbe,
  0xb5, 0x9f, 0x90, 0x3d, 0x4a, 0x9a, 0x98, 0xbd, 0x4b, 0x71, 0x52, 0x3d,
  0x95, 0xec, 0x68, 0x3e, 0x1f, 0xdf, 0x04, 0xbe, 0x20, 0x98, 0xa7, 0xbd,
  0xbb, 0x53, 0xf3, 0x3c, 0x89, 0x6b, 0x05, 0xbe, 0xe0, 0x63, 0xdf, 0xbd,
  0xe9, 0x8b, 0xb6, 0x3d, 0x7e, 0xf5, 0x41, 0x3e, 0x6b, 0xf2, 0x00, 0x3d,
  0x91, 0x52, 0xcc, 0xbc, 0xc3, 0x3b, 0x50, 0x3e, 0x45, 0x42, 0xd9, 0x3d,
  0xbb, 0x06, 0x56, 0x3e, 0x80, 0xfa, 0x6b, 0x3c, 0xe4, 0x5d, 0x20, 0xbe,
  0x87, 0x58, 0x14, 0xbd, 0x67, 0xc1, 0x36, 0xbe, 0xbf, 0x25, 0x5d, 0x3e,
  0xd9, 0xdd, 0xe9, 0xbc, 0x0a, 0xf6, 0x46, 0x3e, 0x70, 0xc9, 0x30, 0x3e,
  0xed, 0xf7, 0x8d, 0x3c, 0x7f, 0xdd, 0x5d, 0x3e, 0x86, 0x56, 0x8a, 0x3d,
  0x66, 0x11, 0xd6, 0x3c, 0x29, 0xa1, 0xf8, 0xbd, 0xb5, 0x8e, 0xf7, 0xbd,
  0x69, 0xd5, 0x72, 0xbe, 0xf8, 0x9f, 0x42, 0x3c, 0xb6, 0x2e, 0xf8, 0x3d,
  0x72, 0x27, 0x54, 0xbe, 0xa0, 0x80, 0x46, 0x3d, 0x96, 0xc9, 0x45, 0xbe,
  0x4f, 0x5d, 0x56, 0xbe, 0x63, 0x7c, 0x24, 0xbe, 0xdf, 0xae, 0x0a, 0x3e,
  0xc1, 0xdd, 0x5c, 0x3e, 0x04, 0x34, 0x99, 0x3d, 0xa5, 0x14, 0xae, 0xbd,
  0x72, 0x56, 0x40, 0x3e, 0xf1, 0xfc, 0x03, 0x3e, 0x2f, 0xd5, 0xbd, 0xbd,
  0x43, 0xc3, 0x15, 0xbe, 0x24, 0x87, 0x28, 0xbd, 0x83, 0xa3, 0xf6, 0xbd,
  0x2d, 0xb2, 0xd0, 0xbd, 0x32, 0x3f, 0x29, 0x3e, 0xf0, 0x94, 0xbe, 0xbc,
  0x1b, 0x25, 0x37, 0xbd, 0x03, 0x43, 0x24, 0x3e, 0x34, 0xf9, 0xd8, 0xbb,
  0x88, 0xbd, 0x5f, 0x3e, 0xe7, 0xb5, 0x43, 0x3d, 0x50, 0x85, 0x73, 0xbe,
  0x22, 0x86, 0x17, 0x3d, 0xc0, 0xf7, 0x90, 0x3d, 0x3a, 0x34, 0xaa, 0xbb,
  0xd2, 0x9f, 0x52, 0xbe, 0x97, 0x21, 0xbc, 0xbd, 0x57, 0xff, 0x69, 0x3d,
  0x2a, 0xcf, 0x7a, 0x3c, 0xec, 0xcb, 0x16, 0xbe, 0x70, 0xd0, 0xc3, 0x3c,
  0x9f, 0xe2, 0xf8, 0x3d, 0x9c, 0x00, 0xcd, 0xbd, 0xc3, 0xd9, 0x4e, 0xbe,
  0x27, 0x22, 0x09, 0xbe, 0x4a, 0x4c, 0x2e, 0x3d, 0x63, 0x5d, 0xc5, 0xbd,
  0x53, 0x52, 0x80, 0xbc, 0x8d, 0x51, 0x3d, 0x3e, 0xf4, 0x0a, 0xfa, 0xbd,
  0x2c, 0x44, 0x11, 0xbd, 0x18, 0xa2, 0x7a, 0xbd, 0xdd, 0xa6, 0xc3, 0x3d,
  0x1e, 0x02, 0x42, 0x3d, 0x52, 0xfd, 0x4e, 0xbd, 0xf0, 0x3c, 0x56, 0xbe,
  0x5a, 0x7a, 0x04, 0x3e, 0x0e, 0x72, 0xb0, 0xbd, 0xae, 0xf4, 0xaf, 0x3d,
  0xae, 0x1d, 0x38, 0xbc, 0x90, 0xe1, 0x2e, 0x3e, 0x7d, 0x1c, 0x25, 0x3e,
  0x72, 0x75, 0x20, 0x3e, 0x9b, 0x8f, 0xd9, 0x3c, 0x6e, 0x49, 0x19, 0x3e,
  0x88, 0x81, 0x45, 0x3c, 0x77, 0x2a, 0x11, 0xbd, 0x6b, 0x63, 0xf0, 0x3c,
  0xfe, 0xbf, 0x33, 0x3e, 0x28, 0xf8, 0x8e, 0x3d, 0x80, 0xbb, 0x84, 0xbb,
  0x02, 0xb6, 0x80, 0xbd, 0x74, 0xb9, 0xc3, 0xbd, 0xbd, 0xf1, 0x09, 0xbe,
  0xd3, 0x1e, 0x0b, 0x3e, 0x1c, 0xa2, 0x82, 0x3c, 0xfa, 0xcb, 0x45, 0x3e,
  0xc9, 0x4b, 0xb1, 0x3d, 0x2a, 0xb1, 0xc3, 0xbd, 0x0c, 0x43, 0x9e, 0x3c,
  0xa3, 0x4e, 0x1f, 0x3e, 0x71, 0x4a, 0xf5, 0xbc, 0x69, 0xc5, 0x2b, 0xbe,
  0x0b, 0x07, 0x94, 0x3c, 0x05, 0xd3, 0xfd, 0xbb, 0x9d, 0x73, 0xaf, 0x3d,
  0xbf, 0xa4, 0x54, 0xbe, 0x51, 0xe5, 0x2a, 0xbe, 0x52, 0xe5, 0x36, 0xbe,
  0xf8, 0x80, 0x60, 0x3e, 0x76, 0x53, 0xfc, 0x3d, 0x96, 0x6b, 0x0b, 0xbe,
  0xe5, 0xc2, 0x54, 0xbd, 0x91, 0xcb, 0x39, 0xbe, 0x26, 0xe8, 0x3f, 0x3e,
  0x9f, 0x45, 0x16, 0x3e, 0x24, 0x41, 0x19, 0x3e, 0x90, 0xb2, 0x18, 0x3e,
  0xb9, 0xe0, 0xc6, 0x3d, 0xd7, 0x86, 0xde, 0xbd, 0x8b, 0xce, 0x40, 0x3e,
  0xb5, 0x22, 0xfd, 0xbd, 0x80, 0x01, 0x9c, 0x3d, 0xdd, 0x39, 0xfa, 0x3a,
  0x75, 0xe0, 0x92, 0x3d, 0xcd, 0xc6, 0x12, 0xbd, 0x75, 0xe8, 0x10, 0xbe,
  0x14, 0x8e, 0xb4, 0x3c, 0x08, 0xae, 0xc9, 0xbd, 0x85, 0xa2, 0x0a, 0xbe,
  0xb4, 0xff, 0x4c, 0xbe, 0x21, 0x34, 0x43, 0x3e, 0xd7, 0xad, 0x3d, 0xbe,
  0x6c, 0x8d, 0x15, 0xbd, 0x98, 0x1d, 0x64, 0xbe, 0x12, 0x62, 0x3d, 0x3e,
  0xce, 0x28, 0x2c, 0xbe, 0x5a, 0x81, 0x87, 0x3d, 0x2b, 0x70, 0xa4, 0xbd,
  0x80, 0xb3, 0xbc, 0x3b, 0x87, 0xb8, 0xb9, 0x3d, 0x5c, 0x33, 0x65, 0x3d,
  0x95, 0x17, 0x42, 0xbc, 0x1b, 0x54, 0x3b, 0xbe, 0x1e, 0x25, 0x56, 0x3d,
  0xe1, 0xc0, 0x49, 0x3e, 0x88, 0x13, 0x37, 0x3e, 0x48, 0x2e, 0x89, 0xbd,
  0xf0, 0x7d, 0xd7, 0xb9, 0xab, 0xca, 0xf7, 0xbd, 0x24, 0xf7, 0x2d, 0x3e,
  0xf0, 0x53, 0x8a, 0xbd, 0x6f, 0x86, 0xca, 0x3d, 0x17, 0x64, 0x50, 0xbd,
  0xd4, 0xcd, 0xc4, 0xbd, 0x63, 0x1e, 0x4e, 0xbd, 0xc8, 0x5d, 0x28, 0x3c,
  0x8b, 0x6e, 0x25, 0x3e, 0x8d, 0xa4, 0x69, 0xbe, 0x08, 0x99, 0x37, 0xbe,
  0x9b, 0x45, 0x15, 0xbe, 0xcc, 0xa2, 0x36, 0xbe, 0xa2, 0x58, 0x25, 0xbe,
  0x0c, 0xda, 0x7b, 0xbc, 0xa7, 0xa8, 0x51, 0x3e, 0xae, 0xe3, 0x9f, 0x3d,
  0x9e, 0x98, 0x1d, 0x3e, 0x79, 0xea, 0x04, 0x3e, 0x40, 0x9a, 0xd7, 0x3c,
  0xa3, 0xf0, 0x9b, 0x3d, 0xbb, 0x1e, 0x54, 0x3e, 0xa3, 0xc9, 0xcb, 0x3d,
  0x39, 0xd6, 0x01, 0x3b, 0xac, 0xd3, 0x59, 0x3e, 0xa4, 0x3f, 0x92, 0x3d,
  0x3f, 0xd9, 0x5a, 0xbe, 0xef, 0x9a, 0x8f, 0x3b, 0xbf, 0x2d, 0x2e, 0x3e,
  0x8b, 0xea, 0x04, 0xbe, 0x5d, 0x75, 0x6a, 0xbd, 0xd3, 0x7e, 0xdb, 0x3c,
  0xe6, 0x70, 0x70, 0x3d, 0xe0, 0xb2, 0x06, 0x3e, 0x90, 0x7a, 0xbf, 0x3d,
  0xc5, 0xfd, 0xef, 0xbc, 0xd6, 0x8a, 0x90, 0x3c, 0x2f, 0x99, 0x98, 0xbc,
  0x2b, 0x74, 0x21, 0x3e, 0x18, 0xd3, 0xbe, 0x3d, 0xe3, 0x5a, 0x20, 0xbe,
  0x39, 0x15, 0x2c, 0x3e, 0x50, 0xee, 0x16, 0x3e, 0x78, 0x9e, 0x5e, 0x3e,
  0x24, 0x29, 0xf4, 0x3d, 0x59, 0xb2, 0x1b, 0x3e, 0x0a, 0x40, 0x37, 0xbe,
  0x78, 0xb0, 0x11, 0xbd, 0x30, 0x28, 0xdd, 0xbc, 0x95, 0xd1, 0x54, 0xbd,
  0x91, 0x36, 0x24, 0xbc, 0xf6, 0x1b, 0x6b, 0xbe, 0xa8, 0xd1, 0x8c, 0x3d,
  0x55, 0x80, 0xf7, 0x3d, 0x1d, 0xbc, 0xe5, 0x3d, 0x27, 0xd6, 0x6b, 0xbe,
  0xcf, 0xd7, 0x40, 0xbe, 0x09, 0x00, 0x2f, 0x3e, 0x68, 0xc2, 0x93, 0x3c,
  0xcf, 0x8a, 0x10, 0x3e, 0xc3, 0xc3, 0x04, 0xbe, 0x17, 0x4b, 0x66, 0x3d,
  0x24, 0x6f, 0xe2, 0xbc, 0x4c, 0x73, 0xd7, 0x3b, 0x91, 0xaa, 0x2a, 0xbe,
  0x62, 0x19, 0x58, 0x3d, 0x8b, 0x68, 0xe0, 0x3d, 0x59, 0x82, 0x8f, 0xbd,
  0xc1, 0x53, 0x2b, 0xbe, 0xc8, 0x01, 0x13, 0x3e, 0x18, 0x50, 0xaf, 0xbd,
  0xf6, 0x77, 0xc6, 0xbd, 0x78, 0x3f, 0x54, 0xbe, 0x64, 0xf1, 0x51, 0x3e,
  0x3b, 0x79, 0x08, 0xbd, 0x08, 0xf8, 0x2f, 0xbe, 0x73, 0xea, 0x56, 0x3e,
  0x4d, 0xab, 0x01, 0x3e, 0x24, 0x84, 0x8d, 0x3d, 0x67, 0xa7, 0x39, 0x3d,
  0xff, 0xf7, 0x4a, 0x3e, 0x33, 0x55, 0x2e, 0x3c, 0xb0, 0x2d, 0x0e, 0x3d,
  0x79, 0x0e, 0x30, 0x3e, 0x9d, 0x18, 0xdb, 0xbc, 0x2f, 0xc9, 0xe6, 0x3d,
  0x90, 0xea, 0x0a, 0x3e, 0x6e, 0xdb, 0x36, 0x3e, 0x38, 0xc8, 0x16, 0xbe,
  0x7e, 0xbf, 0x91, 0xbd, 0x7e, 0x53, 0x61, 0xbe, 0x18, 0xea, 0x56, 0xbe,
  0xe5, 0xc9, 0x27, 0xbe, 0xcb, 0x9c, 0xf8, 0xbd, 0xd2, 0xe1, 0x05, 0x3d,
  0x97, 0x93, 0x68, 0xbd, 0x07, 0x16, 0x54, 0xbe, 0x1a, 0xd9, 0xc5, 0xbc,
  0xff, 0x1e, 0xd3, 0x3d, 0xe5, 0x90, 0x16, 0x3e, 0x6b, 0x40, 0xb0, 0x3c,
  0xd7, 0xd1, 0x86, 0xbd, 0x1c, 0x29, 0x1d, 0x3e, 0x96, 0x64, 0x29, 0x3e,
  0x4a, 0x4b, 0x86, 0xbd, 0x89, 0xc0, 0x73, 0x3c, 0x4f, 0x81, 0xaa, 0x3d,
  0xbb, 0x45, 0x5e, 0x3d, 0x4c, 0xff, 0x3b, 0xbe, 0x29, 0x06, 0xd3, 0xbd,
  0xe3, 0x9f, 0xba, 0xba, 0x6e, 0x7a, 0x5d, 0x3e, 0xb9, 0xfa, 0x54, 0x3e,
  0x7e, 0x43, 0x2d, 0xbd, 0x0c, 0x15, 0x61, 0xbe, 0x57, 0x2c, 0xa5, 0xbd,
  0x97, 0x6d, 0x17, 0x3d, 0xc4, 0x4a, 0x06, 0x3d, 0xe4, 0xb8, 0xd3, 0x3c,
  0xda, 0x47, 0xee, 0xbd, 0x9e, 0x29, 0xf0, 0x3d, 0x82, 0x93, 0x2d, 0x3d,
  0x90, 0xeb, 0xcb, 0x3d, 0x5d, 0x46, 0x3f, 0xbe, 0x08, 0xe3, 0x57, 0x3d,
  0x71, 0xa1, 0x69, 0x3e, 0xc5, 0x95, 0x11, 0x3e, 0x22, 0x45, 0x0f, 0xbe,
  0xea, 0xb4, 0x43, 0x3e, 0xcc, 0xe2, 0xbc, 0x3d, 0x14, 0x11, 0x07, 0x3e,
  0x02, 0x92, 0xd7, 0xbd, 0x31, 0xa9, 0x29, 0xbe, 0x6d, 0x8a, 0x87, 0xbd,
  0x53, 0x07, 0x2e, 0x3e, 0x8b, 0x26, 0x64, 0x3e, 0xfa, 0x90, 0x8b, 0xbd,
  0x7c, 0xe0, 0x94, 0xbd, 0x5b, 0xfa, 0xca, 0xbd, 0xf7, 0x72, 0x8f, 0x3c,
  0x60, 0x25, 0xd4, 0x3d, 0x32, 0x11, 0x2c, 0x3e, 0xc0, 0x0e, 0x2e, 0x3e,
  0xe6, 0x75, 0x96, 0x3d, 0x47, 0xee, 0x1f, 0x3d, 0x08, 0x57, 0x9b, 0x3c,
  0x59, 0x46, 0x25, 0xbe, 0x17, 0xe8, 0xbf, 0xbd, 0xfa, 0x5e, 0xcd, 0xbc,
  0x5d, 0x21, 0x19, 0xbd, 0xd4, 0x98, 0x0b, 0xbe, 0x5a, 0xe4, 0x21, 0x3e,
  0xc9, 0x13, 0x28, 0x3e, 0x06, 0xfd, 0x3d, 0xbe, 0x87, 0x12, 0x93, 0x3d,
  0x8a, 0xf8, 0x48, 0xbd, 0x3b, 0xa2, 0x48, 0xbe, 0x8f, 0x9e, 0x65, 0xbe,
  0xe4, 0x07, 0x7f, 0xbc, 0xb5, 0x7e, 0xa5, 0xbd, 0x41, 0xa5, 0xd2, 0x3d,
  0x69, 0xd0, 0x5b, 0x3e, 0x93, 0xe0, 0xc1, 0x3c, 0x68, 0x0b, 0xc6, 0xbd,
  0xc0, 0x34, 0xae, 0x3b, 0xf6, 0x1c, 0x07, 0xbe, 0x71, 0xf3, 0x36, 0x3d,
  0xdb, 0x7e, 0x52, 0x3e, 0x8c, 0xf3, 0x40, 0xbe, 0xb8, 0xa4, 0x2b, 0x3d,
  0xb0, 0xea, 0x40, 0x3e, 0x78, 0xbc, 0x9e, 0x3c, 0x7e, 0x71, 0xd0, 0xbd,
  0xc4, 0xcf, 0xa8, 0x3d, 0x4e, 0xdd, 0x18, 0xbe, 0xc9, 0x3f, 0xc2, 0xbd,
  0xeb, 0x89, 0x97, 0x3d, 0x4a, 0xd8, 0x7b, 0xbd, 0x6b, 0x35, 0x12, 0xbd,
  0xc9, 0x7d, 0x8c, 0xbd, 0x08, 0x17, 0x44, 0x3e, 0x59, 0x60, 0x67, 0xbe,
  0x06, 0xf4, 0x31, 0xbd, 0xd5, 0x5b, 0x17, 0xbe, 0x77, 0x2d, 0x36, 0x3e,
  0x19, 0x24, 0x2f, 0x3e, 0x18, 0xa6, 0x07, 0xbe, 0x24, 0x82, 0x1b, 0xbe,
  0x60, 0x33, 0x05, 0xbe, 0x1f, 0x0a, 0x15, 0xbe, 0xac, 0xf8, 0xef, 0x3d,
  0x16, 0x04, 0x17, 0x3e, 0x72, 0x6b, 0xbb, 0xbc, 0xbc, 0xc0, 0x73, 0x3d,
  0x73, 0x7e, 0x29, 0xbe, 0xeb, 0xbc, 0x0a, 0xbe, 0x34, 0x23, 0xbd, 0xbd,
  0xfc, 0x36, 0xe9, 0x3d, 0x76, 0x0e, 0x75, 0xbd, 0x12, 0xf7, 0x25, 0xbe,
  0xfb, 0xf2, 0x6d, 0xbe, 0xb1, 0x89, 0x00, 0x3e, 0xfc, 0xdd, 0x07, 0xbd,
  0x4a, 0x63, 0x14, 0x3d, 0x95, 0x13, 0x6a, 0xbe, 0x58, 0x65, 0xb0, 0x3d,
  0x03, 0x85, 0xd5, 0x3d, 0xeb, 0x72, 0x00, 0x3e, 0x9c, 0x85, 0x54, 0x3e,
  0xe0, 0x98, 0xe3, 0x3d, 0x86, 0xe4, 0x0d, 0xbe, 0x53, 0x0d, 0x10, 0x3e,
  0x41, 0x14, 0xe4, 0x3d, 0xb2, 0xfb, 0x41, 0x3e, 0x24, 0x49, 0x2e, 0xbe,
  0xaa, 0xb6, 0x20, 0xbd, 0x51, 0x50, 0x14, 0xbe, 0x87, 0xb7, 0x31, 0x3e,
  0xc2, 0xf6, 0x24, 0xbe, 0xa6, 0xcd, 0xc2, 0x3d, 0xe7, 0xb4, 0xf8, 0x3c,
  0x6e, 0xb5, 0x13, 0xbe, 0x30, 0x49, 0x0a, 0x3c, 0x3e, 0xfe, 0x64, 0xbe,
  0x4c, 0x98, 0x1b, 0x3e, 0x62, 0x3a, 0x55, 0xbc, 0x52, 0x46, 0xd0, 0x3d,
  0x55, 0x6e, 0x03, 0x3e, 0x64, 0x48, 0x42, 0xbe, 0xd8, 0x48, 0x3d, 0xbe,
  0xec, 0x52, 0x41, 0xbe, 0x42, 0x98, 0x17, 0x3d, 0x9d, 0x03, 0x88, 0x3d,
  0xd6, 0xa1, 0x0c, 0x3d, 0x4c, 0xc0, 0x3b, 0xbe, 0x04, 0xa7, 0x3d, 0x3e,
  0x76, 0xea, 0x47, 0x3e, 0x0a, 0xeb, 0xc8, 0xbd, 0x8b, 0x80, 0x79, 0x3d,
  0x61, 0xc7, 0x3c, 0xbd, 0x57, 0x62, 0x54, 0x3e, 0xfe, 0x55, 0xc2, 0xbd,
  0x03, 0xed, 0xb4, 0xbd, 0xa5, 0x19, 0x4f, 0xbe, 0x5c, 0x06, 0xa1, 0xbd,
  0x0f, 0x3f, 0xe7, 0xbd, 0x20, 0xd0, 0x0c, 0xbe, 0x46, 0x81, 0x4b, 0xbe,
  0xf7, 0x1c, 0x54, 0x3e, 0xb6, 0x22, 0x10, 0xbe, 0x41, 0x98, 0x6b, 0xbd,
  0xea, 0xd0, 0x0d, 0xbe, 0x84, 0x76, 0xb8, 0x3d, 0x86, 0xf4, 0x70, 0x3e,
  0x48, 0xab, 0x08, 0x3e, 0x86, 0xb8, 0x21, 0xbe, 0x26, 0x4b, 0x63, 0xbe,
  0x24, 0xa7, 0xb9, 0xbd, 0x1d, 0x53, 0xe5, 0xbd, 0xba, 0x93, 0xc5, 0xbd,
  0x2e, 0x95, 0x07, 0xbe, 0x05, 0x6c, 0x44, 0x3e, 0xdf, 0x80, 0x50, 0xbe,
  0x2d, 0x29, 0x27, 0x3e, 0x7f, 0x09, 0x1c, 0x3e, 0x4e, 0x71, 0x23, 0x3d,
  0xad, 0x31, 0xf9, 0xbc, 0x54, 0x45, 0x47, 0xbe, 0x83, 0x0e, 0x4a, 0x3e,
  0x62, 0x82, 0x97, 0x3d, 0x03, 0x90, 0x65, 0x3e, 0xf0, 0x11, 0xc7, 0x3c,
  0x2c, 0xbd, 0x60, 0xbd, 0x5a, 0x0e, 0x51, 0xbe, 0x30, 0xfd, 0xd0, 0x3d,
  0xde, 0x72, 0x37, 0xbd, 0xd9, 0x59, 0x71, 0xbe, 0x44, 0xeb, 0xd5, 0xbd,
  0x98, 0x2e, 0x01, 0xbd, 0x9a, 0x43, 0x15, 0xbe, 0x8c, 0x07, 0x2c, 0xbe,
  0x26, 0x04, 0x17, 0xbe, 0x3d, 0x0c, 0xf3, 0xbd, 0xda, 0x3a, 0xf5, 0x3d,
  0xc0, 0x0a, 0x49, 0x3e, 0xd6, 0xf9, 0x27, 0x3e, 0xd2, 0x17, 0x11, 0x3e,
  0xa2, 0xfc, 0x4c, 0xbd, 0x4f, 0xa0, 0x52, 0x3e, 0x08, 0x4d, 0x2a, 0xbe,
  0xb6, 0xaa, 0xae, 0x3d, 0x57, 0xe8, 0x2a, 0xbd, 0x7f, 0x84, 0xa8, 0xbd,
  0x0b, 0x3a, 0x4b, 0xbd, 0x8b, 0x85, 0x08, 0xbe, 0x92, 0xff, 0xee, 0x3c,
  0x4a, 0x7a, 0xb3, 0xbd, 0xb8, 0x20, 0x42, 0x3e, 0x08, 0x69, 0x67, 0x3e,
  0x7d, 0x54, 0x46, 0xbd, 0xcd, 0xc4, 0x5d, 0xbe, 0xc0, 0xf8, 0xb3, 0xbd,
  0x80, 0xa9, 0x0e, 0x3e, 0x88, 0x34, 0x9c, 0xbd, 0x40, 0x20, 0x1c, 0x3e,
  0xaa, 0x9d, 0xbd, 0xbd, 0x00, 0xc0, 0x2e, 0x3e, 0xda, 0xd3, 0x25, 0x3e,
  0xf2, 0xec, 0x87, 0x3d, 0x52, 0xa6, 0x8c, 0x3d, 0x0d, 0xfb, 0x25, 0x3d,
  0x2c, 0x4e, 0x28, 0x3c, 0xc8, 0xac, 0x30, 0x3e, 0xf2, 0x2a, 0x66, 0xbe,
  0x07, 0xc2, 0x1c, 0x3e, 0x92, 0x0c, 0xa3, 0xbd, 0x5d, 0x53, 0x39, 0xbe,
  0x2b, 0x96, 0x23, 0xbe, 0xea, 0x34, 0x24, 0x3e, 0x81, 0x30, 0x1c, 0xbe,
  0xf0, 0x8a, 0x2f, 0xbd, 0x13, 0xfa, 0x58, 0xbe, 0x9d, 0xe7, 0x1d, 0x3c,
  0xab, 0xd2, 0x65, 0x3e, 0xa2, 0xf5, 0x40, 0x3e, 0xad, 0x55, 0x63, 0x3e,
  0x19, 0x82, 0x48, 0x3e, 0x80, 0x59, 0x83, 0x3d, 0x59, 0xb6, 0x40, 0xbe,
  0x94, 0x02, 0x96, 0x3b, 0x41, 0x42, 0x16, 0xbe, 0xdc, 0x83, 0x2b, 0xbe,
  0x1c, 0x77, 0x53, 0x3e, 0x84, 0x73, 0xcb, 0x3d, 0x90, 0x20, 0x3f, 0xbd,
  0x84, 0x63, 0xf3, 0x3d, 0xfa, 0xed, 0x1f, 0x3d, 0x96, 0x2a, 0x52, 0x3d,
  0x06, 0xff, 0x81, 0x3d, 0x5c, 0x80, 0x6c, 0x3c, 0xc1, 0xfc, 0x0e, 0xbe,
  0x62, 0x3e, 0xed, 0x3d, 0x62, 0xb5, 0x0b, 0xbd, 0x27, 0x23, 0x7a, 0x3b,
  0x49, 0x32, 0x0b, 0x3e, 0x11, 0xb7, 0x92, 0x3d, 0xb3, 0xbc, 0x4e, 0x3e,
  0x29, 0xfd, 0x73, 0xbe, 0xb5, 0xdf, 0xae, 0xbd, 0xff, 0x34, 0xa7, 0xbc,
  0x97, 0x79, 0x13, 0x3e, 0x52, 0x39, 0xb3, 0x3d, 0x5b, 0xea, 0xa0, 0xbc,
  0xc0, 0x4d, 0xae, 0xbc, 0x26, 0xe2, 0x3c, 0x3e, 0xa3, 0x51, 0x3f, 0x3d,
  0xbe, 0x4c, 0x3e, 0x3e, 0xea, 0x25, 0x38, 0xbe, 0x5b, 0xf8, 0x40, 0x3e,
  0x08, 0x05, 0x53, 0xbe, 0x5d, 0xd0, 0xdd, 0xbd, 0xdd, 0x1f, 0x4a, 0xbd,
  0x96, 0x1d, 0x29, 0xbb, 0xd4, 0xb6, 0x46, 0x3e, 0x8a, 0xe5, 0x3a, 0xbd,
  0xfa, 0x77, 0x1c, 0x3e, 0xf9, 0xc2, 0xc5, 0xbd, 0x8c, 0x66, 0x68, 0x3e,
  0x6f, 0x73, 0x2c, 0xbc, 0xac, 0x02, 0xf1, 0xbd, 0xe1, 0xd8, 0xda, 0xbd,
  0x5d, 0x1b, 0x8e, 0x3d, 0x4d, 0x47, 0xd3, 0x3d, 0xc8, 0x06, 0xfb, 0x3d,
  0x10, 0xbe, 0x48, 0x3d, 0x5d, 0x2a, 0xe3, 0x3d, 0xfc, 0x2b, 0x8d, 0x3d,
  0x48, 0xc9, 0xff, 0xbd, 0xaf, 0x00, 0x20, 0x3e, 0xfd, 0xf3, 0xed, 0x3c,
  0x3b, 0x78, 0x5f, 0xbd, 0x7b, 0xfb, 0x52, 0xbe, 0xa4, 0x94, 0xf9, 0xbd,
  0x71, 0xa1, 0x36, 0x3c, 0xd1, 0x5f, 0x4c, 0x3e, 0x51, 0x9f, 0x6f, 0x3e,
  0xe6, 0x90, 0xac, 0x3c, 0x74, 0x63, 0x60, 0xbd, 0xf4, 0xc6, 0x34, 0x3d,
  0xe2, 0x3b, 0x46, 0xbe, 0x32, 0xe4, 0x5b, 0xbe, 0x80, 0xea, 0xdb, 0xbc,
  0x65, 0x40, 0xcf, 0xbc, 0xfc, 0x45, 0xb2, 0xbd, 0x43, 0x33, 0x5a, 0xbe,
  0xe7, 0x73, 0x4f, 0x3e, 0xda, 0x7b, 0x0f, 0x3e, 0x39, 0xc3, 0x5d, 0xbe,
  0x45, 0x12, 0x3a, 0xbe, 0xc9, 0x8c, 0x32, 0x3e, 0xa2, 0x7a, 0x1e, 0xbc,
  0x64, 0xb7, 0xa4, 0x3d, 0x30, 0x19, 0x26, 0xbe, 0xfa, 0x37, 0x0f, 0x3e,
  0x09, 0x32, 0xfd, 0xbc, 0xc6, 0xfe, 0x46, 0xbe, 0x35, 0xb0, 0x53, 0xbd,
  0x72, 0xab, 0xff, 0xbc, 0x60, 0xb0, 0xec, 0x3c, 0xe5, 0xff, 0x6c, 0x3e,
  0x92, 0x2f, 0xaf, 0xbd, 0xb1, 0x58, 0x4b, 0xbe, 0xb9, 0x0a, 0xa4, 0xbd,
  0xa5, 0x17, 0xbf, 0x3d, 0x65, 0x97, 0x10, 0x3e, 0x48, 0x3e, 0x39, 0xbd,
  0x28, 0xc0, 0x01, 0xbe, 0xa5, 0xc6, 0x66, 0x3d, 0xac, 0x9b, 0xf6, 0x3d,
  0xe6, 0x6a, 0xe0, 0x3d, 0xa1, 0x06, 0x0f, 0x3e, 0x72, 0xb2, 0x6a, 0xbe,
  0xfe, 0xe6, 0xa4, 0x3d, 0x06, 0x60, 0xb9, 0x3c, 0x3a, 0x4e, 0xe8, 0x39,
  0xc4, 0x40, 0x60, 0x3e, 0x82, 0x64, 0x51, 0xbe, 0x4c, 0x13, 0x61, 0xbd,
  0xdd, 0x7d, 0xe5, 0xbd, 0x23, 0xa7, 0x98, 0xbd, 0xd6, 0xcb, 0x63, 0x3e,
  0x44, 0x1c, 0xe0, 0x3d, 0x64, 0xba, 0x5e, 0x3e, 0xd7, 0x72, 0x1d, 0xbe,
  0x3a, 0x61, 0x16, 0xbe, 0x4b, 0x24, 0xb5, 0x3d, 0x74, 0x6b, 0x00, 0x3b,
  0x48, 0x5e, 0x46, 0x3e, 0xc8, 0x09, 0x09, 0x3d, 0x58, 0x94, 0x33, 0xbe,
  0xa9, 0xcd, 0x09, 0xbd, 0x1c, 0x8e, 0x5f, 0xbd, 0xb1, 0xea, 0x11, 0x3e,
  0x25, 0xff, 0x9e, 0x3d, 0x4a, 0xe4, 0xfd, 0xbd, 0x33, 0x21, 0x56, 0x3b,
  0x2b, 0x51, 0x72, 0xbd, 0xf0, 0x81, 0x19, 0xbe, 0x69, 0x3b, 0x52, 0xbe,
  0xf3, 0xcb, 0x71, 0xbc, 0x11, 0x0a, 0x81, 0xbd, 0x9e, 0xe6, 0x01, 0xbe,
  0xc2, 0xda, 0x39, 0x3e, 0x8f, 0x6b, 0x2d, 0xbe, 0xf2, 0x0f, 0xcd, 0x3d,
  0x26, 0xa0, 0xf2, 0x3b, 0x7a, 0xea, 0x01, 0xbd, 0xac, 0xcf, 0x1f, 0xbe,
  0x28, 0x35, 0x27, 0x3e, 0xda, 0x1d, 0x3d, 0xbc, 0xdd, 0xfa, 0x54, 0x3e,
  0x5a, 0xe8, 0x45, 0x3d, 0x31, 0x31, 0xff, 0xbd, 0x1c, 0x36, 0xe0, 0x3d,
  0x3e, 0x1a, 0x23, 0x3e, 0x5e, 0xc8, 0x50, 0xbe, 0xf0, 0x38, 0x65, 0xbc,
  0xb0, 0x3b, 0xae, 0x3d, 0xa0, 0x6a, 0xd7, 0x3a, 0x85, 0x3a, 0x3a, 0xbe,
  0x80, 0x8c, 0x4c, 0x3e, 0x40, 0x9b, 0x84, 0x3d, 0xf2, 0x81, 0x88, 0x3d,
  0x90, 0x6d, 0xdb, 0xbd, 0x06, 0x2e, 0x48, 0xbe, 0x00, 0x86, 0xd0, 0xba,
  0xda, 0x66, 0xdf, 0xbd, 0x4f, 0x65, 0x8c, 0x3d, 0x22, 0x1e, 0x35, 0x3d,
  0xef, 0x8a, 0x35, 0xbe, 0x22, 0xab, 0xb7, 0xbd, 0x44, 0xf0, 0x9e, 0x3c,
  0xf2, 0x53, 0x5b, 0xbe, 0xa0, 0x8a, 0x0b, 0x3e, 0x2b, 0xbe, 0xbc, 0xbc,
  0x82, 0x83, 0x1d, 0x3e, 0xd0, 0xeb, 0x24, 0x3e, 0xcd, 0x3b, 0xd1, 0x3d,
  0xe7, 0xc0, 0x3e, 0xbd, 0x0d, 0x73, 0xbd, 0xbd, 0x1f, 0x74, 0xc3, 0xbd,
  0x3b, 0xbc, 0x7f, 0xbd, 0x2f, 0x3b, 0x20, 0x3e, 0x9a, 0x85, 0x6f, 0x3d,
  0xbe, 0x47, 0x17, 0xbe, 0x76, 0x8f, 0xaf, 0x3c, 0x59, 0x4c, 0xe7, 0xbc,
  0xa6, 0xea, 0x34, 0x3d, 0xa9, 0x1c, 0x4b, 0x3e, 0x67, 0xc2, 0x62, 0xbe,
  0x2c, 0x23, 0x02, 0xbe, 0x34, 0xe7, 0xde, 0x3d, 0x3c, 0xea, 0x5b, 0xbd,
  0x4b, 0xa8, 0x77, 0xbd, 0x44, 0xb6, 0x1e, 0xbe, 0x63, 0x21, 0x43, 0xbd,
  0x7d, 0xb9, 0xff, 0x3c, 0xc6, 0xfe, 0x22, 0x3e, 0x4f, 0x21, 0x70, 0xbe,
  0x55, 0xf3, 0x28, 0xbe, 0x40, 0xbe, 0x7f, 0x3d, 0xbb, 0xc3, 0xad, 0xbc,
  0x1f, 0x60, 0x89, 0xbd, 0xe8, 0x61, 0x31, 0x3c, 0x34, 0xdd, 0xfd, 0xbd,
  0x38, 0xcb, 0x38, 0xbe, 0xcc, 0x61, 0xa9, 0x3d, 0x16, 0x99, 0xcb, 0xbd,
  0xf5, 0xf0, 0x33, 0x3e, 0x7e, 0x35, 0xe0, 0x3d, 0x90, 0x2d, 0x29, 0x3e,
  0x59, 0x13, 0x2b, 0xbe, 0xcd, 0x17, 0x05, 0xbe, 0xc0, 0x3b, 0x0c, 0x3d,
  0xa2, 0xe2, 0x00, 0xbb, 0x1b, 0xfc, 0x29, 0x3e, 0xb0, 0x15, 0x0e, 0x3e,
  0xf2, 0x76, 0x7d, 0x3d, 0xac, 0x9c, 0xc1, 0xbc, 0x1b, 0x27, 0xff, 0xbd,
  0x68, 0x34, 0x1e, 0x3e, 0x82, 0xa9, 0x6f, 0xbe, 0x58, 0x8e, 0xa8, 0x3d,
  0xb2, 0xd0, 0x26, 0xbe, 0x57, 0xe0, 0x31, 0xbd, 0x5d, 0x8e, 0x3d, 0x3d,
  0xd8, 0x44, 0x41, 0xbe, 0xac, 0x84, 0x1a, 0x3e, 0x60, 0xd3, 0x3b, 0xbe,
  0xb9, 0xae, 0xca, 0xbd, 0xc4, 0xba, 0x8c, 0xbd, 0x6e, 0x2b, 0x08, 0x3e,
  0xc4, 0x03, 0x05, 0xbe, 0xa3, 0x08, 0x6e, 0x3c, 0x68, 0xf9, 0x03, 0x3e,
  0xb6, 0x03, 0x27, 0xbe, 0x0b, 0x9d, 0x61, 0x3e, 0xf6, 0x8e, 0xde, 0xbd,
  0x9a, 0xfa, 0x85, 0xbd, 0xf1, 0xe9, 0x13, 0x3e, 0x1f, 0xb7, 0x8c, 0x3d,
  0x57, 0x8f, 0xae, 0xbc, 0xa6, 0xe8, 0x1d, 0x3e, 0xf6, 0x76, 0x42, 0xbe,
  0xe6, 0x31, 0x2e, 0xbd, 0xda, 0x3c, 0x59, 0xbe, 0xf0, 0xee, 0xae, 0xbd,
  0xd0, 0x43, 0xf8, 0xbd, 0x40, 0x31, 0xa5, 0xbd, 0x59, 0xd9, 0x50, 0x3d,
  0x90, 0xdf, 0x76, 0x3d, 0x90, 0xcf, 0x7d, 0x3d, 0x1c, 0xaf, 0x14, 0x3e,
  0x88, 0x7b, 0xe5, 0xbd, 0x7e, 0x5f, 0x2d, 0x3e, 0x28, 0xd7, 0xaf, 0xbc,
  0xd3, 0xdc, 0x79, 0xbd, 0xcf, 0xfc, 0x42, 0x3e, 0x07, 0xf9, 0x2c, 0x3d,
  0x1b, 0x88, 0x2b, 0xbe, 0x83, 0xea, 0xc7, 0xbc, 0x34, 0x8b, 0x28, 0x3e,
  0x60, 0x0c, 0x25, 0x3d, 0x85, 0x41, 0xde, 0xbd, 0x64, 0x03, 0xad, 0xbd,
  0x26, 0x84, 0xfd, 0x3c, 0x40, 0xdc, 0x9b, 0x3d, 0x10, 0xaa, 0x31, 0xbe,
  0xa3, 0x68, 0x4e, 0xbe, 0x11, 0x9f, 0x11, 0xbe, 0x09, 0xdc, 0x77, 0x3b,
  0xdb, 0x26, 0x88, 0xbd, 0x88, 0xff, 0x2b, 0xbe, 0xa6, 0xf0, 0x34, 0x3e,
  0x39, 0x33, 0x91, 0xbd, 0x95, 0x2c, 0x73, 0x3e, 0x0c, 0xa9, 0x21, 0xbe,
  0x2b, 0x3d, 0xb9, 0x3d, 0xc2, 0x7a, 0xdd, 0xbb, 0xf2, 0x33, 0xee, 0xbd,
  0x59, 0xf3, 0xf3, 0x3d, 0x0d, 0xc7, 0x7a, 0xbd, 0xb4, 0xb3, 0x8b, 0xbd,
  0x9b, 0xf2, 0x8e, 0x3b, 0x90, 0xdb, 0xf8, 0x3c, 0x0e, 0x97, 0x62, 0xbe,
  0xa5, 0x91, 0x80, 0x3d, 0x81, 0xc4, 0x02, 0xbe, 0x86, 0x66, 0xb3, 0x3c,
  0xdc, 0x5e, 0x07, 0x3d, 0xb4, 0x00, 0x44, 0xbe, 0xdf, 0x92, 0x06, 0xbd,
  0x7c, 0x0f, 0xd7, 0x3d, 0x58, 0x76, 0x07, 0xbe, 0xd5, 0x66, 0x1f, 0xbd,
  0xa1, 0x69, 0x23, 0x3e, 0x2e, 0xaf, 0xdd, 0xbb, 0x6e, 0xc6, 0xf2, 0xbc,
  0x61, 0x9c, 0x0b, 0x3e, 0x89, 0x3f, 0xcb, 0x3d, 0x70, 0xf1, 0x6b, 0xbe,
  0xa5, 0x8c, 0x46, 0x3e, 0xcd, 0xf7, 0xac, 0xbd, 0x9c, 0xd5, 0x38, 0xbd,
  0xf4, 0x67, 0x03, 0x3e, 0x89, 0xf4, 0x42, 0x3e, 0x23, 0x4f, 0x55, 0x3e,
  0x5b, 0x93, 0x0b, 0x3e, 0x2c, 0xbc, 0x73, 0xbe, 0xc0, 0x3d, 0x2a, 0xbe,
  0x95, 0x8c, 0x44, 0x3e, 0x00, 0x23, 0x8c, 0x3a, 0xe6, 0xcf, 0x4e, 0x3e,
  0x3b, 0xeb, 0xe3, 0xbd, 0x2c, 0x22, 0x3f, 0xbe, 0x69, 0x94, 0xfd, 0xbd,
  0x84, 0x38, 0xc2, 0x3d, 0x0a, 0xef, 0x20, 0x3e, 0xb5, 0x1a, 0x5e, 0xbe,
  0x32, 0xbe, 0x6f, 0x3d, 0x33, 0x83, 0x33, 0x3e, 0x05, 0xeb, 0x35, 0xbe,
  0x14, 0xc9, 0x41, 0xbe, 0x20, 0x7b, 0x32, 0xbd, 0x94, 0x76, 0x18, 0xbe,
  0xa7, 0xa6, 0xd3, 0xbd, 0x80, 0x3e, 0x19, 0xbe, 0xd6, 0xf8, 0x5d, 0x3e,
  0xfe, 0x19, 0xea, 0x39, 0x7d, 0x9e, 0xdd, 0xbd, 0x08, 0x4f, 0xbc, 0xbd,
  0x8c, 0x55, 0x61, 0x3e, 0xd8, 0xe9, 0xb4, 0x3b, 0x49, 0xe6, 0xe2, 0xbd,
  0x72, 0x25, 0x3f, 0x3e, 0x1a, 0xca, 0x5a, 0x3e, 0x1e, 0x62, 0x13, 0x3d,
  0x99, 0x54, 0xaa, 0xbd, 0x07, 0x9f, 0xde, 0x3d, 0x1c, 0x51, 0xc3, 0x3b,
  0x74, 0x8b, 0xd0, 0xbd, 0x95, 0x63, 0x3a, 0x3e, 0x4b, 0x42, 0xbd, 0xbd,
  0x6f, 0x7c, 0xe8, 0xbc, 0xd4, 0x22, 0x1d, 0x3e, 0x20, 0xfe, 0x88, 0xbd,
  0x73, 0x48, 0x02, 0xbd, 0x41, 0x5c, 0x56, 0x3e, 0xf6, 0x14, 0xd3, 0x3c,
  0xcc, 0x4f, 0xbb, 0x3b, 0x2c, 0x50, 0x3c, 0x3e, 0x8b, 0x4f, 0xde, 0x3d,
  0x84, 0x1e, 0x03, 0xbd, 0x67, 0xbf, 0xee, 0xbd, 0x77, 0xaf, 0x23, 0x3e,
  0xee, 0x81, 0x90, 0x3c, 0xe5, 0xbc, 0xd1, 0xbd, 0x4e, 0xe1, 0xd1, 0xbd,
  0x0d, 0xdb, 0xcb, 0x3d, 0xe4, 0xf8, 0xf0, 0xbd, 0xe4, 0x5b, 0xae, 0x3d,
  0xdf, 0x56, 0x65, 0x3e, 0xfb, 0x8f, 0x1b, 0x3e, 0x50, 0xac, 0xf2, 0x3d,
  0x5c, 0x1c, 0xe0, 0x3d, 0xb3, 0x18, 0x80, 0x3d, 0x60, 0xd9, 0x64, 0x3e,
  0x76, 0xa4, 0x18, 0x3b, 0x2f, 0x2b, 0xba, 0xbc, 0x60, 0xe2, 0xec, 0xbd,
  0x72, 0x0d, 0x10, 0xbe, 0x9e, 0xbb, 0xf6, 0x3d, 0x87, 0xc9, 0xec, 0x3c,
  0xeb, 0x68, 0x16, 0x3e, 0x8b, 0x74, 0x54, 0x3e, 0xf7, 0x81, 0x96, 0xbd,
  0x9a, 0xc4, 0xbc, 0x3d, 0x78, 0xea, 0x5a, 0xbe, 0x7c, 0x8a, 0x55, 0xbd,
  0x75, 0x83, 0x84, 0xbc, 0x58, 0xca, 0x4e, 0xbd, 0x88, 0xf7, 0x06, 0xbe,
  0xcc, 0xc6, 0x6c, 0xbe, 0x2d, 0x87, 0xdc, 0x3c, 0x49, 0x57, 0x06, 0x3e,
  0x21, 0xd9, 0x3f, 0x3e, 0x6b, 0xa0, 0xdf, 0x3d, 0x3b, 0x85, 0x51, 0xbe,
  0xa9, 0x16, 0x4c, 0xbe, 0x03, 0xf8, 0x20, 0x3e, 0xb5, 0xf6, 0xfe, 0xbc,
  0x6f, 0x8d, 0x34, 0xbc, 0x22, 0xbf, 0x38, 0x3e, 0xc2, 0xb7, 0xf8, 0xbd,
  0x0e, 0x29, 0x27, 0xbe, 0x29, 0x08, 0x28, 0x3e, 0xf5, 0x58, 0x9e, 0x3c,
  0xbf, 0xa8, 0x5f, 0xbe, 0x81, 0x5c, 0x17, 0xbe, 0x0b, 0x99, 0xcb, 0x3d,
  0xec, 0xbf, 0x05, 0xbe, 0xf8, 0xba, 0x5f, 0xbe, 0xe4, 0x5a, 0x3d, 0xbe,
  0x9f, 0xe1, 0x32, 0x3e, 0x4b, 0x5c, 0xf5, 0x3d, 0x45, 0xfb, 0x95, 0x3d,
  0x70, 0xa2, 0x5a, 0x3e, 0xae, 0xf0, 0x16, 0xbe, 0x59, 0x5e, 0xda, 0xbd,
  0x64, 0x31, 0x08, 0xbe, 0x22, 0x24, 0x53, 0x3e, 0x1f, 0x42, 0xf7, 0xbd,
  0xf0, 0xbb, 0xed, 0xbd, 0x6f, 0x54, 0x26, 0xbe, 0xab, 0xe5, 0x1d, 0xbe,
  0xc0, 0x10, 0xb1, 0x3c, 0xbb, 0x30, 0xb1, 0xbb, 0x42, 0xc3, 0x63, 0x3e,
  0x54, 0x30, 0xe8, 0x3d, 0x7c, 0x85, 0x18, 0x3d, 0xe4, 0xaf, 0x34, 0x3d,
  0x3e, 0xc4, 0x4d, 0x3d, 0x91, 0x7d, 0x35, 0x3e, 0xa9, 0x13, 0x0a, 0xbe,
  0x6e, 0x41, 0x2c, 0x3e, 0x3c, 0x1f, 0x77, 0xbd, 0x91, 0x70, 0x16, 0x3e,
  0xca, 0xc3, 0x46, 0xbe, 0x94, 0xff, 0x5c, 0x3e, 0x66, 0xcb, 0x58, 0x3e,
  0xa6, 0x81, 0x31, 0xbe, 0x70, 0x18, 0x3b, 0xbe, 0x51, 0x95, 0x4a, 0xbe,
  0x04, 0x97, 0x16, 0x3e, 0x94, 0x03, 0x54, 0x3e, 0x11, 0xba, 0x5d, 0x3e,
  0x1f, 0xd3, 0x36, 0xbd, 0x70, 0xe1, 0xff, 0x3d, 0xea, 0xbc, 0xa0, 0xbd,
  0x71, 0xf0, 0x0f, 0xbc, 0xdc, 0x63, 0x27, 0x3e, 0x3f, 0xc8, 0xe2, 0x3c,
  0x1e, 0x90, 0xdb, 0xbd, 0xbd, 0xba, 0x12, 0x3e, 0xf1, 0x87, 0x2c, 0x3e,
  0xde, 0x29, 0x0d, 0xbe, 0x6b, 0x33, 0xe2, 0xbd, 0xdd, 0x88, 0x20, 0x3e,
  0x09, 0xb8, 0x2a, 0x3e, 0xcf, 0xc8, 0x16, 0x3e, 0x09, 0x3f, 0x17, 0xbd,
  0x02, 0x6e, 0x03, 0x3e, 0xb6, 0xcb, 0x37, 0xbd, 0x7c, 0xa9, 0x31, 0x3e,
  0xa7, 0x27, 0xcc, 0xbc, 0x77, 0x8e, 0x6d, 0xbe, 0xbf, 0xa3, 0x32, 0xbd,
  0xce, 0x30, 0xb8, 0xba, 0xce, 0xc5, 0x30, 0x3e, 0x36, 0x77, 0x45, 0x3e,
  0x85, 0xf6, 0x44, 0xbd, 0xcc, 0x13, 0x2a, 0xbc, 0xcc, 0x6d, 0x30, 0xbe,
  0x99, 0x35, 0x1f, 0xbe, 0xd0, 0x85, 0x01, 0x3d, 0x58, 0x71, 0x01, 0xbd,
  0x38, 0x9c, 0x18, 0xbe, 0x5c, 0x55, 0x79, 0xba, 0xaf, 0x85, 0x53, 0x3e,
  0x6a, 0xa1, 0xb6, 0x3d, 0x3a, 0x46, 0xcf, 0xbd, 0x04, 0x4c, 0x05, 0xbe,
  0x4a, 0x17, 0xfa, 0xbd, 0x58, 0xc5, 0x9a, 0x3d, 0x99, 0xdd, 0x1e, 0xbe,
  0x32, 0x84, 0x63, 0xbe, 0x3a, 0x63, 0xf2, 0xbc, 0x67, 0x68, 0x83, 0x3b,
  0xf4, 0x9e, 0xe3, 0xbd, 0xa5, 0xc3, 0x58, 0xbe, 0x75, 0x81, 0x03, 0x3e,
  0x74, 0xda, 0x1f, 0xbe, 0xbf, 0x03, 0x12, 0xbe, 0x0b, 0x00, 0x1d, 0x3d,
  0xe7, 0x02, 0x5a, 0xbe, 0x20, 0x81, 0x5c, 0xbe, 0x12, 0x50, 0xbf, 0xbd,
  0x4f, 0x51, 0x4a, 0x3d, 0x8c, 0x14, 0x20, 0x3d, 0x14, 0xc3, 0x40, 0x3d,
  0xc8, 0x2b, 0xa2, 0x3d, 0xf3, 0x7a, 0x75, 0x3e, 0x19, 0x47, 0x15, 0x3e,
  0x9a, 0x49, 0xc3, 0xbc, 0x1e, 0x93, 0x41, 0xbe, 0x19, 0xbc, 0x48, 0xbd,
  0x86, 0x6d, 0xaa, 0x3d, 0xa9, 0xf1, 0x15, 0xbe, 0x6e, 0x90, 0x63, 0x3e,
  0xa1, 0x77, 0x86, 0x3d, 0xcf, 0x62, 0x5d, 0xbe, 0xd8, 0x1d, 0x32, 0x3e,
  0x51, 0xeb, 0x0e, 0x3e, 0x64, 0x7b, 0x03, 0xbe, 0xb9, 0x7d, 0x9f, 0xbd,
  0x3e, 0x1c, 0xf1, 0xbb, 0x17, 0x2f, 0xe0, 0x3d, 0xc8, 0xaa, 0x91, 0x3d,
  0xe5, 0x9b, 0x1f, 0xbe, 0xba, 0x15, 0xe7, 0x3d, 0xa0, 0x86, 0x30, 0xbe,
  0x98, 0x03, 0x7d, 0xbd, 0xdf, 0x86, 0x40, 0xbe, 0x40, 0x07, 0xf5, 0x3b,
  0x40, 0x47, 0x5d, 0xbe, 0x07, 0xaa, 0x88, 0xbc, 0xb5, 0x10, 0x54, 0xbd,
  0x36, 0xaf, 0x84, 0xbd, 0x57, 0xe1, 0x76, 0x3d, 0x15, 0x3e, 0xbc, 0xbc,
  0x9c, 0x2c, 0xe2, 0xbc, 0x1e, 0xbe, 0xcf, 0xbc, 0xd1, 0x38, 0x4d, 0xbe,
  0xa9, 0x99, 0x0b, 0x3e, 0xee, 0x34, 0x4a, 0x3e, 0xfe, 0x51, 0xaf, 0x3d,
  0x57, 0xcf, 0xb6, 0x3d, 0x57, 0x8e, 0xd8, 0xbd, 0xe0, 0xc2, 0xcd, 0xbd,
  0xa5, 0xff, 0xa8, 0x3d, 0x1f, 0x84, 0xe3, 0xbc, 0x7e, 0x26, 0x23, 0x3d,
  0xa2, 0x8c, 0x45, 0x3e, 0xd4, 0xab, 0x15, 0x3e, 0xca, 0x0b, 0x5d, 0x3c,
  0x38, 0xff, 0xcb, 0xbb, 0xc4, 0xd2, 0x8c, 0x3d, 0x36, 0x67, 0x61, 0x3e,
  0x98, 0xb4, 0xc2, 0xbd, 0x57, 0x3a, 0xd7, 0xbd, 0xbd, 0xca, 0x37, 0xbe,
  0x3c, 0x3f, 0x33, 0xbe, 0x04, 0x92, 0x16, 0xbb, 0xfd, 0xd9, 0x6d, 0x3e,
  0x6e, 0x16, 0x58, 0x3e, 0xd5, 0x01, 0x34, 0xbe, 0x9b, 0x84, 0xc1, 0x3d,
  0x47, 0x08, 0xd4, 0xbd, 0xf4, 0x29, 0xfe, 0xbd, 0x10, 0x72, 0x9a, 0x3d,
  0xc8, 0xcb, 0x9a, 0xbc, 0xaf, 0x62, 0x18, 0x3d, 0xa7, 0xea, 0x5a, 0x3e,
  0xb2, 0xfc, 0xa2, 0x3d, 0x34, 0xca, 0xd4, 0xbd, 0x0f, 0x7d, 0x30, 0xbe,
  0xc4, 0xdc, 0xf9, 0x3d, 0x75, 0x28, 0x58, 0x3e, 0x89, 0x4f, 0x22, 0xbe,
  0xc6, 0xf7, 0xd1, 0xbd, 0x94, 0x04, 0x0e, 0x3e, 0xcf, 0x34, 0x58, 0x3d,
  0x58, 0x7d, 0x4b, 0x3d, 0x45, 0xfe, 0x56, 0x3e, 0x7b, 0xf6, 0x9e, 0x3d,
  0x6b, 0x94, 0x21, 0xbe, 0x63, 0x95, 0x02, 0xbe, 0xd6, 0x2f, 0x1b, 0x3e,
  0xed, 0x7d, 0x2a, 0x3d, 0xc0, 0x28, 0x1e, 0xbe, 0x33, 0x29, 0x24, 0x3e,
  0x92, 0xd9, 0x4f, 0xbd, 0x89, 0x2f, 0x4e, 0x3e, 0x61, 0x6d, 0x99, 0xbd,
  0x1a, 0xa8, 0x1b, 0x3e, 0xa9, 0x63, 0xdb, 0x3d, 0xb3, 0x6f, 0x52, 0xbd,
  0x7d, 0xd0, 0xb1, 0xbd, 0x66, 0x3f, 0x2a, 0xbd, 0x5b, 0x52, 0x4d, 0x3e,
  0x8a, 0x85, 0xc6, 0xbd, 0xc3, 0x6c, 0x2a, 0x3e, 0x06, 0xba, 0x11, 0x3c,
  0x45, 0xb2, 0x94, 0xbd, 0x08, 0xb6, 0xed, 0xbd, 0x79, 0xbb, 0x98, 0xbd,
  0x36, 0x30, 0xed, 0xbd, 0x44, 0x60, 0xdb, 0x3b, 0x96, 0xdc, 0x3f, 0xbc,
  0xf3, 0x7e, 0x59, 0x3e, 0x65, 0x59, 0x89, 0xbd, 0x02, 0xf9, 0x0b, 0x3e,
  0x4e, 0x85, 0x69, 0x3e, 0x23, 0x95, 0x69, 0x3e, 0x3d, 0x47, 0xa2, 0xbd,
  0x38, 0xa8, 0xfe, 0xbd, 0x97, 0xcb, 0xed, 0x3d, 0xe3, 0x53, 0xd8, 0xbd,
  0xc0, 0x2e, 0x1c, 0x3d, 0x08, 0x44, 0x84, 0xbd, 0x5b, 0x91, 0x3a, 0xbe,
  0x01, 0xae, 0xc2, 0xbd, 0xcd, 0x7a, 0xa5, 0xbc, 0xd0, 0x8f, 0x01, 0x3e,
  0x2d, 0x03, 0x06, 0xbe, 0x82, 0xdf, 0x42, 0x3e, 0x31, 0x00, 0x33, 0x3e,
  0x6b, 0xe8, 0x1c, 0xbe, 0xe7, 0x37, 0x15, 0x3e, 0x55, 0x59, 0x6d, 0x3e,
  0x85, 0xde, 0x5e, 0x3e, 0xc6, 0x0d, 0x44, 0x3e, 0x16, 0xae, 0x07, 0xbe,
  0x15, 0x4f, 0x74, 0xbe, 0xb4, 0xfb, 0x61, 0xbe, 0x2d, 0xd4, 0x44, 0xbd,
  0xfe, 0x25, 0x05, 0xbd, 0x6d, 0xd3, 0x36, 0x3e, 0x3c, 0xb4, 0xf0, 0x3d,
  0x60, 0xb4, 0x27, 0xbe, 0x14, 0xd3, 0xcd, 0x3c, 0xf5, 0x46, 0xf0, 0x3d,
  0x78, 0xe4, 0x69, 0x3c, 0xb7, 0xba, 0xb0, 0xbc, 0x0d, 0x81, 0x52, 0xbd,
  0xaa, 0x6f, 0xbb, 0x3d, 0x92, 0x46, 0xd8, 0xbd, 0xbe, 0xb8, 0x87, 0xbd,
  0xcc, 0x8e, 0xc4, 0x3d, 0xe5, 0x1a, 0x2d, 0x3e, 0xd9, 0xda, 0x32, 0xbe,
  0xcb, 0x92, 0xa2, 0x3c, 0xb6, 0xf2, 0x5a, 0x3d, 0x44, 0xe4, 0x27, 0x3e,
  0x58, 0x9f, 0x02, 0x3d, 0xb9, 0x71, 0x43, 0xbd, 0x4f, 0xdc, 0xee, 0x3d,
  0xb1, 0x51, 0x3d, 0x3d, 0x3e, 0x3e, 0xb4, 0x3d, 0xbe, 0x93, 0x35, 0xbd,
  0x0f, 0xed, 0x6a, 0xbe, 0x23, 0x2a, 0x5c, 0x3e, 0x7c, 0x93, 0x2e, 0x3e,
  0xd2, 0xc6, 0xa2, 0x3d, 0x02, 0xc6, 0x1a, 0x3e, 0xd1, 0xa5, 0x39, 0xbe,
  0x91, 0x21, 0x64, 0x3d, 0xe2, 0xcf, 0x5a, 0x3e, 0x3f, 0x54, 0x58, 0xbe,
  0x81, 0xa4, 0xd4, 0xbc, 0x28, 0x0a, 0xe7, 0xbd, 0xc8, 0xd6, 0xd9, 0x3c,
  0x08, 0xe1, 0x48, 0x3e, 0x0f, 0x4a, 0x39, 0x3d, 0x15, 0x6b, 0x39, 0xbe,
  0xed, 0x0d, 0x95, 0x3d, 0x60, 0x53, 0x0c, 0xbe, 0x2e, 0x1e, 0xce, 0xbd,
  0x10, 0xb3, 0x78, 0x3d, 0x4b, 0xd0, 0x59, 0xbe, 0x40, 0xac, 0x92, 0x3d,
  0x35, 0x02, 0xe3, 0x3d, 0xa5, 0x48, 0xd1, 0x3c, 0x1f, 0xf4, 0xec, 0x3d,
  0x55, 0xf5, 0x19, 0x3e, 0x22, 0x60, 0x3b, 0xbe, 0xf6, 0xa3, 0xf7, 0xbd,
  0xfc, 0xd7, 0x95, 0xbc, 0xe0, 0x7a, 0x57, 0xbe, 0xa6, 0x17, 0x0e, 0xbe,
  0x46, 0xf8, 0x57, 0x3e, 0xde, 0xe5, 0x25, 0x3e, 0x85, 0x70, 0x2c, 0xbe,
  0x81, 0x47, 0x11, 0x3e, 0xda, 0xc2, 0xea, 0xbd, 0x35, 0x1f, 0x64, 0x3e,
  0x50, 0x6f, 0x37, 0xbd, 0x10, 0x38, 0x4f, 0x3d, 0xce, 0xe1, 0x18, 0xbc,
  0x0f, 0x7f, 0x00, 0x3e, 0x5c, 0x71, 0xd9, 0xbd, 0xd3, 0x0e, 0x8c, 0xbd,
  0x13, 0x42, 0x4d, 0x3b, 0x19, 0xdc, 0xea, 0x3d, 0x43, 0x26, 0xc8, 0x3d,
  0xeb, 0xa9, 0xb2, 0x3d, 0xb8, 0x1c, 0x1c, 0x3d, 0xa5, 0x49, 0xca, 0x3d,
  0xbe, 0x1b, 0x1b, 0x3d, 0xee, 0xf1, 0x82, 0x3d, 0x43, 0x0a, 0x19, 0x3e,
  0xb8, 0x3f, 0xfb, 0x3d, 0xe5, 0xa1, 0x60, 0xbe, 0x2a, 0x1f, 0x51, 0xbd,
  0x61, 0x94, 0x71, 0xbe, 0xa0, 0x74, 0x64, 0xbe, 0x68, 0x7e, 0x57, 0x3d,
  0x1c, 0x79, 0x34, 0xbe, 0x5b, 0x63, 0xae, 0x3d, 0xc4, 0x3e, 0x38, 0x3e,
  0xd4, 0xe5, 0x29, 0x3e, 0x5a, 0x04, 0x91, 0xbd, 0x23, 0x31, 0x83, 0xbd,
  0x0e, 0x7f, 0x3b, 0x3e, 0x6b, 0x86, 0xe9, 0xbd, 0x48, 0xd2, 0xd6, 0xbc,
  0x6d, 0xf0, 0x36, 0x3e, 0x50, 0xe9, 0x1c, 0xbe, 0x6f, 0x26, 0x03, 0xbe,
  0xe0, 0xc8, 0x20, 0x3d, 0x36, 0x34, 0x70, 0x3d, 0x3e, 0xa3, 0x43, 0xbd,
  0x3c, 0x91, 0x67, 0xbd, 0xe2, 0x83, 0x4a, 0xbe, 0xee, 0x97, 0xb4, 0x3d,
  0x79, 0xe4, 0x29, 0xbc, 0xe8, 0x5b, 0x56, 0x3e, 0x17, 0x8f, 0xd2, 0x3c,
  0xf0, 0xf6, 0x11, 0x3c, 0xd3, 0xb2, 0x26, 0x3e, 0x46, 0x55, 0x65, 0xbe,
  0x72, 0x94, 0xdb, 0x3d, 0x84, 0x78, 0x5d, 0x3e, 0x71, 0x57, 0x39, 0xbe,
  0x87, 0xce, 0x33, 0x3e, 0xe8, 0x5e, 0xb0, 0xbc, 0x57, 0x27, 0xd7, 0x3d,
  0x70, 0x2f, 0x64, 0x3d, 0xcf, 0x6d, 0x1b, 0xbe, 0xcd, 0x44, 0x3c, 0x3c,
  0x91, 0x40, 0x96, 0xbd, 0x49, 0xa1, 0x50, 0xbe, 0x40, 0xf6, 0x3e, 0x3e,
  0x43, 0xe7, 0xe9, 0x3d, 0xe5, 0x23, 0x84, 0x3d, 0xb0, 0x6d, 0x45, 0x3e,
  0x1c, 0x09, 0x40, 0x3e, 0x9b, 0x7a, 0xfe, 0x3d, 0x05, 0x04, 0x0c, 0x3e,
  0xd5, 0x50, 0xa3, 0xbd, 0xb9, 0xc4, 0x83, 0xbd, 0x87, 0x00, 0xe6, 0xbd,
  0x47, 0x9a, 0x37, 0x3d, 0x07, 0xce, 0x2f, 0xbe, 0x39, 0x06, 0xfa, 0xbd,
  0x44, 0x16, 0x6e, 0xbd, 0x90, 0xbd, 0x41, 0xbe, 0xaf, 0x20, 0x23, 0xbe,
  0x0a, 0xa8, 0xb1, 0xbd, 0x18, 0x21, 0x31, 0xbe, 0x8b, 0x8f, 0x48, 0xbe,
  0xd9, 0xb5, 0x6b, 0xbe, 0x18, 0x4d, 0xa9, 0x3d, 0xd8, 0xd6, 0x02, 0xbe,
  0x00, 0x00, 0x11, 0x39, 0xe7, 0x8f, 0x69, 0xbe, 0x58, 0xa8, 0x5b, 0xbe,
  0xc0, 0x1a, 0x63, 0xbd, 0x25, 0xf4, 0x39, 0xbe, 0xa8, 0x9c, 0xe3, 0x3d,
  0x3d, 0xca, 0x4e, 0xbd, 0x81, 0xab, 0xa2, 0x3c, 0x2c, 0x06, 0x08, 0xbe,
  0xe9, 0xc9, 0x0b, 0xbe, 0x7d, 0x53, 0x4a, 0x3e, 0x20, 0xbc, 0x0d, 0x3e,
  0x18, 0xdf, 0xd1, 0xbc, 0xce, 0x20, 0x11, 0xbe, 0x78, 0x3d, 0x65, 0xbe,
  0xc2, 0x5f, 0x1f, 0xbd, 0x2a, 0x05, 0x40, 0xbe, 0xe4, 0x85, 0x46, 0x3d,
  0x42, 0x1d, 0xa9, 0xbd, 0x20, 0x28, 0x86, 0x3c, 0x39, 0x75, 0x16, 0xbc,
  0x59, 0xed, 0xaf, 0x3d, 0x70, 0xee, 0x52, 0xbe, 0x4e, 0x43, 0xdb, 0xbd,
  0x60, 0xd9, 0x34, 0x3e, 0xdb, 0x12, 0xe6, 0x3d, 0x28, 0x6a, 0x1a, 0x3d,
  0x31, 0x55, 0x62, 0xbe, 0xe8, 0xf0, 0x48, 0x3d, 0x5c, 0xf8, 0xcf, 0xbc,
  0x7f, 0xc8, 0x09, 0xbe, 0x9d, 0xff, 0xcf, 0xbd, 0x95, 0x55, 0x2c, 0xbe,
  0x9a, 0xea, 0x53, 0x3e, 0x5c, 0x3f, 0xe4, 0xbd, 0xf2, 0x33, 0xde, 0xbd,
  0xcc, 0xfc, 0x13, 0xbe, 0xa5, 0x03, 0xc2, 0x3d, 0xfa, 0xd0, 0x63, 0xbe,
  0x27, 0x40, 0xd6, 0xbd, 0x92, 0x6e, 0x3c, 0x3e, 0xdf, 0x10, 0x5c, 0xbe,
  0x56, 0x1a, 0xf9, 0x3d, 0x1e, 0x5b, 0x6a, 0x3d, 0x11, 0xfe, 0x2e, 0xbe,
  0x92, 0xfb, 0x1c, 0xbd, 0x08, 0xc2, 0xbe, 0xbc, 0x28, 0x15, 0x8e, 0xbc,
  0x80, 0xd9, 0x28, 0x3e, 0x6d, 0x62, 0x6d, 0x3e, 0x3c, 0x48, 0x4d, 0xbe,
  0x92, 0x72, 0x50, 0xbe, 0xda, 0xba, 0x07, 0xbe, 0x20, 0x5f, 0xec, 0x3d,
  0xd0, 0x9c, 0x2c, 0x3c, 0xfd, 0x18, 0x60, 0x3e, 0x87, 0xdb, 0x1c, 0x3e,
  0x3a, 0xd0, 0x4b, 0xbe, 0x85, 0xcd, 0x14, 0xbd, 0x82, 0xd8, 0x49, 0xbc,
  0x7a, 0x28, 0x23, 0xbe, 0x30, 0xda, 0x48, 0x3e, 0xf4, 0xc7, 0x56, 0xbd,
  0xb1, 0xb8, 0xe6, 0x3d, 0x02, 0xd8, 0x3c, 0xbe, 0x16, 0x4a, 0x25, 0xbe,
  0x3a, 0xf1, 0x63, 0xbd, 0xea, 0xee, 0xee, 0xbc, 0x49, 0x60, 0x9e, 0xbd,
  0xe2, 0x29, 0x73, 0x3e, 0x36, 0x22, 0xef, 0xbc, 0x31, 0x81, 0x58, 0x3d,
  0xc4, 0xf3, 0x5f, 0x3e, 0xa7, 0xea, 0x1a, 0xbe, 0xa0, 0x8d, 0x6d, 0x3e,
  0x94, 0x71, 0x73, 0x3d, 0xf1, 0xc0, 0x21, 0xbc, 0x63, 0x15, 0x64, 0x3e,
  0x1d, 0x12, 0x03, 0x3e, 0x8e, 0x88, 0xf3, 0xbd, 0x74, 0x5c, 0x47, 0xbe,
  0xcd, 0x3c, 0x5a, 0xbe, 0x17, 0x0a, 0xe2, 0x3c, 0x3f, 0xfb, 0x8a, 0x3c,
  0x0c, 0xea, 0x0c, 0xbd, 0x5c, 0xe1, 0x2c, 0xbe, 0x26, 0xaa, 0x50, 0x3e,
  0x1f, 0x32, 0x1c, 0xbe, 0x31, 0xd5, 0x06, 0x3e, 0x67, 0x35, 0x3f, 0xbe,
  0xad, 0x94, 0x45, 0x3e, 0x62, 0xf5, 0x10, 0x3c, 0x43, 0xeb, 0x27, 0x3d,
  0xe6, 0x97, 0x27, 0xbd, 0xa1, 0x27, 0x32, 0x3e, 0xc1, 0x83, 0x23, 0x3e,
  0x0c, 0xb0, 0xa8, 0xbd, 0x24, 0xd3, 0xd5, 0xbc, 0x2c, 0x9e, 0x3a, 0x3e,
  0xd9, 0xe1, 0xae, 0xbd, 0xc7, 0x2f, 0x01, 0xbd, 0xcd, 0x7e, 0x20, 0x3e,
  0x30, 0x53, 0x7c, 0xbd, 0x5d, 0xcd, 0x1d, 0xbe, 0xcf, 0xe7, 0x00, 0xbe,
  0x52, 0x31, 0x9a, 0x3b, 0x2c, 0xa3, 0xa1, 0x3d, 0x44, 0xa8, 0x82, 0x3d,
  0x22, 0x51, 0x60, 0x3e, 0xed, 0xf7, 0xf4, 0x3d, 0x90, 0xa4, 0x57, 0x3e,
  0x1c, 0x9d, 0x3a, 0xbe, 0xff, 0xa5, 0x10, 0x3e, 0xe6, 0x09, 0x91, 0xbd,
  0xd5, 0x3e, 0xb1, 0x3d, 0xa1, 0xd5, 0x16, 0xbe, 0xcd, 0x80, 0xf1, 0xbd,
  0xf2, 0xce, 0x01, 0x3e, 0xee, 0x96, 0x9b, 0x3d, 0xcd, 0x50, 0x0e, 0x3d,
  0x35, 0xd6, 0x35, 0xbe, 0x37, 0x62, 0x0e, 0xbe, 0x80, 0x33, 0x55, 0x3e,
  0x2f, 0xc6, 0x8a, 0xbc, 0x06, 0x11, 0xf5, 0xbc, 0xdb, 0x30, 0x38, 0x3c,
  0xd7, 0x3d, 0x46, 0xbe, 0x0b, 0x8d, 0x1b, 0xbe, 0x85, 0x4e, 0xd1, 0x3d,
  0xf6, 0xac, 0x8e, 0x3d, 0xee, 0x97, 0xf6, 0x3d, 0x6d, 0xbf, 0x1c, 0xbd,
  0xb1, 0xb6, 0x28, 0xbe, 0x7b, 0x5a, 0x97, 0xbd, 0xb3, 0xf3, 0x0e, 0x3c,
  0xd9, 0x4e, 0x38, 0x3e, 0xff, 0xe1, 0xdb, 0x3d, 0x9b, 0x2a, 0x14, 0x3d,
  0x03, 0xf6, 0x46, 0xbe, 0x69, 0x3e, 0x6e, 0x3e, 0xc9, 0x69, 0x07, 0x3e,
  0x38, 0x4f, 0x07, 0xbe, 0xbc, 0xd7, 0x0d, 0xbe, 0xa3, 0x5a, 0x3b, 0xbe,
  0xd7, 0x43, 0x59, 0xbe, 0xf0, 0x6c, 0x23, 0xbe, 0xae, 0xdb, 0x66, 0x3e,
  0xd8, 0xf3, 0x2d, 0x3d, 0xdf, 0xd7, 0x00, 0x3e, 0x2f, 0x44, 0x5c, 0xbd,
  0x98, 0xbe, 0x45, 0x3e, 0x51, 0xea, 0x00, 0xbe, 0x02, 0x02, 0x94, 0xbd,
  0x74, 0x70, 0x00, 0x3e, 0x7a, 0xe8, 0x4e, 0x3d, 0x8d, 0x02, 0x11, 0x3e,
  0x81, 0xa2, 0x17, 0x3d, 0x1a, 0x6c, 0x1f, 0xbe, 0xc4, 0xb3, 0xe3, 0x3b,
  0xb1, 0xb2, 0x57, 0x3e, 0x68, 0xda, 0xbd, 0xbd, 0xdb, 0x43, 0x29, 0x3e,
  0x62, 0x87, 0x45, 0xbe, 0x12, 0x14, 0x46, 0x3e, 0x10, 0x19, 0x87, 0xbb,
  0x8d, 0x37, 0x74, 0x3e, 0x57, 0x48, 0x24, 0x3e, 0xb0, 0x9f, 0x09, 0x3d,
  0xb6, 0xad, 0x2b, 0xbd, 0xc0, 0x24, 0x6e, 0x3e, 0xea, 0x67, 0xd0, 0xbc,
  0x8f, 0xe5, 0xf3, 0xbd, 0x7f, 0x03, 0x30, 0x3d, 0x8a, 0xa6, 0x06, 0x3e,
  0xd0, 0xb5, 0x3c, 0xbe, 0x38, 0x38, 0x25, 0xbe, 0xd6, 0xaa, 0x44, 0x3d,
  0x98, 0x4f, 0x4b, 0xbc, 0x40, 0xa3, 0x47, 0xbe, 0x58, 0x73, 0x05, 0x3e,
  0x04, 0x6b, 0x8f, 0x3d, 0x88, 0xf6, 0x6d, 0xbd, 0xc0, 0x5c, 0x98, 0x3c,
  0x7e, 0x7b, 0xaa, 0xbc, 0x0e, 0x65, 0xb8, 0x3d, 0x61, 0x12, 0x2b, 0xbe,
  0x36, 0xb8, 0x57, 0xbe, 0x44, 0xf3, 0xc2, 0x3d, 0x22, 0x82, 0xa0, 0xbd,
  0xf1, 0x1a, 0x15, 0x3e, 0x78, 0xe6, 0x4d, 0xbe, 0xdc, 0xbd, 0x65, 0xbd,
  0x68, 0x3c, 0x52, 0x3e, 0x6c, 0x0b, 0x39, 0x3d, 0x42, 0xcc, 0x0b, 0xbe,
  0x60, 0xfa, 0x07, 0x3d, 0x8d, 0xa6, 0xcd, 0x3d, 0x9c, 0x51, 0x96, 0x3d,
  0x26, 0xb0, 0x3d, 0x3e, 0x37, 0xa9, 0x4d, 0x3e, 0xb2, 0x69, 0x85, 0xbd,
  0xf8, 0xec, 0x2b, 0xbe, 0xe4, 0x16, 0xe7, 0xbc, 0x2e, 0x7f, 0xdc, 0x3d,
  0xef, 0x16, 0x4b, 0x3e, 0x51, 0x9f, 0x39, 0x3d, 0x44, 0x26, 0x5c, 0x3e,
  0x74, 0x82, 0x24, 0x3e, 0x43, 0x0e, 0x8b, 0x3d, 0x33, 0x49, 0x5b, 0x3e,
  0xaa, 0x67, 0x53, 0xbe, 0xea, 0x69, 0x00, 0xbd, 0x94, 0x2f, 0x67, 0xbd,
  0x1a, 0x2f, 0xa3, 0xbc, 0x2f, 0xa3, 0x0b, 0xbe, 0x1c, 0x22, 0x38, 0x3e,
  0x5a, 0xee, 0x30, 0xbe, 0x46, 0xc3, 0x5a, 0x3d, 0xbf, 0x8c, 0x5f, 0x3e,
  0x3a, 0x3c, 0xc4, 0xbd, 0x57, 0x54, 0xb8, 0xbd, 0x1c, 0x69, 0x4f, 0x3e,
  0x35, 0x78, 0x95, 0xbd, 0xa9, 0xf4, 0x07, 0x3e, 0xc8, 0x10, 0x1e, 0xbe,
  0x7a, 0xa2, 0x1a, 0x3e, 0x4b, 0xf1, 0x6b, 0xbd, 0x5a, 0xfc, 0x5d, 0xbe,
  0xf2, 0x5a, 0x68, 0x3b, 0x08, 0xa0, 0x2a, 0xbe, 0x6f, 0x10, 0x17, 0x3e,
  0x64, 0x15, 0x37, 0x3e, 0x10, 0x46, 0x54, 0x3c, 0xd2, 0x12, 0x60, 0xbe,
  0xd7, 0x96, 0x41, 0xbe, 0x07, 0x1b, 0xbb, 0xbd, 0xae, 0x10, 0x47, 0x3e,
  0xe0, 0x03, 0xc3, 0x3d, 0x52, 0xfa, 0xc9, 0x3d, 0x3b, 0x2c, 0x49, 0xbe,
  0xb3, 0x4e, 0x03, 0xbd, 0xb8, 0x53, 0x10, 0xbe, 0x40, 0xd2, 0x53, 0xbe,
  0xdc, 0xd2, 0x8e, 0x3d, 0x3c, 0x3e, 0x69, 0xbe, 0xd6, 0x0d, 0xb5, 0x3d,
  0x88, 0x6b, 0xc6, 0xbd, 0x30, 0xbb, 0xcb, 0x3d, 0x30, 0xbe, 0x06, 0xbe,
  0x02, 0x12, 0x9b, 0xbd, 0x30, 0xb0, 0x6b, 0x3d, 0xd3, 0x87, 0x78, 0x3d,
  0xab, 0xc9, 0xe9, 0xbb, 0xba, 0x77, 0x44, 0xbe, 0x81, 0x93, 0x8c, 0x3c,
  0xd4, 0x6e, 0x93, 0xbd, 0x84, 0x6b, 0x6e, 0x3e, 0x15, 0xca, 0x1a, 0x3e,
  0xcd, 0xd2, 0x60, 0xbe, 0x37, 0x63, 0x0f, 0xbd, 0xbd, 0xea, 0x25, 0x3e,
  0x83, 0x7f, 0x09, 0xbe, 0x8a, 0xbc, 0x61, 0x3e, 0x27, 0x48, 0xb2, 0x3d,
  0xd8, 0x7d, 0x94, 0xbc, 0x2d, 0xd7, 0x35, 0xbe, 0xe1, 0x88, 0x39, 0x3e,
  0x5a, 0x7e, 0xd2, 0x3d, 0xd3, 0xa7, 0x8b, 0xbd, 0x33, 0x06, 0x34, 0xbe,
  0xee, 0x91, 0xcf, 0xbd, 0xa8, 0xe0, 0x02, 0xbe, 0x2a, 0xbb, 0x8e, 0xbd,
  0xe0, 0x43, 0x2d, 0x3e, 0x66, 0xff, 0x49, 0x3e, 0x86, 0xa3, 0x5e, 0xbe,
  0x7c, 0x0c, 0xcb, 0xbd, 0x68, 0xc7, 0x29, 0xbd, 0xa6, 0xf2, 0x8d, 0x3d,
  0x2f, 0x6b, 0x30, 0xbd, 0x2c, 0xea, 0x8e, 0xbd, 0x00, 0x5f, 0x98, 0xbc,
  0x39, 0xfc, 0x62, 0x3e, 0xf1, 0xd5, 0x36, 0xbe, 0xb7, 0xbe, 0xcf, 0x3d,
  0x4a, 0xcd, 0x24, 0x3e, 0xab, 0x2b, 0x0e, 0xbe, 0xb0, 0xd5, 0xc7, 0xbd,
  0xb3, 0x82, 0xe2, 0xbd, 0xea, 0xea, 0x62, 0x3d, 0x43, 0x6b, 0x06, 0xbe,
  0xea, 0x2e, 0x71, 0x3e, 0x08, 0x9e, 0x80, 0xbd, 0xb5, 0x64, 0x47, 0x3e,
  0x71, 0xc8, 0x65, 0x3e, 0xcd, 0x0a, 0xb3, 0x3d, 0x77, 0x19, 0x01, 0x3e,
  0xe0, 0xc6, 0xe3, 0xbc, 0xdc, 0x2b, 0x0f, 0x3e, 0xbe, 0x34, 0x08, 0x3e,
  0x3d, 0x16, 0xdb, 0x3c, 0xc7, 0x7b, 0x39, 0x3d, 0xed, 0x7c, 0x29, 0xbe,
  0x65, 0xd9, 0x07, 0xbe, 0xbc, 0xfa, 0xe0, 0xbd, 0x5a, 0xc9, 0x4f, 0xbe,
  0x92, 0x85, 0x9a, 0x3b, 0x6b, 0x88, 0x51, 0xbe, 0xee, 0x25, 0xdc, 0x3c,
  0x87, 0x1c, 0xaf, 0x3d, 0x13, 0xe9, 0x40, 0x3e, 0xe3, 0x40, 0x7f, 0x3d,
  0x24, 0xd7, 0xe2, 0x3d, 0x0c, 0xc0, 0x4c, 0x3d, 0xef, 0xe9, 0xf3, 0xbd,
  0x32, 0x49, 0x5b, 0x3e, 0xa7, 0x59, 0x1f, 0xbe, 0x73, 0x75, 0xb7, 0xbd,
  0x37, 0xfc, 0xfe, 0x3d, 0x6b, 0x54, 0x75, 0xbe, 0x16, 0x0a, 0x04, 0x3e,
  0xdb, 0x84, 0xca, 0xbd, 0x61, 0xd6, 0x17, 0xbe, 0xcc, 0x5c, 0x34, 0xbe,
  0x88, 0x7c, 0xae, 0xbd, 0xde, 0x95, 0xf1, 0xbc, 0x8d, 0x36, 0xf3, 0x3d,
  0x97, 0x20, 0x61, 0x3e, 0xd1, 0x2e, 0xdd, 0xbd, 0xd4, 0x0e, 0x99, 0x3d,
  0x77, 0x95, 0x0c, 0x3e, 0xbb, 0xba, 0x1e, 0x3e, 0xd5, 0xc3, 0xa2, 0x3d,
  0xfe, 0xef, 0x80, 0xbc, 0xbc, 0x0f, 0xfe, 0x3d, 0xa2, 0x3b, 0x35, 0xbe,
  0x39, 0x90, 0x48, 0xbe, 0x44, 0x05, 0xfa, 0x3c, 0xd9, 0xd5, 0xd3, 0xbd,
  0xa2, 0x20, 0xb4, 0xbc, 0x19, 0xcc, 0x1b, 0x3e, 0xae, 0x6e, 0x03, 0x3e,
  0xe7, 0xe0, 0x55, 0x3c, 0xd4, 0xb3, 0x4e, 0x3d, 0xf1, 0x59, 0xd0, 0x3b,
  0x65, 0xe1, 0x0e, 0x3e, 0xbe, 0x0d, 0xa5, 0xbd, 0xfa, 0x40, 0x4c, 0x3e,
  0x10, 0xe1, 0x1f, 0xbe, 0x9f, 0xd4, 0x34, 0xbe, 0x78, 0x38, 0x42, 0xbe,
  0x98, 0x68, 0x15, 0xbe, 0x82, 0x3c, 0x57, 0xbe, 0xf6, 0xd6, 0x46, 0x3e,
  0x4e, 0x9e, 0xa1, 0x3d, 0xed, 0xbc, 0x3a, 0x3e, 0x16, 0x92, 0x15, 0xbe,
  0x88, 0xe2, 0x4d, 0x3e, 0xe9, 0xd2, 0x78, 0x3d, 0xd6, 0xa6, 0x1e, 0xbd,
  0x6e, 0x60, 0x15, 0xbe, 0xe2, 0x33, 0x12, 0xbd, 0x48, 0xf1, 0x3e, 0xbe,
  0xc3, 0x10, 0xf6, 0xbd, 0x81, 0x03, 0x28, 0x3e, 0x39, 0x17, 0x0a, 0xbc,
  0x72, 0x54, 0xbb, 0xbd, 0x73, 0x7b, 0x0c, 0x3e, 0x83, 0xc8, 0xd0, 0xbd,
  0xad, 0xe5, 0x69, 0xbe, 0x6a, 0x86, 0x5b, 0xbe, 0xda, 0xd6, 0x3d, 0x3e,
  0x47, 0x8d, 0xc4, 0xbd, 0x6e, 0x70, 0x9b, 0xbd, 0x46, 0x01, 0x80, 0x3d,
  0x07, 0x66, 0x0d, 0xbd, 0x0c, 0x5b, 0x2b, 0xbe, 0xa8, 0xa0, 0x15, 0x3e,
  0xa9, 0x7e, 0x26, 0x3e, 0x90, 0x35, 0x87, 0x37, 0x12, 0xd1, 0x00, 0x3d,
  0xf1, 0x3e, 0x85, 0x3d, 0x39, 0x96, 0x6f, 0xbe, 0x30, 0xfa, 0xd6, 0xbd,
  0x63, 0xb5, 0x11, 0x3d, 0x9d, 0x5b, 0x13, 0x3e, 0x4e, 0xb4, 0x07, 0xbe,
  0x7a, 0x97, 0xbd, 0x3d, 0x47, 0x90, 0x6b, 0x3d, 0xa8, 0xb4, 0x23, 0xbb,
  0x82, 0xae, 0xc2, 0xbd, 0x6e, 0x50, 0x51, 0xbe, 0xca, 0xad, 0xb8, 0xbd,
  0x9c, 0x2a, 0x85, 0x3d, 0x71, 0x9b, 0xcc, 0x3d, 0x7f, 0x86, 0x5e, 0x3e,
  0x30, 0x7f, 0xd1, 0x3d, 0x07, 0xb0, 0xc4, 0xbb, 0x12, 0x88, 0xb9, 0x3d,
  0x13, 0xea, 0xe1, 0xbd, 0x66, 0xac, 0x50, 0xbd, 0xeb, 0x78, 0x0e, 0x3e,
  0x68, 0xfe, 0x69, 0xbe, 0x56, 0x9e, 0x03, 0x3e, 0x02, 0xfe, 0x1b, 0x3e,
  0x5b, 0x23, 0xa6, 0xbc, 0x40, 0x67, 0x60, 0x3e, 0x85, 0x0b, 0x84, 0x3c,
  0xb9, 0x40, 0xe4, 0xbd, 0x36, 0x2f, 0x29, 0x3e, 0x96, 0x9e, 0xce, 0x3d,
  0x82, 0x1c, 0x95, 0xbd, 0x93, 0x8b, 0x0a, 0xbd, 0x96, 0xa2, 0x10, 0xbe,
  0x7b, 0x3e, 0x37, 0x3e, 0x33, 0xac, 0x65, 0xbd, 0xba, 0x2e, 0x14, 0xbe,
  0x92, 0x6a, 0x37, 0xbd, 0x58, 0x6d, 0x48, 0x3e, 0xe4, 0xb9, 0xbe, 0xbd,
  0x15, 0xfb, 0x17, 0xbd, 0xfa, 0x13, 0x71, 0xbe, 0x1e, 0x6b, 0x2d, 0xbe,
  0x62, 0x8d, 0x4c, 0x3d, 0x65, 0x23, 0xd5, 0xbd, 0x82, 0xe0, 0xfd, 0x3b,
  0x6e, 0x35, 0x57, 0x3d, 0xc4, 0x50, 0x2e, 0x3e, 0x04, 0x62, 0xf0, 0xbd,
  0x6e, 0xec, 0x8e, 0x3d, 0x9e, 0x20, 0x12, 0xbe, 0x52, 0x2b, 0xa7, 0x3d,
  0xb2, 0x30, 0xcb, 0xbd, 0x40, 0x88, 0x4c, 0xbe, 0x62, 0xcc, 0x24, 0x3d,
  0x46, 0x13, 0x67, 0x3d, 0xe9, 0x4a, 0x22, 0xbe, 0x75, 0xb2, 0x17, 0x3e,
  0xe6, 0x7e, 0x9c, 0x3d, 0x22, 0xfe, 0xff, 0xff, 0x04, 0x00, 0x00, 0x00,
  0x08, 0x00, 0x00, 0x00, 0xff, 0xff, 0xff, 0xff, 0x31, 0x00, 0x00, 0x00,
  0x36, 0xfe, 0xff, 0xff, 0x04, 0x00, 0x00, 0x00, 0x00, 0x01, 0x00, 0x00,
  0x86, 0x6e, 0x21, 0xbc, 0x31, 0x1c, 0x0e, 0xbc, 0x05, 0xdb, 0x21, 0xbc,
  0xc4, 0x31, 0x26, 0x3c, 0x99, 0x5a, 0x21, 0xbc, 0xf0, 0xce, 0x25, 0x3c,
  0x1d, 0x2a, 0x25, 0x3c, 0x16, 0xc6, 0x17, 0xbc, 0xa5, 0xc4, 0x98, 0xbb,
  0xcc, 0x13, 0x1f, 0xbc, 0xac, 0xc6, 0x22, 0x3c, 0x1f, 0x17, 0x26, 0x3c,
  0x2b, 0x5f, 0x16, 0xbc, 0xeb, 0x28, 0x20, 0xbc, 0x04, 0xee, 0x31, 0xbb,
  0x62, 0x65, 0x20, 0x3c, 0x2d, 0xb4, 0x23, 0x3c, 0x8b, 0xe2, 0x1b, 0xbc,
  0x57, 0x07, 0x25, 0x3c, 0xd6, 0xc6, 0x1c, 0xbc, 0xe3, 0x8a, 0x23, 0x3c,
  0x76, 0xbc, 0x20, 0xbc, 0x00, 0xc8, 0x20, 0xbc, 0xc4, 0xf9, 0x1e, 0xbc,
  0xbe, 0xfa, 0x25, 0x3c, 0x5e, 0x2d, 0x23, 0xbc, 0x87, 0x0c, 0x23, 0x3c,
  0x2c, 0x53, 0x26, 0x3c, 0xb0, 0xb4, 0x1b, 0xbc, 0x8f, 0x45, 0x1d, 0x3c,
  0xb6, 0xd8, 0x24, 0x3c, 0x1c, 0x21, 0x1b, 0xbc, 0x92, 0x6e, 0x23, 0xbc,
  0x1d, 0xb0, 0x1b, 0xbc, 0x21, 0xa5, 0x21, 0xbc, 0x5b, 0x5a, 0x1e, 0xbc,
  0x29, 0xb4, 0xd2, 0xbb, 0x3c, 0xd4, 0x25, 0x3c, 0x43, 0xef, 0x1d, 0x3c,
  0xe8, 0xdc, 0x22, 0x3c, 0x4b, 0x9d, 0x1e, 0xbc, 0x72, 0xfc, 0x1f, 0xbc,
  0x3c, 0x3e, 0x23, 0xbc, 0xf6, 0x68, 0x0e, 0xbc, 0xab, 0x63, 0x26, 0x3c,
  0x25, 0x51, 0x23, 0xbc, 0x40, 0x31, 0x26, 0x3c, 0x75, 0x58, 0x26, 0x3c,
  0x20, 0x9a, 0x1a, 0xbc, 0xa3, 0xaf, 0x25, 0x3c, 0xe7, 0x4b, 0x0c, 0x3c,
  0x91, 0x6c, 0x20, 0xbc, 0x1c, 0xd6, 0x1f, 0xbc, 0x40, 0x34, 0x1e, 0xbc,
  0x34, 0x62, 0x12, 0xbc, 0xd4, 0xda, 0x16, 0xbc, 0xe2, 0xfc, 0x08, 0xbc,
  0xa2, 0x0a, 0x92, 0x3b, 0xc6, 0x51, 0x09, 0xbc, 0x8c, 0xc3, 0x24, 0x3c,
  0x78, 0xed, 0x22, 0x3c, 0x8b, 0xa3, 0x17, 0xbc, 0xb1, 0x49, 0x1f, 0xbc,
  0xa3, 0x44, 0x26, 0x3c, 0x42, 0xff, 0xff, 0xff, 0x04, 0x00, 0x00, 0x00,
  0x28, 0x00, 0x00, 0x00, 0x3e, 0x6d, 0x21, 0xbc, 0x6a, 0x65, 0x23, 0x3c,
  0xa4, 0xcb, 0x21, 0xbc, 0xb5, 0x0f, 0x23, 0xbc, 0x4d, 0xc6, 0x20, 0x3c,
  0xa1, 0x95, 0x1e, 0xbc, 0xcd, 0x79, 0x20, 0xbc, 0xcc, 0x4f, 0x02, 0xbc,
  0x4a, 0xb7, 0xe1, 0x3b, 0x0a, 0x0a, 0x22, 0x3c, 0xd0, 0xf9, 0xff, 0xff,
  0xd4, 0xf9, 0xff, 0xff, 0x0f, 0x00, 0x00, 0x00, 0x4d, 0x4c, 0x49, 0x52,
  0x20, 0x43, 0x6f, 0x6e, 0x76, 0x65, 0x72, 0x74, 0x65, 0x64, 0x2e, 0x00,
  0x01, 0x00, 0x00, 0x00, 0x14, 0x00, 0x00, 0x00, 0x00, 0x00, 0x0e, 0x00,
  0x18, 0x00, 0x14, 0x00, 0x10, 0x00, 0x0c, 0x00, 0x08, 0x00, 0x04, 0x00,
  0x0e, 0x00, 0x00, 0x00, 0x14, 0x00, 0x00, 0x00, 0x1c, 0x00, 0x00, 0x00,
  0x78, 0x01, 0x00, 0x00, 0x7c, 0x01, 0x00, 0x00, 0x80, 0x01, 0x00, 0x00,
  0x04, 0x00, 0x00, 0x00, 0x6d, 0x61, 0x69, 0x6e, 0x00, 0x00, 0x00, 0x00,
  0x05, 0x00, 0x00, 0x00, 0x10, 0x01, 0x00, 0x00, 0xd8, 0x00, 0x00, 0x00,
  0x88, 0x00, 0x00, 0x00, 0x40, 0x00, 0x00, 0x00, 0x04, 0x00, 0x00, 0x00,
  0x92, 0xff, 0xff, 0xff, 0x1c, 0x00, 0x00, 0x00, 0x00, 0x00, 0x00, 0x09,
  0x1c, 0x00, 0x00, 0x00, 0x20, 0x00, 0x00, 0x00, 0x03, 0x00, 0x00, 0x00,
  0x00, 0x00, 0x06, 0x00, 0x08, 0x00, 0x04, 0x00, 0x06, 0x00, 0x00, 0x00,
  0x00, 0x00, 0x80, 0x3f, 0x01, 0x00, 0x00, 0x00, 0x0a, 0x00, 0x00, 0x00,
  0x01, 0x00, 0x00, 0x00, 0x09, 0x00, 0x00, 0x00, 0xca, 0xff, 0xff, 0xff,
  0x14, 0x00, 0x00, 0x00, 0x00, 0x00, 0x00, 0x08, 0x10, 0x00, 0x00, 0x00,
  0x14, 0x00, 0x00, 0x00, 0x02, 0x00, 0x00, 0x00, 0x90, 0xfa, 0xff, 0xff,
  0x01, 0x00, 0x00, 0x00, 0x09, 0x00, 0x00, 0x00, 0x03, 0x00, 0x00, 0x00,
  0x08, 0x00, 0x00, 0x00, 0x05, 0x00, 0x00, 0x00, 0x01, 0x00, 0x00, 0x00,
  0x00, 0x00, 0x0e, 0x00, 0x1a, 0x00, 0x14, 0x00, 0x10, 0x00, 0x0c, 0x00,
  0x0b, 0x00, 0x04, 0x00, 0x0e, 0x00, 0x00, 0x00, 0x1c, 0x00, 0x00, 0x00,
  0x00, 0x00, 0x00, 0x08, 0x1c, 0x00, 0x00, 0x00, 0x20, 0x00, 0x00, 0x00,
  0x02, 0x00, 0x00, 0x00, 0x00, 0x00, 0x06, 0x00, 0x08, 0x00, 0x07, 0x00,
