unsigned char tflite_models_model_2p4_f_d64r_d10s_tflite[] = {
  0x1c, 0x00, 0x00, 0x00, 0x54, 0x46, 0x4c, 0x33, 0x14, 0x00, 0x20, 0x00,
  0x1c, 0x00, 0x18, 0x00, 0x14, 0x00, 0x10, 0x00, 0x0c, 0x00, 0x00, 0x00,
  0x08, 0x00, 0x04, 0x00, 0x14, 0x00, 0x00, 0x00, 0x1c, 0x00, 0x00, 0x00,
  0x84, 0x00, 0x00, 0x00, 0xdc, 0x00, 0x00, 0x00, 0x18, 0x3e, 0x00, 0x00,
  0x28, 0x3e, 0x00, 0x00, 0x74, 0x44, 0x00, 0x00, 0x03, 0x00, 0x00, 0x00,
  0x01, 0x00, 0x00, 0x00, 0x04, 0x00, 0x00, 0x00, 0xda, 0xc0, 0xff, 0xff,
  0x0c, 0x00, 0x00, 0x00, 0x1c, 0x00, 0x00, 0x00, 0x3c, 0x00, 0x00, 0x00,
  0x0f, 0x00, 0x00, 0x00, 0x73, 0x65, 0x72, 0x76, 0x69, 0x6e, 0x67, 0x5f,
  0x64, 0x65, 0x66, 0x61, 0x75, 0x6c, 0x74, 0x00, 0x01, 0x00, 0x00, 0x00,
  0x04, 0x00, 0x00, 0x00, 0x98, 0xff, 0xff, 0xff, 0x0a, 0x00, 0x00, 0x00,
  0x04, 0x00, 0x00, 0x00, 0x0a, 0x00, 0x00, 0x00, 0x4c, 0x34, 0x5f, 0x44,
  0x65, 0x6e, 0x73, 0x65, 0x31, 0x30, 0x00, 0x00, 0x01, 0x00, 0x00, 0x00,
  0x04, 0x00, 0x00, 0x00, 0xce, 0xc1, 0xff, 0xff, 0x04, 0x00, 0x00, 0x00,
  0x07, 0x00, 0x00, 0x00, 0x69, 0x6e, 0x70, 0x75, 0x74, 0x5f, 0x31, 0x00,
  0x02, 0x00, 0x00, 0x00, 0x34, 0x00, 0x00, 0x00, 0x04, 0x00, 0x00, 0x00,
  0xdc, 0xff, 0xff, 0xff, 0x0d, 0x00, 0x00, 0x00, 0x04, 0x00, 0x00, 0x00,
  0x13, 0x00, 0x00, 0x00, 0x43, 0x4f, 0x4e, 0x56, 0x45, 0x52, 0x53, 0x49,
  0x4f, 0x4e, 0x5f, 0x4d, 0x45, 0x54, 0x41, 0x44, 0x41, 0x54, 0x41, 0x00,
  0x08, 0x00, 0x0c, 0x00, 0x08, 0x00, 0x04, 0x00, 0x08, 0x00, 0x00, 0x00,
  0x0c, 0x00, 0x00, 0x00, 0x04, 0x00, 0x00, 0x00, 0x13, 0x00, 0x00, 0x00,
  0x6d, 0x69, 0x6e, 0x5f, 0x72, 0x75, 0x6e, 0x74, 0x69, 0x6d, 0x65, 0x5f,
  0x76, 0x65, 0x72, 0x73, 0x69, 0x6f, 0x6e, 0x00, 0x0e, 0x00, 0x00, 0x00,
  0x38, 0x3d, 0x00, 0x00, 0x30, 0x3d, 0x00, 0x00, 0xf8, 0x3c, 0x00, 0x00,
  0xe8, 0x3b, 0x00, 0x00, 0xd0, 0x3b, 0x00, 0x00, 0xc0, 0x0a, 0x00, 0x00,
  0xb0, 0x00, 0x00, 0x00, 0xa8, 0x00, 0x00, 0x00, 0xa0, 0x00, 0x00, 0x00,
  0x98, 0x00, 0x00, 0x00, 0x90, 0x00, 0x00, 0x00, 0x88, 0x00, 0x00, 0x00,
  0x68, 0x00, 0x00, 0x00, 0x04, 0x00, 0x00, 0x00, 0x7a, 0xc2, 0xff, 0xff,
  0x04, 0x00, 0x00, 0x00, 0x54, 0x00, 0x00, 0x00, 0x0c, 0x00, 0x00, 0x00,
  0x08, 0x00, 0x0e, 0x00, 0x08, 0x00, 0x04, 0x00, 0x08, 0x00, 0x00, 0x00,
  0x10, 0x00, 0x00, 0x00, 0x24, 0x00, 0x00, 0x00, 0x00, 0x00, 0x06, 0x00,
  0x08, 0x00, 0x04, 0x00, 0x06, 0x00, 0x00, 0x00, 0x04, 0x00, 0x00, 0x00,
  0x00, 0x00, 0x00, 0x00, 0x00, 0x00, 0x0a, 0x00, 0x10, 0x00, 0x0c, 0x00,
  0x08, 0x00, 0x04, 0x00, 0x0a, 0x00, 0x00, 0x00, 0x02, 0x00, 0x00, 0x00,
  0x02, 0x00, 0x00, 0x00, 0x04, 0x00, 0x00, 0x00, 0x06, 0x00, 0x00, 0x00,
  0x32, 0x2e, 0x31, 0x33, 0x2e, 0x31, 0x00, 0x00, 0xda, 0xc2, 0xff, 0xff,
  0x04, 0x00, 0x00, 0x00, 0x10, 0x00, 0x00, 0x00, 0x31, 0x2e, 0x35, 0x2e,
  0x30, 0x00, 0x00, 0x00, 0x00, 0x00, 0x00, 0x00, 0x00, 0x00, 0x00, 0x00,
  0x50, 0xbd, 0xff, 0xff, 0x54, 0xbd, 0xff, 0xff, 0x58, 0xbd, 0xff, 0xff,
  0x5c, 0xbd, 0xff, 0xff, 0x60, 0xbd, 0xff, 0xff, 0x0a, 0xc3, 0xff, 0xff,
  0x04, 0x00, 0x00, 0x00, 0x00, 0x0a, 0x00, 0x00, 0x44, 0x65, 0xcc, 0xbb,
  0xe8, 0x78, 0x04, 0xbd, 0xa3, 0x15, 0xe7, 0x3d, 0xe2, 0x8a, 0xbf, 0xbb,
  0x61, 0x31, 0x53, 0x3d, 0x9e, 0x6a, 0x22, 0x3e, 0xe4, 0x0e, 0xdb, 0xbd,
  0xdb, 0xa0, 0x8a, 0xbe, 0xc0, 0xd3, 0xd7, 0xbc, 0xd9, 0x92, 0x43, 0x3e,
  0x77, 0x22, 0x28, 0xbe, 0xd5, 0x9f, 0x20, 0xbe, 0xdf, 0xe8, 0x02, 0x3d,
  0x10, 0x3a, 0x62, 0x3c, 0xc3, 0x03, 0x5b, 0x3e, 0x9b, 0xce, 0x82, 0x3e,
  0xb3, 0x5e, 0x07, 0xbe, 0x6b, 0x00, 0x2e, 0xbe, 0x68, 0xb1, 0x8c, 0xbe,
  0xd8, 0x47, 0x93, 0x3c, 0x0a, 0x95, 0x03, 0xbe, 0xa4, 0xaa, 0x32, 0x3d,
  0x77, 0x60, 0x8a, 0x3e, 0xbe, 0x5e, 0x59, 0xbe, 0xb2, 0x19, 0xea, 0x3d,
  0xc8, 0x21, 0x66, 0xbd, 0x20, 0xd7, 0x40, 0xbe, 0x53, 0x31, 0xe4, 0xbd,
  0x0d, 0xb8, 0x8e, 0xbd, 0x77, 0x10, 0x4f, 0x3e, 0xcd, 0xc3, 0xe6, 0x3d,
  0xf8, 0x22, 0x51, 0x3e, 0x6a, 0x5d, 0x21, 0x3e, 0xaf, 0xc2, 0x9d, 0xbd,
  0xa3, 0x61, 0x3c, 0xbd, 0x10, 0x34, 0x64, 0xbd, 0x5e, 0x92, 0x0e, 0xbd,
  0x78, 0xb5, 0xd6, 0x3d, 0xaf, 0x9c, 0x58, 0x3e, 0xb3, 0x16, 0x80, 0xbc,
  0x73, 0xf9, 0xb0, 0x3c, 0x4d, 0x4a, 0xc7, 0xbd, 0x2c, 0xbc, 0x4d, 0xbd,
  0x57, 0x46, 0xd0, 0xbd, 0xb0, 0xbc, 0x26, 0x3e, 0x31, 0x24, 0x8f, 0xbd,
  0x51, 0xbf, 0x5c, 0x3e, 0xd8, 0x86, 0x81, 0xbe, 0xf3, 0xc0, 0x40, 0xbd,
  0xb5, 0x02, 0x78, 0x3e, 0xe7, 0x21, 0xf3, 0x3d, 0xc7, 0x37, 0xe0, 0x3c,
  0x12, 0x03, 0x88, 0x3e, 0x98, 0x7f, 0x83, 0xbe, 0x7b, 0x02, 0x2c, 0xbc,
  0x53, 0x33, 0xd7, 0xbd, 0x6d, 0x0e, 0x87, 0xbd, 0x60, 0xeb, 0xd5, 0x3d,
  0xdc, 0xb2, 0x44, 0x3d, 0xc1, 0x44, 0x68, 0x3e, 0x95, 0xe5, 0x2a, 0x3e,
  0xd1, 0x6e, 0x12, 0xbd, 0xef, 0x83, 0xc2, 0x3d, 0x1d, 0xff, 0x76, 0x3e,
  0x62, 0xcd, 0x85, 0x3e, 0xa5, 0x9b, 0x57, 0x3e, 0x0b, 0x3f, 0x37, 0x3e,
  0x77, 0xa9, 0xb3, 0xbb, 0x25, 0xc0, 0x28, 0xbe, 0xb4, 0xc9, 0x61, 0x3e,
  0x3e, 0x7e, 0x97, 0x3c, 0x25, 0x48, 0x94, 0xbe, 0xb8, 0xe6, 0x26, 0x3e,
  0x9d, 0x78, 0x3d, 0x3e, 0x08, 0x4d, 0x56, 0xbe, 0x4c, 0x47, 0x86, 0xbc,
  0xac, 0x7f, 0xc4, 0xbc, 0xc2, 0x58, 0x21, 0x3e, 0xe0, 0xa7, 0x03, 0x3e,
  0x27, 0xbc, 0x31, 0x3e, 0x1c, 0xc1, 0x61, 0x3b, 0x40, 0x5d, 0x8a, 0x3e,
  0xdf, 0x49, 0x01, 0x3e, 0x3f, 0x7d, 0x39, 0xbe, 0x05, 0x10, 0x38, 0xbe,
  0x97, 0x6a, 0xc7, 0xbd, 0x05, 0x71, 0x7f, 0xbe, 0x8a, 0x69, 0x6c, 0xbe,
  0x97, 0x4a, 0x7e, 0xbd, 0x09, 0xf4, 0x8c, 0x3d, 0x2a, 0x0a, 0x71, 0xbe,
  0xd7, 0x8c, 0xf7, 0xbc, 0xaf, 0x1c, 0x43, 0x3e, 0x3a, 0x96, 0x16, 0xbe,
  0x12, 0x40, 0x13, 0x3e, 0xf6, 0xae, 0x92, 0xbe, 0x15, 0xde, 0x41, 0xbe,
  0xea, 0x69, 0xf1, 0xbd, 0x48, 0x66, 0x4f, 0x3e, 0x9d, 0x64, 0x89, 0x3e,
  0xcb, 0xba, 0x18, 0xbd, 0xcb, 0x27, 0x1f, 0x3e, 0xf7, 0x83, 0xa8, 0xbb,
  0xf7, 0x74, 0x85, 0x3d, 0x87, 0x0d, 0x37, 0xbe, 0x1d, 0x50, 0xef, 0x3d,
  0xf0, 0x6a, 0x7f, 0x3d, 0xc4, 0x09, 0xaf, 0xbd, 0xa1, 0xdf, 0x93, 0xbe,
  0x09, 0xfd, 0x10, 0x3e, 0xcb, 0xf9, 0x4e, 0x3e, 0xa6, 0x99, 0x52, 0xbe,
  0x6e, 0x61, 0x82, 0xbe, 0x1d, 0xe6, 0xaf, 0x3d, 0x27, 0x83, 0x0c, 0xbe,
  0x46, 0x84, 0x14, 0x3d, 0xc8, 0x7e, 0x89, 0xbe, 0x8c, 0x98, 0xd7, 0x3d,
  0x97, 0xe4, 0x91, 0x3e, 0xae, 0x1b, 0xf9, 0xbd, 0x92, 0x5e, 0x40, 0x3e,
  0x7f, 0x27, 0xe0, 0x3d, 0xd3, 0xdd, 0x93, 0x3d, 0xd1, 0x05, 0xa0, 0xbd,
  0xf1, 0xa0, 0xf2, 0x3d, 0x72, 0xbb, 0x77, 0x3c, 0x65, 0x1d, 0x18, 0x3d,
  0x73, 0x32, 0x80, 0x3e, 0x64, 0x06, 0x47, 0x3e, 0x57, 0xc5, 0xeb, 0xbd,
  0xb9, 0x1d, 0x2d, 0x3d, 0x76, 0xd2, 0x8b, 0x3e, 0x95, 0x5a, 0xbd, 0xbd,
  0xc6, 0xf1, 0x11, 0x3e, 0x38, 0x1f, 0x34, 0xbe, 0x76, 0xd3, 0x26, 0xbc,
  0x2e, 0x5f, 0x9f, 0xbd, 0x10, 0xed, 0x86, 0x3e, 0x68, 0x5c, 0x49, 0x3e,
  0xd3, 0x2b, 0x0d, 0x3d, 0x8c, 0x6b, 0x39, 0x3e, 0xe7, 0xe5, 0x45, 0x3e,
  0xcb, 0x7d, 0xa0, 0x3d, 0x06, 0xe7, 0xa0, 0xbd, 0x69, 0x10, 0x21, 0xbe,
  0x79, 0x3c, 0x43, 0x3e, 0xfd, 0xef, 0x4c, 0x3e, 0x68, 0x4f, 0x4e, 0x3d,
  0x64, 0x07, 0x13, 0x3e, 0xee, 0x7e, 0x10, 0xbd, 0x40, 0x7f, 0x04, 0x3e,
  0xeb, 0xc5, 0xeb, 0x3c, 0x68, 0x6e, 0x0b, 0x3c, 0x87, 0xdb, 0xf4, 0x3d,
  0x6f, 0x33, 0xb0, 0xbd, 0xdf, 0x60, 0x0f, 0x3e, 0x0a, 0xf3, 0x89, 0xbe,
  0xc4, 0x0a, 0xbd, 0xbd, 0xed, 0x15, 0xc0, 0x3d, 0xf0, 0x66, 0xdf, 0xbd,
  0x3a, 0x5a, 0x4a, 0x3e, 0x72, 0xe0, 0x28, 0xbd, 0x19, 0xb0, 0x7f, 0x3e,
  0x79, 0xf8, 0xf3, 0x3d, 0x6d, 0x18, 0x63, 0xbe, 0x4c, 0xe5, 0xae, 0x3d,
  0xb6, 0x61, 0xc9, 0xbd, 0x52, 0x24, 0x98, 0x3d, 0x99, 0x5f, 0x8a, 0x3e,
  0x95, 0xff, 0xf4, 0x3c, 0x36, 0xf4, 0x46, 0x3e, 0x90, 0xe1, 0x1d, 0x3b,
  0xee, 0x8b, 0xf2, 0x3d, 0x4b, 0x5e, 0x75, 0x3e, 0x55, 0x6b, 0xd3, 0xbd,
  0xea, 0x01, 0x8a, 0x3e, 0x6b, 0x92, 0x02, 0xbe, 0x15, 0xf6, 0x5e, 0x3e,
  0xb1, 0x24, 0x5f, 0x3e, 0xa7, 0x70, 0x83, 0x3e, 0x63, 0x27, 0x62, 0x3e,
  0x16, 0xca, 0xae, 0x3d, 0x01, 0xfa, 0x13, 0xbe, 0x4a, 0xf0, 0x8c, 0xbe,
  0x6d, 0x94, 0x0b, 0x3e, 0xee, 0x06, 0x70, 0xbe, 0x9b, 0x0b, 0x7d, 0xbe,
  0xa8, 0x5c, 0x52, 0x3e, 0x06, 0xa4, 0x2c, 0x3e, 0x53, 0xf7, 0x44, 0x3d,
  0x64, 0xc9, 0x2e, 0x3e, 0x48, 0xd9, 0x3b, 0xbd, 0xc7, 0x32, 0x2c, 0xbe,
  0x3f, 0x27, 0x33, 0x3e, 0x6c, 0xf8, 0x18, 0x3e, 0xbb, 0xb1, 0x88, 0xbe,
  0xf9, 0x44, 0x04, 0xbe, 0xa7, 0x2a, 0xba, 0x3d, 0xd0, 0x99, 0x8c, 0x3e,
  0x6a, 0x56, 0x81, 0xbe, 0xae, 0x44, 0x78, 0xbd, 0xfe, 0x08, 0x22, 0xbe,
  0xa3, 0xcb, 0x86, 0x3e, 0xf4, 0xaf, 0x4a, 0x3e, 0x67, 0xae, 0xce, 0x3d,
  0x9f, 0x10, 0x8a, 0xbe, 0x5d, 0x5a, 0x5e, 0xbe, 0xf7, 0x13, 0x23, 0xbe,
  0x9b, 0xa8, 0x00, 0xbe, 0x8f, 0xcb, 0xb2, 0xbd, 0xe0, 0xae, 0x87, 0xbe,
  0x2a, 0x69, 0x84, 0x3e, 0x28, 0xcc, 0x84, 0xbe, 0x91, 0x0a, 0x88, 0xbd,
  0x42, 0xb4, 0x38, 0x3e, 0x04, 0xff, 0x25, 0xbe, 0xeb, 0x09, 0x88, 0xbd,
  0xa5, 0xa7, 0xbf, 0xbd, 0xdb, 0x67, 0x20, 0xbe, 0x66, 0x04, 0x25, 0x3e,
  0x50, 0x98, 0x59, 0xbe, 0xf8, 0x05, 0x28, 0x3e, 0x55, 0x8a, 0xfd, 0x3d,
  0x77, 0xca, 0xa3, 0x3d, 0x0e, 0xe8, 0x45, 0x3e, 0x28, 0xff, 0x3f, 0xbe,
  0x48, 0x35, 0x02, 0x3e, 0x76, 0xa4, 0x2f, 0x3e, 0x13, 0x57, 0x8e, 0xbd,
  0x20, 0xb0, 0x4a, 0xbe, 0x9d, 0xfe, 0x85, 0x3e, 0xc6, 0x05, 0x3c, 0xbe,
  0x47, 0x4b, 0x42, 0x3e, 0xe4, 0x81, 0x61, 0xbe, 0x70, 0x21, 0xc3, 0xbd,
  0x14, 0x89, 0x88, 0xbd, 0x97, 0x23, 0x46, 0xbe, 0xd2, 0x99, 0x48, 0xbd,
  0x70, 0x37, 0x76, 0x3e, 0x64, 0x96, 0xcf, 0xbd, 0x6d, 0x40, 0x0a, 0xbd,
  0xd3, 0xf4, 0x35, 0xbe, 0xe6, 0x83, 0x39, 0xbe, 0x09, 0xd3, 0x27, 0x3e,
  0x6b, 0x71, 0x7d, 0x3e, 0x8e, 0x3e, 0x16, 0xbe, 0xa1, 0x56, 0x52, 0xbe,
  0xc0, 0x1c, 0x8f, 0x3d, 0xb7, 0x9f, 0x58, 0xbe, 0x7d, 0x9b, 0x57, 0xbe,
  0xb3, 0x2c, 0xe3, 0x3d, 0x58, 0x78, 0x50, 0xbc, 0x8a, 0xca, 0x84, 0xbe,
  0x4f, 0xbc, 0x45, 0x3e, 0xb1, 0x24, 0xb4, 0xbd, 0x5a, 0x6d, 0x26, 0xbe,
  0x36, 0xf2, 0x69, 0x3e, 0xd5, 0xaf, 0x53, 0xbe, 0x15, 0xba, 0x95, 0xbe,
  0xc0, 0x30, 0x18, 0x3e, 0x93, 0x42, 0x6f, 0xbd, 0xd1, 0x19, 0xad, 0xbd,
  0x55, 0xb2, 0x88, 0x3c, 0x00, 0xb4, 0xcc, 0x3d, 0xdf, 0x66, 0x5b, 0xbd,
  0xff, 0x4e, 0x15, 0x3e, 0x15, 0xe7, 0x92, 0x3c, 0xc8, 0x62, 0x12, 0x3e,
  0xa1, 0x27, 0x0e, 0xbe, 0xc8, 0x3b, 0x0d, 0xbe, 0xa8, 0x5c, 0x7a, 0x3e,
  0x6c, 0x59, 0x4c, 0xbe, 0x7f, 0x5b, 0x13, 0xbd, 0x0f, 0x13, 0x73, 0x3e,
  0x13, 0x1e, 0x85, 0xbe, 0x21, 0xb2, 0x28, 0x3d, 0xdc, 0xa1, 0x77, 0xbd,
  0xa3, 0x4b, 0x01, 0x3c, 0xf2, 0xb7, 0x6c, 0xbe, 0x7f, 0x78, 0x96, 0xbd,
  0x25, 0xb4, 0x80, 0xbd, 0x7e, 0xaf, 0x88, 0xbc, 0xec, 0x18, 0x35, 0xbd,
  0xec, 0x72, 0x42, 0xbe, 0x72, 0xc3, 0x69, 0x3e, 0x08, 0x51, 0x5d, 0xbd,
  0x81, 0xbc, 0x98, 0xbd, 0xe7, 0xfc, 0x73, 0x3e, 0x82, 0x24, 0x68, 0x3d,
  0x0a, 0xbc, 0x4c, 0x3e, 0x81, 0x58, 0x35, 0xbe, 0x42, 0x6c, 0xda, 0x3d,
  0x5c, 0xce, 0x57, 0xbd, 0x91, 0x1d, 0x94, 0xbc, 0xf5, 0xc7, 0x7b, 0xbe,
  0x59, 0x1e, 0x38, 0xbe, 0x5c, 0x40, 0x03, 0x3d, 0x4f, 0x42, 0x4f, 0xbe,
  0x2d, 0xf4, 0x82, 0x3d, 0x36, 0xbc, 0x3b, 0x3e, 0x7f, 0x69, 0x10, 0xbe,
  0x22, 0xf4, 0x04, 0x3e, 0xa7, 0x35, 0x46, 0x3d, 0xea, 0xd0, 0x6f, 0x3e,
  0x64, 0xf8, 0xfd, 0xbc, 0x6a, 0xe8, 0xb6, 0xbd, 0xd2, 0x20, 0x1f, 0x3e,
  0xd5, 0xba, 0xe2, 0x3d, 0x85, 0x40, 0x5e, 0xbe, 0xb0, 0x80, 0x3f, 0xbe,
  0x73, 0xa3, 0x85, 0xbe, 0x4c, 0x9f, 0xd9, 0x3d, 0x48, 0x00, 0x1b, 0x3e,
  0xb0, 0x4b, 0x63, 0xbe, 0x5f, 0xcc, 0x26, 0x3e, 0x6e, 0x2c, 0xb2, 0x3a,
  0x49, 0xc5, 0x20, 0xbe, 0xa2, 0x50, 0x84, 0xbd, 0x2a, 0x47, 0x18, 0x3e,
  0x5e, 0x86, 0x8b, 0xbe, 0x9e, 0x95, 0x38, 0x3c, 0x5c, 0x88, 0x06, 0xbe,
  0x17, 0x92, 0xf0, 0x3d, 0x98, 0xe0, 0xe9, 0x3c, 0x4b, 0xc0, 0x33, 0xbe,
  0x30, 0xe2, 0xe6, 0xbd, 0x2a, 0xfc, 0x4f, 0xbe, 0xb7, 0x19, 0xbf, 0xbd,
  0x49, 0xac, 0xe1, 0x3d, 0xd2, 0xb6, 0x63, 0x3e, 0x45, 0xbd, 0x3c, 0xbe,
  0x55, 0x40, 0x3b, 0xbe, 0x2a, 0x05, 0x15, 0x3e, 0x40, 0x84, 0x01, 0x3e,
  0x51, 0x44, 0xa4, 0xbd, 0xf9, 0xc8, 0xc8, 0xbd, 0x34, 0x5b, 0xb1, 0x3d,
  0x68, 0x10, 0xd1, 0xbc, 0xc3, 0x92, 0x28, 0xbe, 0x59, 0xda, 0xac, 0x3c,
  0x2a, 0x37, 0x8a, 0x3e, 0x1c, 0x45, 0x4c, 0x3e, 0xe8, 0x0e, 0x35, 0x3e,
  0xa5, 0x55, 0x9a, 0x3d, 0x2e, 0xa9, 0x42, 0xbe, 0xa4, 0xeb, 0x4e, 0x3d,
  0xb4, 0x9c, 0x41, 0x3d, 0xb2, 0x9f, 0xa9, 0xbb, 0x12, 0x4a, 0xa2, 0x3d,
  0x9b, 0x03, 0x3c, 0x3e, 0x76, 0x72, 0x2d, 0x3d, 0x5f, 0x3b, 0x67, 0x3d,
  0x0a, 0x7d, 0x8a, 0xbe, 0x99, 0xfb, 0x8f, 0x3d, 0x28, 0xbf, 0x31, 0xbd,
  0x98, 0x45, 0xab, 0x3b, 0x32, 0xcf, 0xe7, 0xbd, 0x8f, 0xba, 0x44, 0x3b,
  0x9b, 0x81, 0x2e, 0x3e, 0x20, 0x75, 0x88, 0x3e, 0xe4, 0x02, 0x81, 0x3e,
  0x89, 0x4a, 0x4c, 0x3d, 0xa6, 0x48, 0x78, 0xbd, 0xa2, 0x25, 0x8b, 0x3e,
  0x37, 0xd3, 0xc9, 0xbd, 0x81, 0xc7, 0x7b, 0xbd, 0x0a, 0xb2, 0xbf, 0xbd,
  0x33, 0x56, 0x42, 0xbd, 0x01, 0xc0, 0x3d, 0x3e, 0x70, 0xfd, 0x4a, 0x3c,
  0xb8, 0x66, 0x7b, 0xbd, 0xa8, 0xbb, 0xe9, 0x3d, 0x16, 0x11, 0xc4, 0x3d,
  0xe8, 0xda, 0xac, 0xbd, 0xce, 0xc6, 0x0e, 0x3e, 0x00, 0xb9, 0xba, 0x3d,
  0x63, 0x57, 0x82, 0x3e, 0x09, 0xc5, 0x67, 0xbe, 0xa4, 0xcb, 0x7c, 0xbe,
  0xc1, 0x41, 0x18, 0x3e, 0x06, 0xed, 0xa0, 0xbb, 0x21, 0x15, 0xdf, 0x3d,
  0xd8, 0x81, 0x5d, 0xbe, 0x8a, 0x25, 0xd0, 0x3d, 0x9d, 0xe1, 0x79, 0x3e,
  0x88, 0xdb, 0x78, 0xbe, 0x3a, 0x40, 0x8a, 0x3e, 0x83, 0xe0, 0x1b, 0xbe,
  0x2c, 0xb9, 0x65, 0x3e, 0xa9, 0x38, 0x05, 0x3d, 0x9b, 0x7f, 0x82, 0xbe,
  0x7a, 0x06, 0x13, 0xbe, 0x84, 0x3e, 0xbd, 0xbc, 0x60, 0x0e, 0xc5, 0xbd,
  0x4b, 0x87, 0x3f, 0xbe, 0xbf, 0xbf, 0xac, 0x3d, 0xa2, 0xff, 0x76, 0x3e,
  0x06, 0x1a, 0x4e, 0xbc, 0x2d, 0x48, 0x92, 0x3e, 0x9f, 0x69, 0x2d, 0x3e,
  0x14, 0x07, 0xbc, 0xbd, 0xf4, 0x35, 0x2b, 0xbd, 0x14, 0x05, 0x84, 0x3d,
  0x0d, 0xfe, 0x10, 0xbe, 0xfc, 0x35, 0x79, 0x3e, 0xb5, 0xac, 0xcc, 0xbd,
  0x03, 0x52, 0x46, 0x3e, 0x63, 0xe5, 0x74, 0x3e, 0x1f, 0xcb, 0x78, 0x3d,
  0x22, 0x05, 0x41, 0xbe, 0x3f, 0x13, 0x5f, 0xbe, 0x54, 0x5a, 0x32, 0xbd,
  0x58, 0x9a, 0xa0, 0x3b, 0x94, 0x70, 0x83, 0x3e, 0x55, 0x08, 0x53, 0xbe,
  0xac, 0xcc, 0xb4, 0x3c, 0xeb, 0xbd, 0xd9, 0xbd, 0x4b, 0xdd, 0xbf, 0x3d,
  0xd3, 0x10, 0xe0, 0x3d, 0x91, 0x7d, 0x6c, 0x3e, 0x5a, 0x02, 0x84, 0xbd,
  0xa0, 0x34, 0x0e, 0xbd, 0x31, 0xd1, 0x88, 0x3d, 0xd2, 0x83, 0xd2, 0x3d,
  0x69, 0x89, 0xd4, 0xbd, 0xd7, 0xa3, 0x77, 0xbd, 0xfb, 0xb2, 0x88, 0x3d,
  0x50, 0x8d, 0x83, 0xbe, 0x7e, 0x6d, 0x0d, 0x3e, 0x5f, 0x83, 0xba, 0xbd,
  0xb3, 0xf9, 0x6f, 0x3e, 0x82, 0x03, 0x22, 0xbe, 0x2c, 0x2c, 0x51, 0xbd,
  0x5c, 0x3c, 0x96, 0x3c, 0x2b, 0xb8, 0x10, 0x3e, 0x12, 0x9e, 0xd5, 0xbb,
  0x6c, 0x11, 0x5b, 0xbd, 0xa4, 0xd7, 0x75, 0xbe, 0x0a, 0xb2, 0xff, 0x3c,
  0x0a, 0xca, 0x59, 0x3d, 0x9d, 0x5f, 0x14, 0xbe, 0xb3, 0x22, 0x5a, 0x3e,
  0x3b, 0xbb, 0xb3, 0xbd, 0x75, 0xb6, 0x8a, 0x3e, 0xce, 0x26, 0x52, 0x3e,
  0x3a, 0xf6, 0xa6, 0x3d, 0x87, 0x1d, 0x02, 0xbe, 0x44, 0x01, 0xb9, 0xbd,
  0x3b, 0xcc, 0xdc, 0xbd, 0x8b, 0x36, 0x1e, 0x3d, 0x89, 0x0a, 0x2a, 0x3e,
  0x07, 0x11, 0x4b, 0xbe, 0x24, 0x88, 0x72, 0xbe, 0x0a, 0xc7, 0x95, 0x3e,
  0x61, 0x4c, 0x82, 0x3e, 0x5c, 0xb6, 0x71, 0x3e, 0xe0, 0x01, 0xf4, 0x3d,
  0x5a, 0xb7, 0x82, 0x3e, 0x42, 0x48, 0x2d, 0xbe, 0xac, 0xb3, 0x85, 0x3e,
  0xde, 0xcc, 0x80, 0x3e, 0x02, 0x14, 0xca, 0x3d, 0xbc, 0xa8, 0x83, 0x3e,
  0xd4, 0x42, 0x0b, 0xbe, 0x81, 0x2d, 0x5f, 0x3e, 0xda, 0x2b, 0x57, 0xbd,
  0xf1, 0x86, 0x27, 0xbe, 0xf8, 0x3d, 0x1b, 0xbe, 0x6f, 0x1c, 0x27, 0x3e,
  0xa9, 0xa6, 0x6f, 0x3d, 0x46, 0xc0, 0x8b, 0xbe, 0x9a, 0x51, 0x86, 0xbe,
  0x82, 0xd8, 0xd8, 0x3d, 0x17, 0xad, 0x3b, 0x3d, 0x62, 0x88, 0x60, 0x3d,
  0x32, 0x0b, 0xd0, 0x3b, 0xcd, 0xc0, 0x11, 0x3d, 0xd6, 0x32, 0x2b, 0xbe,
  0xde, 0x9b, 0x8c, 0xbe, 0x45, 0x1c, 0x20, 0x3e, 0xce, 0x44, 0x84, 0xbe,
  0xd6, 0xdc, 0x15, 0xbe, 0xf4, 0xa8, 0xc9, 0x3d, 0xd7, 0xbd, 0xb3, 0x3d,
  0x64, 0x4e, 0x3e, 0x3d, 0x5d, 0x35, 0x1f, 0xbd, 0xf7, 0x99, 0x7c, 0x3e,
  0x1e, 0x3a, 0x22, 0xbd, 0x73, 0x9f, 0x66, 0xbd, 0xbe, 0xfa, 0x16, 0xbe,
  0xd5, 0x59, 0x55, 0x3e, 0x0c, 0x85, 0xa6, 0x3d, 0x1c, 0xcf, 0x41, 0x3e,
  0xfa, 0x31, 0xef, 0x3d, 0x78, 0xb6, 0x94, 0x3d, 0xec, 0x69, 0x79, 0xbd,
  0x00, 0x65, 0xe1, 0xbd, 0xe6, 0xef, 0x6f, 0x3e, 0x9f, 0xa2, 0x82, 0x3e,
  0x38, 0x1b, 0xa0, 0xbc, 0x9e, 0x49, 0xa9, 0x3d, 0x20, 0xb6, 0x69, 0xbc,
  0x0e, 0x3c, 0xf5, 0x3d, 0x07, 0x68, 0x66, 0xbe, 0xd8, 0x57, 0x75, 0xbe,
  0xfa, 0x3b, 0x4b, 0xbb, 0x13, 0xa7, 0xdf, 0x3c, 0x9e, 0x5f, 0xca, 0xbb,
  0x00, 0xb0, 0x37, 0x3c, 0x24, 0x5f, 0x69, 0xbe, 0x13, 0xa4, 0x8a, 0xbe,
  0x86, 0x1c, 0x05, 0xbe, 0xdc, 0x61, 0x56, 0xbd, 0xaa, 0x9e, 0xd5, 0x3c,
  0xca, 0x9e, 0x5c, 0x3e, 0x89, 0x9d, 0xad, 0x3d, 0xa1, 0x85, 0xd4, 0x3d,
  0xcc, 0xe4, 0x83, 0x3e, 0x02, 0xc7, 0x22, 0xbe, 0xb8, 0xd1, 0x0a, 0xbc,
  0x81, 0x09, 0x5e, 0xbe, 0x3c, 0x57, 0x18, 0x3e, 0x00, 0xe3, 0xc6, 0xbd,
  0x5b, 0xa9, 0x3a, 0x3c, 0xa6, 0xa2, 0x91, 0xbd, 0x9c, 0x5a, 0xbe, 0xbb,
  0xf4, 0x8b, 0x1b, 0x3d, 0xca, 0x77, 0x6b, 0xbe, 0x46, 0x0d, 0x17, 0x3c,
  0xc6, 0x7e, 0x71, 0xbe, 0x76, 0x8c, 0x78, 0xbd, 0x9f, 0x04, 0x84, 0xbe,
  0x9d, 0xe8, 0x7a, 0xbe, 0xef, 0xba, 0x45, 0xbc, 0xe9, 0xad, 0x46, 0xbe,
  0x78, 0xcd, 0x54, 0xbe, 0xb1, 0x8d, 0x7a, 0x3e, 0x68, 0xe4, 0x97, 0x3d,
  0x93, 0x73, 0x0f, 0x3e, 0x19, 0xb9, 0x46, 0x3e, 0x82, 0x95, 0xda, 0x3d,
  0xb9, 0x6e, 0x0b, 0xbe, 0x52, 0x77, 0x45, 0x3e, 0xa2, 0xde, 0x88, 0x3e,
  0xa8, 0x4e, 0xa2, 0x3a, 0xd1, 0xba, 0x2e, 0xbd, 0x2e, 0x58, 0xfb, 0xbd,
  0x54, 0x4b, 0x33, 0xbe, 0xba, 0x23, 0xc7, 0xbd, 0xe9, 0xa8, 0x40, 0x3c,
  0xcf, 0x97, 0x72, 0x3e, 0x7f, 0x95, 0xd2, 0x3d, 0x4c, 0x8c, 0x5c, 0xbe,
  0x38, 0xaf, 0x8b, 0xbd, 0x5c, 0x5d, 0x81, 0x3d, 0x23, 0x3e, 0x47, 0x3e,
  0xe4, 0x49, 0x57, 0xbe, 0x05, 0x19, 0x89, 0x3e, 0x75, 0xca, 0x55, 0xbe,
  0xf3, 0x16, 0xa9, 0xbd, 0x2d, 0x66, 0x4e, 0x3d, 0x14, 0xb9, 0x69, 0x3e,
  0x4c, 0xda, 0x73, 0x3e, 0x76, 0xda, 0x97, 0xbd, 0x4d, 0x79, 0x45, 0x3a,
  0x66, 0x61, 0x00, 0xbe, 0xe2, 0x2b, 0x3b, 0xbe, 0xae, 0x8a, 0x86, 0xbd,
  0xd7, 0xaa, 0x51, 0x3e, 0x94, 0x5b, 0x17, 0x3e, 0xa0, 0xf6, 0xaa, 0x3d,
  0x3c, 0x0d, 0x0f, 0xbe, 0x8b, 0x26, 0x1e, 0x3d, 0x43, 0x6b, 0xd1, 0x3d,
  0x3d, 0xb7, 0x88, 0x3e, 0x62, 0xfb, 0x25, 0xbe, 0xaa, 0xed, 0x77, 0x3a,
  0x4f, 0x1c, 0x87, 0x3c, 0x4e, 0x54, 0x0c, 0x3c, 0x5e, 0xd4, 0x87, 0xbe,
  0x0b, 0x62, 0x89, 0x3d, 0xcb, 0x44, 0x8c, 0xbe, 0x4d, 0x1e, 0x4a, 0xbe,
  0x02, 0x8d, 0x21, 0x3e, 0xb7, 0xe3, 0x61, 0xbe, 0x1d, 0xdc, 0x51, 0xbe,
  0x9c, 0xae, 0x6e, 0x3e, 0x6d, 0x39, 0x23, 0xbe, 0xcb, 0x7e, 0x3c, 0xbe,
  0x6e, 0x3e, 0x76, 0x3e, 0xa1, 0x56, 0x8d, 0xbd, 0x38, 0xc4, 0x3c, 0x3c,
  0xed, 0xd4, 0x85, 0x3e, 0x48, 0x1a, 0xc6, 0xbc, 0x29, 0xf3, 0x09, 0x3d,
  0x45, 0xa6, 0x9b, 0xbd, 0x18, 0x0d, 0x06, 0x3e, 0x12, 0xb9, 0x8e, 0x3e,
  0x5e, 0x13, 0x90, 0x3b, 0x0a, 0x86, 0x8c, 0x3d, 0x3c, 0xfb, 0xaf, 0xbd,
  0xa2, 0x66, 0x82, 0xbe, 0xde, 0x2d, 0xcd, 0x3d, 0x51, 0x6a, 0x60, 0x3e,
  0x91, 0xe1, 0x78, 0x3d, 0xc8, 0x77, 0xb1, 0xbd, 0x32, 0xeb, 0x89, 0x3e,
  0xb1, 0x0f, 0xbd, 0xbc, 0xc8, 0xb1, 0x77, 0xbe, 0x02, 0xc9, 0x80, 0xbe,
  0x22, 0x4a, 0x16, 0x3e, 0x37, 0x5e, 0x2e, 0x3e, 0xae, 0x19, 0x5a, 0x3e,
  0x77, 0x3b, 0x07, 0x3d, 0x42, 0xeb, 0x20, 0x3e, 0xc3, 0x7d, 0xea, 0xbd,
  0x23, 0xa0, 0x69, 0xbd, 0x5b, 0xc6, 0xb0, 0xbc, 0x64, 0xc4, 0x1d, 0x3e,
  0x2d, 0x81, 0x17, 0x3d, 0x88, 0xa0, 0x8d, 0xbe, 0x1f, 0x4c, 0xdb, 0x3d,
  0x1b, 0xa5, 0x82, 0x3e, 0x29, 0xe2, 0x6a, 0x3d, 0xbd, 0x20, 0xda, 0xbd,
  0x14, 0x09, 0x64, 0x3e, 0x00, 0xc4, 0x18, 0x3e, 0xff, 0x35, 0x91, 0xbc,
  0xec, 0x84, 0x73, 0xbd, 0xbc, 0x5e, 0x8c, 0xbe, 0x90, 0xc1, 0x5a, 0xbe,
  0xa9, 0x98, 0x69, 0xbe, 0x40, 0x10, 0x19, 0x3e, 0xff, 0x7c, 0x8f, 0x3e,
  0x1c, 0x8f, 0xf1, 0xbd, 0x22, 0xab, 0x90, 0xbe, 0x27, 0xc2, 0x4b, 0xbe,
  0x9c, 0xcb, 0xa7, 0x3b, 0xcf, 0xb8, 0x94, 0xbe, 0x47, 0xfc, 0x63, 0xbe,
  0x16, 0xcd, 0xff, 0xff, 0x04, 0x00, 0x00, 0x00, 0x00, 0x31, 0x00, 0x00,
  0xae, 0xd1, 0xa1, 0xbd, 0x50, 0xc0, 0xc1, 0x3d, 0xed, 0x0b, 0x5f, 0x3e,
  0xd3, 0x12, 0x51, 0xbe, 0x35, 0x5e, 0xac, 0xbb, 0xa6, 0x74, 0x51, 0xbe,
  0x06, 0xf8, 0x38, 0x3e, 0xd4, 0x07, 0x1a, 0xbe, 0x65, 0xc8, 0x65, 0xbe,
  0x39, 0xc9, 0x06, 0xbd, 0x97, 0xc7, 0x25, 0x3e, 0xb0, 0xc4, 0xe8, 0xbc,
  0x66, 0x08, 0x74, 0xbe, 0x4a, 0xbb, 0xbf, 0x3c, 0xc8, 0xb2, 0xc8, 0xbc,
  0x40, 0x1e, 0x1e, 0xbe, 0x6a, 0xed, 0x64, 0x3c, 0x1c, 0x7d, 0x65, 0xbc,
  0x15, 0xba, 0x24, 0xbe, 0x59, 0x99, 0x09, 0x3e, 0x5f, 0x1a, 0x12, 0xbe,
  0x99, 0xd8, 0xb0, 0xbd, 0x66, 0x95, 0xad, 0xbd, 0x79, 0x29, 0xf4, 0xbd,
  0x52, 0x13, 0x10, 0xbd, 0xe3, 0x4a, 0x35, 0xbc, 0xaf, 0x98, 0x59, 0x3e,
  0x0f, 0x11, 0x9e, 0xbd, 0x00, 0x89, 0x83, 0xbd, 0xa2, 0x50, 0x33, 0xbe,
  0x4b, 0xd5, 0x44, 0xbe, 0x3f, 0xdd, 0xe3, 0xbd, 0x77, 0xb2, 0xdb, 0xbd,
  0x48, 0x04, 0x98, 0x3c, 0x2a, 0x64, 0x71, 0x3e, 0x30, 0xac, 0x06, 0xbd,
  0x13, 0xc6, 0x80, 0x3d, 0xca, 0xe4, 0x07, 0xbe, 0x5b, 0x0a, 0xb5, 0x3d,
  0xc4, 0xcd, 0x77, 0xbd, 0xf9, 0x13, 0xf5, 0xbb, 0x8e, 0xce, 0x60, 0xbd,
  0xd2, 0xe4, 0x68, 0x3e, 0x88, 0x42, 0xb7, 0xbd, 0x74, 0x44, 0x21, 0x3e,
  0x5e, 0x68, 0x05, 0xbd, 0xa0, 0x9d, 0x0b, 0xbd, 0x85, 0x3e, 0x15, 0xbd,
  0xbb, 0x47, 0x4b, 0xbc, 0x66, 0x14, 0x22, 0x3e, 0xd3, 0xcb, 0xdf, 0x3a,
  0x7f, 0xd5, 0xb2, 0x3b, 0x5a, 0x77, 0x0e, 0xbd, 0x13, 0xfa, 0x49, 0x3e,
  0x87, 0xe0, 0x18, 0x3d, 0xce, 0xae, 0xbe, 0xbd, 0x45, 0xc8, 0x55, 0x3e,
  0x49, 0x27, 0x55, 0x3e, 0xb3, 0x97, 0x0f, 0xbe, 0xae, 0xd9, 0x6b, 0x3e,
  0xb7, 0x17, 0x90, 0x3d, 0xf2, 0x0c, 0xfe, 0xbc, 0xe4, 0x59, 0xe2, 0x3d,
  0xaf, 0x94, 0x7a, 0x3c, 0xbb, 0x57, 0x65, 0x3e, 0x8a, 0x1f, 0x5f, 0x3e,
  0x76, 0x6a, 0x9b, 0x3d, 0x2a, 0xc1, 0x39, 0x3e, 0xd4, 0x34, 0x5d, 0xbe,
  0x97, 0xbf, 0xe6, 0x3d, 0xe2, 0xc1, 0xbe, 0x3d, 0xf0, 0x1f, 0x38, 0x3e,
  0xcd, 0x2f, 0x0f, 0x3e, 0x81, 0xdc, 0x89, 0xba, 0x43, 0x20, 0x01, 0x3e,
  0x42, 0x8e, 0x14, 0x3e, 0xea, 0xa8, 0x4d, 0x3c, 0x10, 0x2d, 0x02, 0x3e,
  0x1d, 0x13, 0xee, 0xbd, 0x64, 0x0c, 0xcb, 0xbd, 0x84, 0xbc, 0x29, 0x3e,
  0x3f, 0x2b, 0x33, 0x3e, 0x17, 0xba, 0x67, 0xbd, 0x7a, 0xb5, 0x36, 0xbe,
  0x8e, 0xd9, 0x23, 0xbe, 0x6c, 0x6d, 0x7c, 0x3d, 0x4b, 0xc0, 0xba, 0xbd,
  0x6f, 0x49, 0x05, 0x3e, 0x1d, 0x41, 0xd3, 0xbd, 0x5e, 0xec, 0x1c, 0x3e,
  0x72, 0x0d, 0xe7, 0x3d, 0x9a, 0x54, 0x1f, 0x3e, 0xad, 0x03, 0x55, 0xbe,
  0xce, 0x2f, 0x1d, 0xbe, 0x10, 0xe4, 0x00, 0xbe, 0x38, 0x45, 0x22, 0x3e,
  0x59, 0x7a, 0x48, 0xbe, 0xcb, 0x0e, 0x88, 0xbc, 0x60, 0xd8, 0xad, 0x3d,
  0xf7, 0x42, 0x31, 0x3e, 0xcc, 0x63, 0x27, 0xbe, 0x66, 0x23, 0x2a, 0x3d,
  0xe6, 0x9c, 0x13, 0x3e, 0x64, 0xf7, 0x3b, 0xbe, 0x00, 0xe4, 0x91, 0xba,
  0x1e, 0x52, 0x39, 0x3e, 0x1f, 0x33, 0x2f, 0xbe, 0x6d, 0x4d, 0xe9, 0x3d,
  0xd8, 0x79, 0x0b, 0x3e, 0x17, 0x4a, 0x3a, 0x3e, 0x51, 0xa2, 0x17, 0xbe,
  0x72, 0x09, 0x6c, 0xbd, 0xa9, 0xc2, 0x27, 0xbd, 0x2f, 0xb6, 0x40, 0x3e,
  0x57, 0x42, 0xd9, 0xbd, 0x76, 0x78, 0xea, 0x3d, 0xba, 0x79, 0x2b, 0x3e,
  0x61, 0x77, 0xc7, 0xbd, 0x87, 0xa3, 0x55, 0x3e, 0x99, 0x53, 0x54, 0xbe,
  0x66, 0x73, 0x39, 0xbe, 0x1e, 0x5d, 0x20, 0xbe, 0xaf, 0x66, 0x97, 0x3d,
  0xa4, 0x60, 0xc3, 0x3d, 0x4a, 0x0f, 0x51, 0x3e, 0xce, 0x19, 0x38, 0xbe,
  0xeb, 0xc5, 0x29, 0xbe, 0x20, 0x2e, 0x51, 0xbe, 0xa7, 0x74, 0x38, 0xbe,
  0x69, 0xd0, 0xea, 0xbd, 0x89, 0xc4, 0x09, 0x3e, 0xba, 0x56, 0x87, 0x3d,
  0xb1, 0xf3, 0xe0, 0x3d, 0x90, 0x8e, 0x5d, 0xbd, 0x9c, 0x23, 0x33, 0x3d,
  0xd2, 0x4b, 0x49, 0x3e, 0xfc, 0xd8, 0x0e, 0xbe, 0x97, 0xaa, 0xf7, 0xbc,
  0x62, 0x8f, 0x25, 0x3e, 0x22, 0xc4, 0x22, 0x3e, 0x80, 0x7f, 0x2b, 0xbd,
  0xb5, 0xb8, 0x9c, 0x3d, 0x0d, 0xa0, 0xd5, 0x3c, 0x43, 0xda, 0x36, 0x3e,
  0x94, 0x44, 0x72, 0xbe, 0x6d, 0x83, 0x42, 0xbe, 0x73, 0xa3, 0x29, 0x3e,
  0xe0, 0xed, 0x3f, 0x3e, 0x4b, 0x3f, 0xd9, 0xbd, 0xa0, 0x85, 0x3a, 0xbe,
  0x58, 0x3b, 0x2b, 0x3e, 0x40, 0xb6, 0xa0, 0xbd, 0x2b, 0x36, 0x72, 0xbe,
  0x98, 0x40, 0x52, 0xbe, 0x72, 0x24, 0x59, 0x3e, 0x25, 0xde, 0x57, 0x3e,
  0x48, 0x28, 0x7e, 0xbd, 0x4c, 0x65, 0xad, 0x3d, 0x02, 0x36, 0x37, 0x3e,
  0xec, 0x64, 0xb9, 0xbb, 0x23, 0x3d, 0x2e, 0xbe, 0x58, 0xed, 0x20, 0x3d,
  0x4f, 0x59, 0x3e, 0x3d, 0x52, 0xc5, 0xe7, 0x3d, 0x87, 0xd9, 0x30, 0x3e,
  0x80, 0x7c, 0x14, 0xbe, 0xa6, 0x65, 0xb1, 0xbd, 0xba, 0x9a, 0xdd, 0xbc,
  0xa7, 0x85, 0x6b, 0xbe, 0xbc, 0xa4, 0x35, 0xbe, 0xf7, 0xbd, 0xa9, 0x3d,
  0xda, 0xd2, 0xe2, 0x3d, 0x88, 0xf0, 0xff, 0xbb, 0xaf, 0x36, 0xc6, 0x3d,
  0xb8, 0x71, 0x4b, 0xbe, 0x75, 0x04, 0x77, 0xbd, 0x31, 0x69, 0x61, 0x3e,
  0xb2, 0xc9, 0xbf, 0x3a, 0x36, 0x28, 0x76, 0x3d, 0x20, 0x62, 0x8f, 0xbd,
  0x9e, 0xfd, 0x84, 0xbd, 0xa4, 0xaa, 0x9a, 0xbd, 0xd9, 0x4a, 0x43, 0x3e,
  0xbf, 0xa0, 0x74, 0xbd, 0x6a, 0xe1, 0x25, 0xbe, 0x3d, 0xf7, 0x08, 0x3e,
  0xf0, 0xc7, 0x28, 0xbe, 0xac, 0xad, 0x64, 0x3e, 0x17, 0xcb, 0x2f, 0xbe,
  0x30, 0x95, 0x43, 0x3d, 0x99, 0x9d, 0x00, 0x3e, 0x50, 0xac, 0x74, 0xbe,
  0x3d, 0xf5, 0x55, 0xbe, 0x2c, 0xfc, 0x3d, 0xbe, 0xd8, 0x5f, 0x3f, 0xbe,
  0x22, 0x91, 0xcc, 0x3d, 0x68, 0x6f, 0x3b, 0x3d, 0xe1, 0xf6, 0x06, 0x3e,
  0x9c, 0x63, 0x91, 0x3d, 0x6c, 0x78, 0x06, 0x3e, 0xf4, 0xb6, 0xaf, 0xbd,
  0xb3, 0x12, 0x2c, 0x3e, 0x9c, 0xe1, 0x6a, 0x3e, 0x32, 0x73, 0x25, 0x3e,
  0x08, 0x0b, 0x47, 0x3d, 0x88, 0x47, 0xd8, 0x38, 0xaf, 0x7e, 0xcb, 0xbd,
  0xbe, 0x57, 0xe3, 0xbd, 0x40, 0x0c, 0xe8, 0x3d, 0x1a, 0x2e, 0x50, 0x3b,
  0x3e, 0x12, 0xd8, 0xbc, 0x09, 0x7a, 0x1f, 0x3e, 0x88, 0x1b, 0x4f, 0x3e,
  0x3b, 0x59, 0xd2, 0xbd, 0x2c, 0xa1, 0x24, 0xbe, 0x79, 0x0e, 0x1d, 0xbe,
  0x5c, 0x7b, 0x3d, 0x3d, 0x70, 0x36, 0x6a, 0xbe, 0xed, 0x1c, 0x4c, 0x3e,
  0xa8, 0x13, 0x61, 0xbe, 0x1b, 0x73, 0x3c, 0xbe, 0x3e, 0x69, 0x52, 0x3e,
  0x9c, 0xd0, 0xda, 0x3d, 0xc4, 0xeb, 0x83, 0x3d, 0x20, 0x47, 0xa5, 0xbd,
  0xfc, 0xbe, 0x97, 0xbc, 0x3b, 0x79, 0x21, 0xbd, 0x22, 0xa6, 0x56, 0x3e,
  0xdc, 0x59, 0xba, 0xbd, 0x65, 0xe3, 0x5b, 0x3e, 0x77, 0x1f, 0x55, 0xbe,
  0xef, 0x25, 0x8e, 0x3d, 0xcc, 0x2b, 0x32, 0x3e, 0x7e, 0x1c, 0xf5, 0xbd,
  0xce, 0x14, 0x0c, 0xbd, 0x3d, 0x2d, 0x6b, 0x3e, 0x45, 0xba, 0xc4, 0x3d,
  0x66, 0xec, 0x5f, 0xbe, 0xa3, 0x9e, 0x4b, 0xbe, 0x9e, 0x3c, 0x2f, 0xbc,
  0x5a, 0x9f, 0xec, 0x3d, 0x67, 0x44, 0x0d, 0x3d, 0x92, 0xf4, 0xb0, 0x3c,
  0x03, 0xc0, 0xb7, 0x3d, 0xa1, 0xd2, 0x06, 0x3e, 0x42, 0xd1, 0x44, 0xbe,
  0x70, 0x1b, 0x5a, 0xbd, 0x07, 0xa4, 0x0f, 0xbe, 0xa4, 0xa1, 0x89, 0xbc,
  0x3d, 0xf6, 0xfa, 0x3d, 0x54, 0x64, 0x69, 0x3e, 0x98, 0x4b, 0x45, 0x3d,
  0xa9, 0x9f, 0x44, 0xbe, 0x9b, 0x0f, 0x14, 0xbc, 0xb0, 0x3b, 0x1e, 0xbe,
  0xce, 0xe8, 0x66, 0xbd, 0xf2, 0x76, 0x30, 0xbe, 0xe6, 0xd8, 0x5d, 0xbe,
  0xaa, 0xe4, 0x1e, 0xbe, 0x74, 0xd0, 0x1a, 0x3e, 0x51, 0x0d, 0xa1, 0x3d,
  0xb3, 0xad, 0x67, 0x3e, 0xda, 0x8f, 0x27, 0x3c, 0x4a, 0x5a, 0xe6, 0x3d,
  0x4a, 0xcc, 0x75, 0xbc, 0x71, 0xca, 0xa1, 0xbd, 0xc2, 0x74, 0xe2, 0x3d,
  0xa3, 0x2c, 0xc4, 0xbd, 0x1e, 0xc7, 0x1d, 0xbd, 0x73, 0x05, 0x33, 0xbe,
  0x01, 0x33, 0xb5, 0xbd, 0xb0, 0xad, 0x12, 0xbe, 0x10, 0x9b, 0x2a, 0xbd,
  0x4f, 0xdd, 0xea, 0x3d, 0x4e, 0x0f, 0x8b, 0xbc, 0xa0, 0x11, 0xd5, 0x3c,
  0x8d, 0x32, 0xc1, 0xbd, 0xab, 0x92, 0x04, 0x3e, 0x8f, 0x1c, 0x82, 0xbd,
  0x84, 0xad, 0x04, 0x3e, 0xcf, 0xde, 0xf2, 0x3d, 0xe2, 0x95, 0x3a, 0x3e,
  0x96, 0x16, 0x0b, 0x3e, 0x93, 0x9f, 0x90, 0x3d, 0xfb, 0x54, 0xfb, 0xbd,
  0xc1, 0xdd, 0x9d, 0xbd, 0x30, 0x94, 0xd1, 0x3d, 0x00, 0xaa, 0x17, 0x3a,
  0x7d, 0x09, 0x2e, 0xbe, 0x1f, 0x91, 0x12, 0x3d, 0xe2, 0x81, 0x20, 0x3d,
  0xb8, 0x54, 0xce, 0xbd, 0x27, 0xd8, 0x40, 0xbe, 0x41, 0xa9, 0x44, 0x3d,
  0x00, 0x17, 0x05, 0x3d, 0xf7, 0xd2, 0x29, 0xbe, 0x2e, 0xcc, 0x62, 0xbe,
  0x2a, 0xa3, 0x3c, 0xbd, 0x32, 0xf9, 0x2f, 0x3e, 0xe6, 0x65, 0x57, 0xbe,
  0x56, 0x23, 0x48, 0x3e, 0x30, 0x85, 0xcb, 0x3c, 0x81, 0xc7, 0x71, 0x3e,
  0x78, 0x77, 0xcd, 0xbc, 0x86, 0xa7, 0x70, 0xbe, 0x33, 0x05, 0x73, 0xbc,
  0x49, 0xc8, 0xc9, 0x3d, 0xa4, 0x9f, 0x44, 0x3e, 0x17, 0x17, 0x0b, 0x3e,
  0x36, 0xc9, 0x23, 0xbe, 0x0c, 0x87, 0x73, 0x3e, 0x68, 0x05, 0x46, 0xbe,
  0x2e, 0x46, 0xb4, 0xbd, 0x50, 0x2d, 0x12, 0x3e, 0xb2, 0x50, 0xff, 0x3c,
  0x1b, 0x16, 0x0f, 0x3d, 0xf8, 0x1e, 0x97, 0xbc, 0xf5, 0x3a, 0x80, 0xbd,
  0xfa, 0x2b, 0xa7, 0xbd, 0x1d, 0xc0, 0x6a, 0x3e, 0x78, 0x52, 0x7f, 0xbd,
  0x6c, 0x56, 0x40, 0xbe, 0x98, 0x09, 0xda, 0xbd, 0xc9, 0xa4, 0x8b, 0xbd,
  0x06, 0x11, 0xdf, 0xbd, 0xd0, 0x55, 0xeb, 0x3d, 0x98, 0xe6, 0xcc, 0xbd,
  0xb4, 0x27, 0x19, 0xbc, 0x3c, 0x4f, 0x14, 0xbe, 0xea, 0xb5, 0x0b, 0x3e,
  0x5f, 0xe6, 0x02, 0x3d, 0x05, 0xfc, 0x9c, 0xbd, 0x20, 0xca, 0x96, 0xbd,
  0x5b, 0xc4, 0x59, 0xbd, 0x53, 0xeb, 0xf0, 0xbc, 0x98, 0x91, 0x48, 0x3c,
  0x64, 0x4c, 0xd8, 0x3d, 0x9c, 0xf5, 0xaf, 0xbd, 0x3b, 0x3c, 0x5f, 0x3e,
  0xfc, 0x88, 0x1a, 0xbe, 0x70, 0x49, 0x9e, 0xbc, 0xbe, 0xf5, 0x69, 0xbe,
  0x91, 0x45, 0x80, 0x3d, 0x7e, 0x2f, 0x19, 0xbe, 0xf1, 0x1c, 0x24, 0x3e,
  0xa1, 0x1d, 0xf8, 0x3d, 0xe3, 0x61, 0x43, 0xbe, 0x2d, 0x50, 0x1e, 0x3e,
  0xa7, 0xb3, 0xae, 0xbd, 0x64, 0x37, 0x64, 0xbd, 0x3c, 0x7a, 0x4e, 0xbe,
  0xcd, 0x90, 0x54, 0x3e, 0xe0, 0x11, 0x58, 0xbe, 0x03, 0x2f, 0x85, 0xbd,
  0x3d, 0x5a, 0xa2, 0xbd, 0xea, 0xc7, 0x97, 0xbd, 0xde, 0xc5, 0x0d, 0xbe,
  0xc0, 0x09, 0x19, 0x3d, 0xac, 0xd5, 0xe4, 0xbd, 0xd3, 0x57, 0x4f, 0x3e,
  0x03, 0xc9, 0x45, 0xbe, 0x66, 0x17, 0x8a, 0xbd, 0xdc, 0x55, 0xcc, 0xbc,
  0x89, 0x94, 0xc5, 0xbd, 0xf5, 0x05, 0x07, 0xbe, 0xd1, 0x52, 0x02, 0x3e,
  0x92, 0xd6, 0x12, 0x3e, 0x85, 0x73, 0x48, 0xbe, 0xda, 0x0d, 0xce, 0xbc,
  0xc6, 0xfa, 0x16, 0x3e, 0x7b, 0x9e, 0x31, 0xbb, 0x7b, 0xca, 0x81, 0xbd,
  0xa9, 0x68, 0x49, 0xbe, 0x2c, 0x8a, 0xe3, 0x3d, 0x96, 0xd7, 0x55, 0xbe,
  0xc0, 0x46, 0x04, 0x3e, 0xec, 0x38, 0x8d, 0x3d, 0xa2, 0x87, 0xd0, 0x3d,
  0x2a, 0x00, 0x02, 0x3e, 0x53, 0x36, 0xcd, 0xbd, 0x8e, 0x45, 0xbf, 0x3d,
  0xea, 0x7e, 0xee, 0x3b, 0x4b, 0xac, 0xbd, 0x3d, 0x48, 0xdc, 0x74, 0x3b,
  0xc3, 0xaf, 0x0d, 0x3e, 0xc2, 0x27, 0xb7, 0xbd, 0xa7, 0xda, 0x84, 0xbd,
  0x20, 0x98, 0x47, 0x3e, 0xee, 0x04, 0x01, 0x3e, 0x78, 0xdf, 0x43, 0xbd,
  0x9d, 0xd1, 0x58, 0x3e, 0x7f, 0xbb, 0x0e, 0x3e, 0x80, 0xe8, 0x03, 0x3d,
  0xfe, 0x56, 0xbb, 0xbd, 0xef, 0xd8, 0xee, 0xbd, 0xfc, 0x30, 0x5d, 0x3e,
  0x9f, 0xac, 0x87, 0xbd, 0x18, 0xba, 0x37, 0x3e, 0xc6, 0x1f, 0x1c, 0x3e,
  0x3c, 0x8c, 0xb5, 0x3d, 0x56, 0xcc, 0x07, 0x3e, 0x89, 0xa0, 0xde, 0xbb,
  0x80, 0x46, 0x4c, 0xbe, 0x29, 0x1e, 0x11, 0xbe, 0x47, 0x83, 0x30, 0xbd,
  0x93, 0xf9, 0xa8, 0x3d, 0xf0, 0x9f, 0x6e, 0xbd, 0x5b, 0xef, 0x21, 0x3e,
  0xb7, 0x7a, 0xb7, 0xbd, 0xd4, 0x6e, 0x36, 0xbe, 0xfd, 0x4e, 0x0f, 0xbe,
  0x23, 0xe5, 0x26, 0x3e, 0x3a, 0x2b, 0xb1, 0x3d, 0xa4, 0xc0, 0x28, 0xbe,
  0x4d, 0x60, 0xe2, 0x3c, 0xc5, 0xf9, 0x44, 0x3d, 0x44, 0x80, 0x55, 0xbe,
  0xb9, 0xa2, 0x84, 0xbd, 0x7e, 0x53, 0x24, 0xbe, 0xa0, 0x53, 0x2c, 0xbe,
  0x4f, 0xd5, 0x0f, 0xbb, 0x7f, 0xe1, 0xf0, 0xbd, 0x99, 0x97, 0xb1, 0x3b,
  0xc6, 0x7f, 0x52, 0x3e, 0xcf, 0xf4, 0x1d, 0x3e, 0xb8, 0x22, 0x48, 0xbc,
  0xf3, 0x75, 0x2e, 0x3e, 0xd8, 0x59, 0x52, 0x3d, 0xe4, 0xab, 0x01, 0x3e,
  0x4a, 0xc4, 0x51, 0x3e, 0xcb, 0x16, 0x96, 0xbc, 0xa3, 0xfc, 0x46, 0xbe,
  0x56, 0xf2, 0xf3, 0xbd, 0x1d, 0x5c, 0x97, 0xbd, 0x07, 0x7c, 0x0e, 0xbe,
  0xd1, 0x04, 0xcd, 0xbd, 0xd6, 0x8a, 0x5e, 0xbe, 0x9f, 0xa7, 0xaa, 0x3d,
  0x71, 0x22, 0x03, 0x3e, 0x89, 0xc8, 0x46, 0xbe, 0xf9, 0xfe, 0xe7, 0x3c,
  0x82, 0x96, 0x0f, 0x3e, 0xa6, 0x65, 0xa7, 0xbd, 0xc7, 0x7e, 0xeb, 0xbd,
  0x43, 0x0f, 0xd8, 0xbc, 0x6a, 0xd1, 0x9f, 0xbd, 0x01, 0x69, 0x52, 0xbe,
  0x7e, 0x82, 0x17, 0x3e, 0x31, 0x9e, 0xa5, 0xbd, 0xa5, 0xe3, 0x66, 0xbe,
  0xd2, 0x48, 0x06, 0xbd, 0x2a, 0xe4, 0x50, 0x3e, 0x11, 0x9f, 0x86, 0xbd,
  0xcf, 0x66, 0x7c, 0x3d, 0x11, 0x9c, 0x0c, 0x3e, 0x83, 0xd0, 0xca, 0xbd,
  0x16, 0x94, 0x65, 0x3e, 0xd6, 0x6d, 0x34, 0x3e, 0x44, 0xa1, 0x3c, 0x3d,
  0x61, 0xaa, 0xe5, 0x3d, 0x8c, 0xf3, 0xa1, 0xbd, 0xd3, 0xcf, 0x08, 0x3e,
  0x8d, 0x0d, 0x33, 0x3e, 0xc6, 0x91, 0x2e, 0x3e, 0x06, 0x82, 0xc0, 0x3d,
  0x33, 0x2b, 0x8a, 0x3d, 0xbb, 0xe8, 0x0a, 0x3c, 0x65, 0x59, 0x6f, 0xbe,
  0x14, 0xeb, 0xf3, 0xbd, 0xe2, 0x0d, 0xcd, 0xbd, 0xd0, 0xab, 0x15, 0x3e,
  0xbe, 0x3f, 0x10, 0x3e, 0x35, 0x7c, 0xd3, 0xbd, 0x38, 0xcb, 0x80, 0xbd,
  0x64, 0xc9, 0x0f, 0x3e, 0x9d, 0xc6, 0x00, 0x3e, 0x2e, 0xab, 0x1b, 0x3d,
  0x20, 0xa2, 0x62, 0xbe, 0xc4, 0x67, 0x71, 0x3e, 0x34, 0x60, 0xe1, 0x3d,
  0xe3, 0xf8, 0xcf, 0xbd, 0xa7, 0x78, 0x64, 0xbe, 0x1b, 0xbe, 0xa2, 0x3c,
  0xc4, 0xc0, 0x58, 0x3e, 0x4a, 0x88, 0x57, 0x3e, 0x22, 0xca, 0x68, 0x3d,
  0xfa, 0xee, 0xd9, 0xbd, 0xe0, 0x2a, 0x59, 0xbe, 0xef, 0xb2, 0xfa, 0xbc,
  0x27, 0x61, 0xfd, 0xbd, 0x1c, 0x81, 0x2e, 0x3e, 0x32, 0x9f, 0x4e, 0xbe,
  0x95, 0x4f, 0x28, 0x3e, 0x1c, 0x27, 0x5d, 0xbb, 0xe2, 0x35, 0x57, 0x3e,
  0x5b, 0x5b, 0x08, 0x3e, 0x26, 0x4e, 0x91, 0xbd, 0x1e, 0x20, 0x62, 0x3e,
  0x8c, 0xc1, 0x28, 0x3d, 0x10, 0x81, 0x20, 0xbe, 0xdd, 0x2f, 0x0b, 0xbe,
  0xc0, 0xc7, 0xac, 0x3d, 0x45, 0x3c, 0x54, 0xbe, 0xcf, 0xf0, 0x46, 0x3e,
  0xf4, 0xe9, 0x17, 0x3e, 0x95, 0xf7, 0x4b, 0xbd, 0xae, 0x7d, 0x3d, 0x3e,
  0x72, 0x2c, 0xb6, 0x3b, 0x92, 0xd1, 0x43, 0xbe, 0x36, 0xdf, 0x46, 0x3d,
  0x1b, 0x24, 0xe3, 0xbd, 0x80, 0x02, 0xb9, 0x3d, 0xe8, 0x26, 0x5e, 0x3d,
  0x54, 0x25, 0x7d, 0xbd, 0xe9, 0x10, 0x97, 0x3b, 0x7e, 0x82, 0x09, 0xbe,
  0x68, 0x0a, 0x67, 0x3e, 0x45, 0x35, 0xea, 0x3d, 0x40, 0x54, 0xc8, 0xbd,
  0x11, 0xda, 0xaf, 0xbb, 0x65, 0xa0, 0x87, 0xbc, 0x7a, 0xee, 0x47, 0x3e,
  0x8e, 0x56, 0xf6, 0x3c, 0xe0, 0xf1, 0x51, 0xbe, 0x36, 0xbf, 0x61, 0x3e,
  0xb2, 0x35, 0x41, 0x3e, 0x34, 0x26, 0xfa, 0x3d, 0x90, 0xd2, 0xb1, 0xbc,
  0x71, 0x52, 0xa8, 0xbc, 0x6f, 0x4c, 0x64, 0xbe, 0x99, 0x58, 0x08, 0xbe,
  0xa9, 0xbc, 0x55, 0xbe, 0xf2, 0xc0, 0x1a, 0x3e, 0xeb, 0xec, 0x32, 0x3e,
  0x35, 0x47, 0x61, 0x3e, 0x67, 0xa1, 0x74, 0xbe, 0x07, 0x93, 0x4a, 0xbe,
  0x53, 0x86, 0xf0, 0x3b, 0xa8, 0xc5, 0x4e, 0xbe, 0x9c, 0x76, 0x1b, 0x3e,
  0xe0, 0xcf, 0xad, 0xbd, 0xea, 0x64, 0xbe, 0x3d, 0xfe, 0xe1, 0x1b, 0x3e,
  0x90, 0x18, 0x17, 0xbe, 0xde, 0x19, 0x3e, 0x3e, 0x38, 0x63, 0x01, 0xbe,
  0xf6, 0xb0, 0x42, 0xbe, 0x9d, 0xcf, 0xd5, 0x3d, 0x44, 0x2c, 0xad, 0x3d,
  0xe6, 0x6c, 0x39, 0xbe, 0x9b, 0x81, 0x48, 0xbe, 0x70, 0xd2, 0x68, 0x3d,
  0x3b, 0xae, 0x1f, 0x3e, 0x8f, 0xfc, 0xb0, 0x3d, 0xcb, 0xed, 0x13, 0xbe,
  0x7f, 0xed, 0x7e, 0xbd, 0xc5, 0x20, 0x4c, 0xbe, 0x29, 0xe3, 0x38, 0xbe,
  0xcc, 0x38, 0xca, 0x3d, 0x81, 0x24, 0x04, 0xbd, 0x8b, 0x6e, 0x1d, 0x3e,
  0x3d, 0x0a, 0xd5, 0x3d, 0xc8, 0xb7, 0x97, 0x3d, 0xe8, 0x33, 0x8c, 0xbd,
  0xa8, 0x64, 0x4e, 0xbe, 0x3e, 0xcd, 0x3b, 0xbe, 0x80, 0xe3, 0xf9, 0x3d,
  0x62, 0x0c, 0x31, 0x3e, 0xff, 0xc5, 0x0f, 0x3e, 0xf7, 0x55, 0x31, 0x3e,
  0x6f, 0x9e, 0x58, 0xbd, 0x25, 0x5c, 0x69, 0x3d, 0x3b, 0x2d, 0x07, 0x3e,
  0xc4, 0xea, 0x20, 0xbe, 0x50, 0xfd, 0xf9, 0x3c, 0x9b, 0xf8, 0x21, 0x3e,
  0x94, 0xb0, 0x40, 0x3e, 0x14, 0xf1, 0x3f, 0xbd, 0x63, 0x5f, 0xa9, 0x3d,
  0x8a, 0x24, 0x31, 0x3e, 0xde, 0xa5, 0x37, 0x3e, 0x30, 0x51, 0x9c, 0x3d,
  0x07, 0xf7, 0x5d, 0x3e, 0x92, 0x2d, 0x2e, 0xbe, 0x3c, 0xfa, 0xfc, 0x3d,
  0xdf, 0xea, 0x26, 0x3d, 0x0a, 0x17, 0x2f, 0x3d, 0x88, 0x54, 0xde, 0x3c,
  0x40, 0xe0, 0x80, 0xbd, 0x35, 0x37, 0x11, 0x3e, 0x2c, 0xe9, 0x46, 0x3e,
  0x7c, 0x91, 0x98, 0x3c, 0xeb, 0xe0, 0x1d, 0x3e, 0x3f, 0x40, 0x5e, 0xbe,
  0x58, 0x7d, 0xed, 0x3d, 0x28, 0xb9, 0x63, 0xbe, 0x48, 0x16, 0x00, 0x3e,
  0x5d, 0xaa, 0x8f, 0x3d, 0x01, 0x9f, 0xc4, 0xbd, 0x04, 0xc1, 0xb9, 0x3d,
  0x56, 0x1f, 0x68, 0xbc, 0xf7, 0xb0, 0x0f, 0xbe, 0x93, 0x02, 0x3d, 0xbd,
  0x6b, 0x83, 0xda, 0xbd, 0x74, 0xf2, 0x2f, 0xbe, 0x5c, 0xd8, 0x19, 0x3d,
  0x66, 0xff, 0xe6, 0x3b, 0x1f, 0xc4, 0x7d, 0xbd, 0x39, 0xb6, 0x70, 0xbd,
  0x9f, 0xae, 0x8d, 0xbd, 0x85, 0xb3, 0x26, 0xbe, 0xfc, 0x9a, 0x27, 0x3e,
  0xb9, 0x10, 0x37, 0xbe, 0xf6, 0x56, 0xd9, 0xbc, 0xf9, 0x03, 0xea, 0xbd,
  0x3d, 0x03, 0x3e, 0x3d, 0xf3, 0xf9, 0xc6, 0xbd, 0x22, 0x12, 0x90, 0x3d,
  0x2f, 0xa1, 0x12, 0x3e, 0x3e, 0x88, 0xb0, 0x3c, 0xdb, 0x7d, 0xb8, 0x3d,
  0x0e, 0x7d, 0x41, 0x3e, 0x0a, 0x0b, 0x57, 0xbe, 0xbe, 0x75, 0xb9, 0x3c,
  0xb3, 0x5b, 0x6a, 0x3e, 0x82, 0xe4, 0x41, 0xbe, 0x34, 0x1f, 0x34, 0xbe,
  0xd5, 0x7b, 0x29, 0x3e, 0x5d, 0x5d, 0xde, 0x3d, 0x9d, 0x98, 0x39, 0x3e,
  0x96, 0xd0, 0x06, 0xbe, 0x7c, 0xaa, 0xcc, 0x3d, 0xd0, 0x92, 0x10, 0xbe,
  0x05, 0x4c, 0xc7, 0x3d, 0xdd, 0x54, 0xa3, 0x3d, 0x78, 0x72, 0x63, 0xbd,
  0x5a, 0xa9, 0x35, 0x3d, 0xc0, 0x78, 0x91, 0xbd, 0xf2, 0xbc, 0xfa, 0x3d,
  0x91, 0x90, 0x44, 0xbe, 0x5d, 0x10, 0xd1, 0x3d, 0xd8, 0xf2, 0x6e, 0xbe,
  0x74, 0xf7, 0xb1, 0xbd, 0x34, 0xf2, 0xe8, 0xbd, 0x1e, 0x40, 0x1f, 0x3e,
  0x15, 0xdb, 0x27, 0xbe, 0x9b, 0xb3, 0x37, 0xbe, 0xcb, 0x2d, 0x00, 0xbe,
  0xb5, 0xef, 0xae, 0x3d, 0xfe, 0x41, 0x85, 0xbd, 0x4e, 0x59, 0xd9, 0x3d,
  0x20, 0x76, 0x2c, 0xbe, 0xf6, 0xf4, 0x3c, 0xbe, 0x54, 0xc6, 0x01, 0xbc,
  0xdc, 0xee, 0x3c, 0x3e, 0xfa, 0xcc, 0x7a, 0xbd, 0x81, 0x95, 0x8c, 0x3d,
  0x9c, 0x6b, 0xaa, 0xbd, 0x6e, 0xb2, 0x9f, 0x3c, 0x0c, 0xc7, 0x13, 0x3e,
  0xf6, 0x0e, 0x28, 0x3e, 0xa5, 0x8c, 0x73, 0xbe, 0x34, 0xb7, 0x98, 0xbd,
  0x97, 0xb0, 0x52, 0x3e, 0xa4, 0x8c, 0xb1, 0x3d, 0x85, 0x38, 0x2f, 0xbe,
  0x91, 0x28, 0xfb, 0xbd, 0x9e, 0x1f, 0x25, 0xbe, 0xd8, 0xdb, 0x34, 0x3e,
  0xde, 0x36, 0x28, 0x3e, 0xeb, 0x56, 0x2f, 0x3d, 0xfd, 0xa7, 0xc8, 0x3d,
  0xbb, 0x6a, 0x38, 0xbe, 0x1b, 0xf3, 0x82, 0xbd, 0xed, 0xc7, 0x52, 0xbe,
  0x7d, 0x8e, 0xfc, 0x3d, 0x88, 0x42, 0xd8, 0xbc, 0xef, 0x6c, 0x7e, 0xbd,
  0x60, 0x13, 0xbb, 0x3d, 0x90, 0x68, 0xf8, 0xbd, 0x06, 0x49, 0x38, 0x3e,
  0xee, 0xd2, 0x1f, 0x3e, 0x2b, 0x5b, 0x70, 0x3e, 0x6c, 0xe5, 0x5a, 0xbd,
  0xd0, 0x1b, 0x85, 0x3d, 0x74, 0x36, 0xba, 0xbd, 0xc8, 0xbb, 0x40, 0xbd,
  0x36, 0x3c, 0xd1, 0xbd, 0x12, 0xaf, 0x9b, 0xbd, 0xaf, 0x2c, 0x19, 0xbe,
  0x2c, 0x4b, 0xdb, 0xbd, 0x62, 0x1f, 0x3d, 0xbc, 0x9e, 0x84, 0x50, 0x3e,
  0xea, 0x57, 0x37, 0xbe, 0x5f, 0x8f, 0x94, 0xbd, 0x47, 0xb8, 0x56, 0xbe,
  0x78, 0x27, 0xa4, 0xbd, 0xb6, 0x1f, 0x1d, 0xbe, 0x3e, 0x6b, 0x71, 0xbd,
  0x5d, 0x35, 0xcd, 0xbd, 0xd2, 0xf5, 0x43, 0x3e, 0x94, 0x5d, 0x30, 0xbe,
  0xe4, 0x3b, 0x58, 0xbd, 0x77, 0x0f, 0x2f, 0xbe, 0xea, 0x31, 0x49, 0xbe,
  0x0c, 0x90, 0x95, 0x3d, 0xdd, 0x71, 0x9b, 0xbc, 0xb6, 0xe1, 0x56, 0xbe,
  0x37, 0xdd, 0xe3, 0xbc, 0x18, 0xc2, 0xc3, 0xbd, 0xc3, 0x7e, 0xe4, 0xbd,
  0x0d, 0xcb, 0x49, 0x3e, 0xf3, 0x45, 0x1a, 0xbd, 0xbf, 0x51, 0xff, 0x3c,
  0xb0, 0x06, 0x20, 0xbd, 0xeb, 0xb7, 0x3a, 0x3e, 0x02, 0x90, 0x07, 0x3e,
  0x19, 0xb4, 0x4a, 0x3d, 0x3c, 0x95, 0x5a, 0xbe, 0x61, 0xec, 0x64, 0x3e,
  0x21, 0x86, 0x2d, 0xbd, 0xc4, 0xdc, 0xf5, 0x3d, 0x37, 0x87, 0x2d, 0xbc,
  0xde, 0x15, 0xf5, 0xbd, 0x8b, 0x35, 0x53, 0x3d, 0x07, 0x36, 0x0d, 0xbe,
  0xa7, 0x1e, 0xee, 0xbc, 0xa6, 0xfa, 0xeb, 0x3d, 0xd4, 0x87, 0x1d, 0xbd,
  0xa4, 0xc0, 0x0c, 0xbb, 0x5a, 0x5c, 0x22, 0xbb, 0x07, 0xe4, 0x48, 0xbe,
  0x8e, 0x14, 0x63, 0xbe, 0xe8, 0x7c, 0x8c, 0xbd, 0x6e, 0x38, 0x02, 0xbe,
  0x18, 0x3e, 0x4b, 0xbd, 0x66, 0x36, 0xc6, 0x3d, 0x30, 0xd6, 0x95, 0xbd,
  0x4d, 0x68, 0x2a, 0xbd, 0x6e, 0xb2, 0x28, 0xbe, 0x26, 0xc0, 0xf2, 0x3d,
  0xc8, 0xba, 0x98, 0x3d, 0xaf, 0x1c, 0x64, 0x3e, 0x1c, 0x6e, 0x58, 0x3d,
  0x72, 0xa8, 0x23, 0x3c, 0x51, 0xa9, 0x6e, 0x3d, 0x04, 0x54, 0x50, 0xbc,
  0x4a, 0x6a, 0x0d, 0x3c, 0x87, 0x7b, 0x51, 0x3d, 0xf4, 0xe9, 0x0c, 0x39,
  0x13, 0x2f, 0xae, 0xbd, 0x6e, 0x38, 0x09, 0x3e, 0xaf, 0x0b, 0x09, 0xbe,
  0xe0, 0xad, 0x7b, 0xbd, 0x58, 0x64, 0x2c, 0xbe, 0xf3, 0x3a, 0xa5, 0x3b,
  0x89, 0xb7, 0xd1, 0xbd, 0x20, 0xe7, 0xd8, 0xbd, 0x11, 0x7f, 0x9c, 0xbd,
  0x61, 0x98, 0x1c, 0xbe, 0x98, 0x46, 0xf5, 0x3d, 0xe4, 0x21, 0x49, 0x3e,
  0x16, 0x94, 0x08, 0x3e, 0xc6, 0x63, 0xbd, 0x3d, 0x1f, 0x38, 0x21, 0xbd,
  0xcc, 0x26, 0x48, 0x3d, 0x55, 0x5b, 0x36, 0x3e, 0x31, 0x9e, 0x1e, 0xbd,
  0xf0, 0xf9, 0x66, 0x3e, 0xcf, 0x46, 0x37, 0xbe, 0x21, 0xa5, 0x17, 0x3d,
  0xb0, 0xb5, 0xe7, 0x3d, 0xda, 0x73, 0x8f, 0xbd, 0xd6, 0x70, 0x68, 0x3e,
  0xf0, 0x58, 0x93, 0x3d, 0x5c, 0x9b, 0x66, 0xbe, 0x81, 0x7b, 0xe0, 0x3c,
  0xa3, 0x1a, 0x53, 0xbe, 0x57, 0xe5, 0xc1, 0xbd, 0x49, 0x3a, 0x41, 0xbe,
  0x28, 0x18, 0xeb, 0xbd, 0xcf, 0xa6, 0x0d, 0x3c, 0xaf, 0x66, 0x2b, 0xbe,
  0xb6, 0x63, 0x59, 0xbe, 0x8c, 0xcc, 0x62, 0x3e, 0x69, 0x3d, 0x36, 0xbe,
  0xd7, 0x88, 0x52, 0x3e, 0xac, 0xb8, 0x01, 0xbe, 0x1b, 0x51, 0xb5, 0xbd,
  0x86, 0x85, 0xc1, 0x3d, 0x16, 0x52, 0x48, 0xbe, 0xcc, 0x23, 0x4c, 0xbe,
  0x69, 0x41, 0x3a, 0x3e, 0x07, 0xda, 0xf4, 0x3d, 0x6c, 0x52, 0x0b, 0xbe,
  0x7e, 0x93, 0x25, 0x3e, 0x07, 0x84, 0x71, 0xbe, 0x79, 0x57, 0x73, 0x3d,
  0x73, 0x59, 0x41, 0x3e, 0x87, 0xf6, 0xfb, 0x3d, 0x31, 0xc4, 0x1b, 0xbd,
  0x36, 0xcb, 0x3c, 0xbe, 0x45, 0xef, 0x50, 0xbd, 0xd3, 0xf5, 0x30, 0x3e,
  0x57, 0x84, 0x5c, 0xbe, 0x15, 0xf3, 0x5a, 0xbe, 0x01, 0xdc, 0x9a, 0x3d,
  0x7c, 0x7d, 0xa1, 0xbd, 0xbe, 0x6f, 0x1e, 0xbe, 0xcc, 0x1b, 0x37, 0xbd,
  0x69, 0x33, 0xcd, 0xbd, 0x93, 0xa7, 0xe0, 0xbc, 0x19, 0x58, 0x13, 0x3e,
  0x58, 0x1e, 0x4a, 0x3e, 0x36, 0x6f, 0xfd, 0xbd, 0x7d, 0xf4, 0x3b, 0xbe,
  0x2d, 0x80, 0x46, 0x3e, 0x37, 0xf1, 0xe1, 0xbd, 0xe7, 0xce, 0xf3, 0xbc,
  0x12, 0x4d, 0xaa, 0x3c, 0xe2, 0x9c, 0x32, 0xbe, 0x93, 0xe9, 0xa6, 0xbd,
  0x2c, 0x3c, 0x4c, 0x3e, 0xc5, 0x81, 0x1b, 0x3e, 0x25, 0xa9, 0xce, 0x3d,
  0x62, 0x5d, 0x3d, 0x3e, 0x1c, 0x18, 0x40, 0xbd, 0x6e, 0x63, 0x24, 0xbb,
  0xfa, 0xa8, 0x1e, 0x3d, 0xce, 0xe1, 0x53, 0x3e, 0xbc, 0x2e, 0x29, 0xbe,
  0xf6, 0x17, 0x10, 0xbe, 0x85, 0x10, 0x2a, 0x3c, 0xca, 0xb1, 0x93, 0xbd,
  0xc6, 0x2f, 0x9c, 0xbd, 0x60, 0x8c, 0xc5, 0x3d, 0x1e, 0x33, 0x1a, 0x3e,
  0x03, 0xb8, 0xb9, 0xbd, 0x9e, 0x54, 0x04, 0xbe, 0xbc, 0x22, 0x31, 0xbe,
  0x86, 0x51, 0x62, 0xbe, 0x4e, 0x99, 0x96, 0xba, 0x3f, 0x90, 0xf8, 0xbd,
  0xef, 0xb7, 0x01, 0xbe, 0x21, 0xfc, 0x5b, 0x3e, 0x4f, 0xd8, 0x9a, 0xbd,
  0xe9, 0x39, 0x8d, 0xbc, 0x42, 0xff, 0x02, 0xbe, 0xff, 0xfe, 0xa6, 0x3c,
  0x19, 0x3e, 0xf5, 0x3c, 0xc2, 0xac, 0x6d, 0xbb, 0xbb, 0x3b, 0xb9, 0x3c,
  0xc8, 0xff, 0x3c, 0x3d, 0xa8, 0x9d, 0x5d, 0x3e, 0x18, 0xc8, 0x7e, 0x3d,
  0x1b, 0x76, 0xea, 0xbd, 0x26, 0xb8, 0x01, 0xbe, 0xfb, 0x85, 0x44, 0x3d,
  0xaa, 0xf3, 0x3f, 0x3e, 0x23, 0x55, 0xa3, 0x3d, 0xa5, 0x5c, 0xdd, 0x3d,
  0xad, 0x41, 0x4f, 0xbe, 0xa8, 0xa1, 0x5a, 0x3e, 0x2a, 0x48, 0xa6, 0xbc,
  0xbd, 0x38, 0x1b, 0x3e, 0x1a, 0x1e, 0x22, 0xbe, 0x2e, 0x20, 0x27, 0xbe,
  0x94, 0x1f, 0x06, 0x3e, 0xf8, 0x74, 0x62, 0xbe, 0x17, 0x6d, 0x46, 0x3e,
  0xfb, 0x91, 0x93, 0xbc, 0xeb, 0xe1, 0xd6, 0x3d, 0xde, 0x61, 0x24, 0x3e,
  0x71, 0x97, 0x39, 0x3e, 0x42, 0x58, 0xdb, 0x3d, 0x96, 0xbf, 0x17, 0xbe,
  0x6a, 0xc1, 0x64, 0xbe, 0x8b, 0xff, 0x3b, 0xbe, 0xdb, 0x93, 0x39, 0x3e,
  0x29, 0x71, 0x1c, 0xbe, 0x4b, 0x44, 0xe0, 0x3c, 0xad, 0xde, 0xe1, 0x3d,
  0xde, 0xe7, 0x59, 0x3e, 0xe2, 0xc5, 0x0a, 0x3e, 0x38, 0x3f, 0x45, 0xbc,
  0x75, 0x66, 0x81, 0x3d, 0x99, 0xc3, 0x29, 0x3e, 0x11, 0xe7, 0x14, 0x3e,
  0x06, 0x3e, 0x55, 0x3e, 0x4c, 0x2f, 0x42, 0x3e, 0x51, 0xd6, 0x3f, 0x3e,
  0x8a, 0x69, 0x45, 0x3e, 0x01, 0x66, 0x97, 0xbd, 0xa3, 0x37, 0xbe, 0x3d,
  0x56, 0xca, 0xac, 0xbd, 0x0c, 0x32, 0x39, 0x3d, 0x29, 0xb7, 0xf6, 0xbd,
  0xd9, 0x87, 0x3c, 0xbe, 0x04, 0x19, 0x0f, 0x3e, 0xb2, 0x8d, 0xeb, 0x3d,
  0x5b, 0xc5, 0x84, 0x3d, 0xfc, 0x8c, 0x01, 0xbc, 0x66, 0xe9, 0x9a, 0x3d,
  0x9a, 0x52, 0x7a, 0xbd, 0x0b, 0x84, 0x2d, 0xbd, 0xc5, 0x29, 0x3f, 0xbe,
  0x9e, 0xc7, 0x09, 0xbe, 0x07, 0xcc, 0x16, 0x3e, 0x0e, 0x00, 0x80, 0xbd,
  0x69, 0xe6, 0x64, 0xbd, 0xd7, 0x38, 0x15, 0x3e, 0x44, 0x79, 0x51, 0xbb,
  0x64, 0xe8, 0xf8, 0x3d, 0xe9, 0xce, 0x38, 0x3e, 0x11, 0xd4, 0x25, 0xbd,
  0x57, 0x94, 0x49, 0xbe, 0x33, 0xf1, 0x08, 0x3e, 0xde, 0x5c, 0x44, 0x3e,
  0xaa, 0xa7, 0x21, 0x3d, 0x93, 0xa5, 0x26, 0x3e, 0xbe, 0xa1, 0x40, 0xbe,
  0x78, 0xb6, 0x52, 0xbe, 0x83, 0xc6, 0x04, 0xbe, 0x7d, 0x35, 0x97, 0x3d,
  0x67, 0x8e, 0xf2, 0xbd, 0x92, 0x1b, 0x46, 0xbd, 0xd6, 0xe5, 0xab, 0xbd,
  0xac, 0xf6, 0x1e, 0xbd, 0x9b, 0xcd, 0xfe, 0xbd, 0x34, 0x46, 0x62, 0x3c,
  0xde, 0x48, 0xdd, 0x3b, 0x20, 0x42, 0xdf, 0xbc, 0xb4, 0xb9, 0xad, 0xbd,
  0xd0, 0x19, 0xf7, 0xbc, 0x24, 0x9d, 0x64, 0xbe, 0xc1, 0x1a, 0x7f, 0xbd,
  0x60, 0x9e, 0x25, 0xbe, 0xaa, 0x54, 0x09, 0x3e, 0x08, 0xf2, 0x80, 0xbd,
  0xb2, 0xb7, 0x20, 0x3e, 0x51, 0x63, 0x4f, 0x3e, 0xa2, 0x3e, 0x18, 0x3e,
  0xb3, 0xa7, 0x26, 0x3e, 0x3c, 0x30, 0x20, 0xbe, 0x1d, 0xd3, 0xfe, 0x3c,
  0xbc, 0x64, 0x16, 0xbe, 0x0c, 0xeb, 0x20, 0xbd, 0xc2, 0x34, 0x34, 0x3e,
  0xaa, 0xa4, 0x2c, 0xbe, 0x6c, 0x58, 0x12, 0xbd, 0x38, 0x7e, 0xbd, 0xbd,
  0x56, 0x0e, 0xf5, 0xbd, 0x4f, 0xce, 0x14, 0xbe, 0x43, 0x71, 0xcb, 0xbd,
  0xab, 0x92, 0x3a, 0x3e, 0x49, 0x41, 0x40, 0xbe, 0x94, 0xb5, 0x7d, 0x3c,
  0x7e, 0xf8, 0x74, 0xbc, 0xb0, 0xd5, 0xac, 0x3d, 0x9a, 0xb8, 0x3b, 0xbe,
  0xb9, 0x93, 0x47, 0x3e, 0x6e, 0x19, 0x14, 0x3d, 0xcd, 0x4a, 0x46, 0xbe,
  0x3d, 0xc1, 0x56, 0xbe, 0x56, 0x5d, 0x19, 0x3e, 0x50, 0xed, 0xcb, 0x3c,
  0x97, 0xe1, 0xbf, 0xbd, 0xe9, 0x31, 0x4a, 0x3e, 0x40, 0x02, 0x45, 0xbe,
  0xe7, 0x77, 0x35, 0xbe, 0x7c, 0xe0, 0xec, 0x3d, 0x91, 0x95, 0xcb, 0x3d,
  0xdf, 0x4b, 0x56, 0x3e, 0x10, 0xe9, 0x78, 0x3d, 0x52, 0x2e, 0x27, 0x3e,
  0xe9, 0x00, 0xd9, 0x3d, 0x17, 0xf8, 0x2e, 0x3e, 0xd2, 0xbe, 0x46, 0x3e,
  0x91, 0x66, 0x03, 0x3e, 0x77, 0xc8, 0x5b, 0xbe, 0xa6, 0x2b, 0x22, 0x3e,
  0x00, 0xf7, 0xc5, 0xbd, 0xb3, 0x5f, 0x47, 0x3e, 0x21, 0x79, 0xe8, 0xbd,
  0x17, 0xf9, 0x32, 0xbe, 0x6d, 0xfd, 0x54, 0x3d, 0xf4, 0x41, 0x39, 0xbd,
  0x96, 0xb4, 0x27, 0xbe, 0x13, 0x82, 0xc5, 0xbd, 0x73, 0x0d, 0xe5, 0x3d,
  0xd8, 0x38, 0x21, 0x3e, 0x54, 0xc5, 0x99, 0xbc, 0x4f, 0xb7, 0xd0, 0xbb,
  0x52, 0xf5, 0xb5, 0xbd, 0x8c, 0xd6, 0x2e, 0x3e, 0x2a, 0x09, 0xc5, 0x3d,
  0x1b, 0x05, 0x64, 0xbe, 0x2b, 0x6b, 0x51, 0xbe, 0x52, 0xe2, 0x8e, 0xbd,
  0x0d, 0xa7, 0x50, 0x3d, 0xe6, 0x3d, 0x33, 0xbc, 0x1d, 0x29, 0x1d, 0xbd,
  0xd7, 0x78, 0x20, 0x3e, 0xf8, 0xc6, 0xc3, 0xbd, 0x56, 0xd1, 0x2a, 0x3e,
  0xe5, 0x92, 0x24, 0x3e, 0x08, 0xbb, 0xa6, 0x3d, 0xea, 0x1e, 0xab, 0x3d,
  0x89, 0x77, 0xf0, 0xbc, 0xe8, 0x7b, 0x1b, 0x3d, 0xc8, 0x3d, 0xea, 0xbc,
  0xa3, 0x2b, 0x27, 0xbd, 0x36, 0x38, 0xbe, 0xbd, 0xe7, 0x1f, 0x5f, 0xbe,
  0x90, 0xc1, 0x6c, 0x3e, 0x09, 0xb5, 0xe7, 0x3d, 0xde, 0xb6, 0x5d, 0x3e,
  0x4f, 0x0d, 0xb8, 0x3d, 0xb3, 0x60, 0x6e, 0x3d, 0x3d, 0xbe, 0x91, 0xbd,
  0x17, 0xbc, 0x50, 0xbe, 0x2d, 0x04, 0xbc, 0xbc, 0x92, 0x11, 0x67, 0x3e,
  0x36, 0xa4, 0x07, 0xbe, 0xe8, 0xae, 0x35, 0xbe, 0x47, 0xc8, 0x17, 0xbd,
  0x4f, 0x4c, 0xa5, 0xbd, 0x84, 0x39, 0x7f, 0x3d, 0xa6, 0xb5, 0x18, 0x3e,
  0xee, 0x56, 0x69, 0x3e, 0x08, 0xc6, 0x51, 0xbe, 0x94, 0x73, 0x63, 0x3e,
  0x22, 0xd8, 0x3e, 0xbe, 0x80, 0x21, 0xf5, 0xbd, 0x12, 0xef, 0x3e, 0x3e,
  0x9c, 0xad, 0x70, 0xbd, 0x9c, 0x52, 0x3d, 0x3e, 0x1a, 0x38, 0xc1, 0x3d,
  0x9c, 0xbd, 0x8b, 0x3d, 0xb2, 0x44, 0xdc, 0x3d, 0xd4, 0x11, 0x37, 0xbe,
  0xa4, 0x75, 0xf6, 0xb9, 0xde, 0x85, 0x56, 0xbc, 0x17, 0x61, 0x2c, 0x3e,
  0xce, 0xbb, 0x8c, 0xbd, 0xf9, 0x0d, 0x01, 0xbd, 0xa3, 0xeb, 0xfa, 0x3d,
  0x09, 0x8a, 0x4e, 0x3e, 0x69, 0x5e, 0x36, 0x3e, 0xbd, 0x23, 0x31, 0x3e,
  0xf8, 0x8e, 0x6f, 0x3c, 0x4d, 0xf8, 0xcf, 0xbd, 0x38, 0x96, 0x2b, 0x3e,
  0x53, 0xbf, 0x2e, 0xbe, 0xd8, 0x0a, 0x30, 0xbe, 0x1d, 0xd6, 0x50, 0xbe,
  0x30, 0x84, 0x03, 0xbe, 0x19, 0x09, 0x4c, 0x3e, 0x1d, 0xb4, 0x60, 0x3e,
  0x19, 0x97, 0xe2, 0xbd, 0x43, 0xe1, 0x80, 0xbd, 0x7a, 0x32, 0xbe, 0x3d,
  0x06, 0x18, 0x46, 0x3e, 0x99, 0x91, 0x5b, 0x3d, 0x0c, 0x58, 0x8e, 0x3d,
  0x98, 0x7e, 0x45, 0xbe, 0x74, 0x6b, 0xad, 0x3d, 0x1d, 0xe1, 0xa9, 0xbc,
  0x40, 0x49, 0xfa, 0x3d, 0x6e, 0xcf, 0x4b, 0xbd, 0x1f, 0x05, 0xa3, 0x3d,
  0xb0, 0x06, 0x59, 0x3e, 0xc1, 0x96, 0x9f, 0x3d, 0xe8, 0x40, 0xe9, 0x3d,
  0x94, 0xcd, 0x0d, 0xbb, 0xd5, 0x39, 0x40, 0x3e, 0x0c, 0x88, 0x6d, 0xbd,
  0xc1, 0x7c, 0x23, 0x3e, 0xcd, 0x09, 0x45, 0xbe, 0xc2, 0x9f, 0x3c, 0xbe,
  0xe1, 0x6c, 0x96, 0xbd, 0x34, 0x1a, 0xa7, 0xbd, 0x90, 0x25, 0x24, 0x3b,
  0xa8, 0x06, 0x40, 0xbc, 0x3e, 0xbd, 0x03, 0xbe, 0x13, 0x49, 0x54, 0xbe,
  0x72, 0x70, 0x74, 0x3e, 0xde, 0x3e, 0x12, 0x3e, 0xde, 0xef, 0x05, 0x3e,
  0x08, 0x03, 0x77, 0x3b, 0x0f, 0x0d, 0xb7, 0x3c, 0x15, 0xaf, 0x11, 0xbe,
  0x26, 0x3e, 0x02, 0xbe, 0x0d, 0x87, 0x60, 0xbe, 0x1e, 0xc1, 0x14, 0x3e,
  0x05, 0x78, 0xd2, 0x3d, 0xa0, 0xdd, 0x24, 0x3e, 0x35, 0x6e, 0x55, 0x3e,
  0x14, 0x37, 0x2b, 0xbe, 0x25, 0xba, 0x5e, 0x3e, 0x79, 0xd8, 0xdd, 0xbd,
  0xf4, 0x01, 0x45, 0x3b, 0x77, 0x04, 0x73, 0xbd, 0x65, 0x8f, 0x5f, 0xbe,
  0x69, 0xc3, 0x54, 0x3e, 0x08, 0x58, 0x19, 0x3e, 0xd2, 0x5e, 0xf8, 0x3c,
  0xae, 0xc5, 0x4b, 0x3d, 0x9f, 0x35, 0x37, 0x3e, 0x14, 0xfc, 0xad, 0x3b,
  0x6b, 0xfd, 0x4b, 0x3e, 0xca, 0xb7, 0x16, 0xbe, 0x03, 0x18, 0xdf, 0x3d,
  0x07, 0xf6, 0xa2, 0xbd, 0xc5, 0x1b, 0xe5, 0xbd, 0x43, 0x70, 0x0f, 0xbd,
  0x02, 0x34, 0xdc, 0x3c, 0xee, 0x47, 0x01, 0x3e, 0x07, 0xdc, 0x0f, 0xbe,
  0x2c, 0x32, 0x3b, 0xbe, 0x2e, 0x2f, 0x00, 0x3e, 0x4c, 0xd0, 0x3c, 0x3c,
  0x71, 0x0c, 0x2c, 0xbe, 0x13, 0x61, 0x40, 0x3e, 0x7c, 0x89, 0x06, 0x3e,
  0x8c, 0xa3, 0x53, 0x3d, 0x54, 0x02, 0xea, 0xbc, 0x9c, 0x01, 0xfb, 0x3d,
  0x16, 0xcb, 0x06, 0x3e, 0xc0, 0x35, 0x65, 0x3c, 0x58, 0x6d, 0x94, 0xbc,
  0xc4, 0xe9, 0xb0, 0x3d, 0x3a, 0xd7, 0x0f, 0xbe, 0xee, 0xa4, 0x2a, 0x3e,
  0x00, 0xc6, 0x48, 0xbc, 0x61, 0x41, 0x22, 0xbe, 0x43, 0x33, 0xf4, 0x3c,
  0xd9, 0x8d, 0x02, 0x3e, 0xf0, 0xea, 0x34, 0x3d, 0xf1, 0x66, 0x8a, 0xbd,
  0x2b, 0xef, 0xf5, 0x3d, 0x7f, 0xa5, 0x40, 0xbe, 0x3f, 0x0c, 0x1f, 0xbe,
  0x8f, 0x61, 0x4f, 0xbe, 0x8c, 0x08, 0x28, 0xbe, 0x86, 0x51, 0xdb, 0xbd,
  0x02, 0x2a, 0xac, 0xbc, 0x88, 0x1c, 0x40, 0x3e, 0xda, 0xd4, 0x9e, 0x3c,
  0x78, 0xae, 0x29, 0x3e, 0x11, 0x5f, 0x40, 0xbe, 0x76, 0xf3, 0x21, 0x3e,
  0xb3, 0x5c, 0xc2, 0xbd, 0x35, 0x97, 0x6c, 0xbe, 0x3f, 0x86, 0x1c, 0xbe,
  0x13, 0x8b, 0x4c, 0x3d, 0x58, 0x39, 0x49, 0x3e, 0x6e, 0x9c, 0x55, 0xbe,
  0xfa, 0x94, 0xaa, 0xbd, 0xd6, 0xc5, 0x02, 0xbd, 0xf4, 0xdc, 0x1a, 0xbe,
  0x34, 0xa1, 0x9c, 0x3d, 0xf1, 0xb8, 0x9b, 0xbd, 0x54, 0x5c, 0xe5, 0xbc,
  0x46, 0x67, 0x9c, 0xbd, 0x43, 0x9d, 0x69, 0xbe, 0x0d, 0x57, 0xd2, 0x3d,
  0x5a, 0xdb, 0x1f, 0xbe, 0x71, 0x5a, 0x3b, 0xbc, 0x90, 0xb8, 0x1f, 0x3e,
  0xf4, 0x52, 0x72, 0xbe, 0xcc, 0x95, 0x2b, 0x3e, 0x4b, 0xfa, 0x5f, 0xbe,
  0xc8, 0x47, 0x20, 0x3d, 0xe2, 0x33, 0x13, 0x3e, 0x46, 0x11, 0xad, 0x3d,
  0xa8, 0xbd, 0x84, 0x3d, 0x5c, 0xca, 0xb4, 0xbd, 0x20, 0xad, 0x85, 0xbd,
  0x2a, 0xaa, 0x8f, 0xbd, 0x24, 0x6c, 0xd0, 0x3d, 0x88, 0xcb, 0x39, 0x3e,
  0xce, 0x53, 0x49, 0x3e, 0x20, 0xbf, 0x70, 0xbc, 0x64, 0x2a, 0x6c, 0xbd,
  0x1b, 0xc5, 0x91, 0x3c, 0x97, 0x1e, 0xb2, 0xbd, 0x9b, 0x05, 0x40, 0xbe,
  0xa4, 0x88, 0x2a, 0xbe, 0x4d, 0x6a, 0x4b, 0xbe, 0xf0, 0x33, 0xbc, 0x3d,
  0x1e, 0xfc, 0x19, 0xbe, 0x30, 0xfe, 0x18, 0x3d, 0x99, 0x29, 0x20, 0xbe,
  0xad, 0x78, 0xdd, 0xbd, 0x6f, 0xff, 0x58, 0xbe, 0xf7, 0xba, 0xf6, 0x3d,
  0x89, 0xbd, 0xaa, 0x3d, 0x04, 0x40, 0xc2, 0xbd, 0x55, 0x09, 0x38, 0xbe,
  0x6b, 0x8f, 0x11, 0x3e, 0x9b, 0x27, 0x0a, 0xbe, 0xbd, 0x58, 0xf6, 0xbd,
  0x23, 0xeb, 0x37, 0xbe, 0x30, 0xb0, 0xc3, 0x3c, 0xd1, 0xc8, 0x9d, 0xbd,
  0xdd, 0x78, 0x0a, 0xbd, 0xd8, 0x1a, 0x90, 0xbd, 0xbf, 0xd3, 0xa0, 0x3d,
  0xa5, 0x26, 0x41, 0xbe, 0x25, 0x02, 0x19, 0xbe, 0xa8, 0x00, 0x65, 0x3d,
  0x09, 0x7c, 0x5f, 0xbd, 0xfa, 0xe4, 0x23, 0x3e, 0x9d, 0xfc, 0x65, 0xbe,
  0x1a, 0xef, 0xae, 0x3c, 0x4b, 0x32, 0x04, 0xbe, 0x25, 0xa6, 0x28, 0xbe,
  0xc4, 0x03, 0xed, 0x3d, 0xbd, 0x18, 0x8a, 0xbc, 0x67, 0xa8, 0xce, 0x3d,
  0xf5, 0x40, 0x21, 0x3e, 0x8c, 0x49, 0x1d, 0xbb, 0xd9, 0xbc, 0xbf, 0x3d,
  0xd4, 0x9c, 0x8b, 0x3d, 0xc4, 0x9b, 0x09, 0x3e, 0xe4, 0xaf, 0xc1, 0x3d,
  0xf2, 0xf0, 0x42, 0xbe, 0x04, 0xb6, 0x20, 0x3e, 0x76, 0x40, 0x02, 0x3e,
  0x6c, 0x9f, 0x24, 0xbe, 0xa8, 0x00, 0xf2, 0x3d, 0x6c, 0xf4, 0x43, 0xbd,
  0x58, 0x70, 0x2d, 0x3e, 0xbf, 0x63, 0x7a, 0x3d, 0xf8, 0xa8, 0x6b, 0xbd,
  0x29, 0x6d, 0x33, 0xbe, 0x68, 0xea, 0x5e, 0xbd, 0xe8, 0x30, 0x20, 0x3e,
  0xcc, 0x4f, 0xfd, 0x3d, 0x4b, 0x2d, 0x8d, 0xbd, 0x2e, 0x90, 0xb3, 0xbd,
  0x67, 0xff, 0xbf, 0xbd, 0x4e, 0x7c, 0xa2, 0x3b, 0x9f, 0x59, 0x22, 0x3e,
  0xf1, 0x2f, 0x13, 0x3e, 0x26, 0xbf, 0xa5, 0x3d, 0x1d, 0x02, 0x40, 0x3e,
  0xca, 0x25, 0x56, 0xbe, 0x12, 0x32, 0xdd, 0xbd, 0x12, 0x26, 0x6e, 0xbe,
  0x8b, 0x74, 0xff, 0xbd, 0x25, 0xd5, 0x46, 0x3e, 0xd8, 0x8c, 0x8b, 0xbc,
  0x07, 0x49, 0x0a, 0x3e, 0xb0, 0x2d, 0xb9, 0x3d, 0x7b, 0x99, 0x82, 0xbd,
  0x4e, 0xb4, 0x36, 0xbe, 0x9c, 0x19, 0x06, 0xbe, 0xb2, 0x39, 0xd6, 0xbd,
  0xa0, 0x06, 0xfd, 0x3c, 0x33, 0x46, 0x8b, 0xbc, 0x20, 0xa9, 0x2c, 0xbe,
  0x64, 0x10, 0x2c, 0xbe, 0x27, 0xa0, 0x69, 0xbb, 0x9b, 0xfc, 0x82, 0xbc,
  0x6a, 0xda, 0x8f, 0x3c, 0x48, 0x97, 0xb7, 0x3d, 0x0f, 0xdb, 0x69, 0xbd,
  0x64, 0x4a, 0x41, 0x3e, 0xb7, 0x57, 0x0f, 0xbe, 0x4b, 0x51, 0xf4, 0x3c,
  0xe8, 0xde, 0xec, 0x3d, 0x70, 0xa7, 0xe4, 0x3d, 0x50, 0xc1, 0x41, 0x3d,
  0x9a, 0xa9, 0x07, 0x3e, 0x49, 0xcb, 0x5e, 0x3e, 0x9d, 0x18, 0x95, 0xbd,
  0xf4, 0xba, 0x88, 0x3d, 0x97, 0x85, 0x99, 0xbd, 0xa0, 0xfe, 0xbc, 0x3b,
  0xcc, 0x9a, 0xb3, 0xbd, 0x6f, 0x68, 0x7e, 0xbc, 0x61, 0xd8, 0x1e, 0x3e,
  0xd1, 0x92, 0x2a, 0xbd, 0xa2, 0x59, 0x19, 0x3d, 0x22, 0x23, 0x0f, 0xbe,
  0x63, 0xa7, 0x82, 0xbc, 0x38, 0x2a, 0xa8, 0xbd, 0xf7, 0xbc, 0x7c, 0xbd,
  0x1a, 0x09, 0x6f, 0xbd, 0x96, 0x5b, 0xca, 0x3d, 0x5e, 0xf0, 0x51, 0x3d,
  0xb4, 0x44, 0x23, 0x3e, 0x37, 0x9e, 0x25, 0xbe, 0x25, 0x74, 0x30, 0x3d,
  0x7d, 0xd4, 0xb8, 0xbd, 0x69, 0x9f, 0x34, 0x3e, 0x3f, 0x43, 0x16, 0x3e,
  0x17, 0x24, 0x33, 0x3e, 0x52, 0x07, 0x26, 0xbe, 0xa8, 0x9c, 0x41, 0xbd,
  0xb8, 0x2a, 0xd5, 0x3c, 0x54, 0x6e, 0x1b, 0xbe, 0x99, 0xe3, 0x86, 0xbc,
  0x23, 0x62, 0xad, 0xbd, 0xb8, 0x51, 0x0f, 0xbe, 0x5a, 0x0f, 0xe5, 0x3d,
  0xb4, 0x6f, 0x40, 0xbe, 0xe4, 0x3c, 0x0d, 0x3d, 0x2b, 0xb5, 0xf9, 0xbc,
  0x9f, 0x0e, 0x40, 0x3e, 0x28, 0x08, 0xd9, 0xbd, 0x4a, 0xc0, 0x7e, 0x3c,
  0xe1, 0x84, 0x0c, 0x3e, 0x28, 0x7d, 0xcf, 0x3d, 0xd2, 0x6e, 0x3a, 0x3e,
  0xab, 0x50, 0xd2, 0x3d, 0xd3, 0x02, 0x17, 0xbe, 0x12, 0xc1, 0x10, 0x3e,
  0x3b, 0x60, 0xec, 0x3d, 0x28, 0xa6, 0xe6, 0xbc, 0x63, 0x1e, 0x4f, 0xbe,
  0x20, 0xa0, 0x7e, 0xbc, 0x2f, 0xfa, 0xda, 0xbd, 0xac, 0x4b, 0x00, 0xbd,
  0x94, 0xb3, 0x14, 0xbe, 0x70, 0x7d, 0xf2, 0x3d, 0xe0, 0xdf, 0x12, 0x3e,
  0x00, 0x95, 0xa7, 0x3d, 0xba, 0xe3, 0x17, 0x3e, 0xd8, 0xce, 0x37, 0x3e,
  0x6a, 0xe3, 0x0b, 0xbe, 0x0c, 0xe3, 0xb6, 0xbd, 0x2f, 0x75, 0x89, 0xbd,
  0x9c, 0xda, 0x80, 0x3d, 0x06, 0x35, 0x84, 0x3d, 0x85, 0x6d, 0x15, 0x3e,
  0x5b, 0xc9, 0x8c, 0x3d, 0x81, 0xd8, 0xaf, 0xbc, 0x24, 0xdf, 0x56, 0xbe,
  0xbb, 0x31, 0xba, 0x3d, 0x10, 0x1f, 0x39, 0x3d, 0x79, 0xbc, 0x71, 0xbd,
  0xc4, 0x1e, 0x18, 0xbe, 0x0b, 0xe7, 0x50, 0xbe, 0xf3, 0x1e, 0xe0, 0x3d,
  0xc2, 0x2f, 0xe2, 0xbb, 0x49, 0x11, 0x2c, 0x3e, 0xc3, 0x82, 0xf8, 0xbd,
  0x90, 0xef, 0x48, 0x3e, 0x92, 0x4e, 0x1d, 0xbe, 0x64, 0xe9, 0x36, 0x3e,
  0xda, 0x61, 0x8e, 0xbb, 0x07, 0xd3, 0x66, 0xbe, 0x6b, 0x25, 0xe0, 0xbd,
  0x87, 0x7c, 0x0a, 0xba, 0x12, 0x00, 0xab, 0xbd, 0x44, 0xd3, 0xa6, 0xbd,
  0x5f, 0x58, 0x34, 0xbe, 0x4f, 0xb5, 0x93, 0xbd, 0x25, 0x04, 0x3f, 0x3e,
  0x13, 0xfd, 0x57, 0x3d, 0xd9, 0x2f, 0xb5, 0xbd, 0xae, 0xa1, 0x3c, 0xbe,
  0x00, 0x02, 0x72, 0xba, 0xa1, 0x94, 0x4a, 0x3e, 0xea, 0xf2, 0xe4, 0xbc,
  0xfe, 0x82, 0x4f, 0xbd, 0xe2, 0xc4, 0x16, 0xbc, 0xc5, 0xc0, 0x01, 0xbe,
  0x96, 0x4b, 0xd5, 0x3c, 0xfe, 0x7e, 0x1e, 0xbe, 0xbc, 0xf7, 0x25, 0xbe,
  0x48, 0x30, 0x68, 0xbe, 0xec, 0x7b, 0x62, 0x3e, 0x75, 0x5b, 0x68, 0xbe,
  0xfa, 0x64, 0x8a, 0xbd, 0x76, 0x59, 0x99, 0xbd, 0xe8, 0xee, 0x92, 0x3d,
  0x0e, 0xd9, 0x29, 0xbd, 0x21, 0x02, 0x9c, 0x3d, 0x3e, 0xbd, 0x27, 0x3e,
  0x9b, 0xba, 0x54, 0xbe, 0x98, 0x0f, 0xa4, 0x3c, 0x98, 0x6b, 0x10, 0xbe,
  0xe6, 0x33, 0xcf, 0x3d, 0x23, 0x94, 0xf9, 0xbd, 0x09, 0xf8, 0x31, 0xbe,
  0x30, 0x7d, 0x5b, 0x3e, 0xc5, 0x87, 0x00, 0xbe, 0xba, 0x7c, 0x88, 0x3d,
  0x64, 0xec, 0x42, 0xbe, 0x02, 0x8c, 0xa9, 0x3d, 0x40, 0xf8, 0x43, 0xbd,
  0x2c, 0x5a, 0xea, 0xbd, 0x10, 0xcc, 0x75, 0x3e, 0x34, 0x92, 0x4d, 0xbe,
  0x2a, 0x0f, 0xc6, 0x3d, 0xfb, 0xcd, 0x58, 0x3e, 0xde, 0x18, 0xf7, 0x3d,
  0x46, 0xce, 0x22, 0x3e, 0x3f, 0x16, 0x39, 0xbe, 0xa9, 0xfd, 0x16, 0x3e,
  0x6f, 0x04, 0xda, 0xbd, 0xa8, 0x56, 0x52, 0xbe, 0x8a, 0x72, 0x08, 0xbc,
  0xce, 0x34, 0x58, 0x3e, 0xa5, 0x8a, 0xdc, 0x3c, 0x07, 0xd9, 0xed, 0xbd,
  0xb8, 0xc2, 0x39, 0xbe, 0xf5, 0xb7, 0x10, 0x3c, 0x62, 0x6c, 0x05, 0x3c,
  0x9b, 0x5e, 0x10, 0xbe, 0x00, 0x02, 0xb9, 0xb9, 0x96, 0x42, 0x4e, 0xbe,
  0x53, 0x6e, 0x8b, 0x3c, 0xb4, 0xf3, 0xdb, 0xbd, 0xdf, 0x39, 0x77, 0x3d,
  0x10, 0x69, 0x0a, 0x3e, 0x1f, 0x52, 0xdb, 0xbd, 0x20, 0x27, 0x6a, 0x3e,
  0x66, 0xd6, 0x95, 0xbd, 0xe2, 0xa5, 0xa9, 0xbd, 0x90, 0xd0, 0xec, 0x3d,
  0x6f, 0x6e, 0xb3, 0xbd, 0xeb, 0x89, 0xb5, 0xbd, 0xd0, 0x39, 0xbc, 0x3d,
  0xf0, 0xac, 0x72, 0x3c, 0x76, 0x78, 0xbb, 0xbc, 0xdd, 0x42, 0x36, 0x3e,
  0x91, 0xa9, 0x82, 0xbd, 0x96, 0x23, 0x27, 0xbc, 0x5d, 0xe3, 0x03, 0x3e,
  0x99, 0xfa, 0x77, 0x3d, 0xe1, 0x49, 0x48, 0x3e, 0x2b, 0xdb, 0xc6, 0xbd,
  0x8d, 0xa4, 0x02, 0x3e, 0xf3, 0xac, 0x4f, 0xbd, 0xac, 0x2b, 0x6e, 0x3d,
  0x45, 0xb0, 0x0a, 0x3e, 0xef, 0x61, 0x5d, 0x3e, 0xc3, 0xc3, 0xcc, 0xbd,
  0xad, 0x88, 0x27, 0x3d, 0xd2, 0xbb, 0x72, 0x3d, 0xdd, 0x19, 0x1c, 0x3e,
  0x28, 0xf3, 0xa7, 0x3d, 0xca, 0xc7, 0x73, 0x3e, 0xe9, 0xbe, 0x25, 0x3e,
  0xdd, 0x4b, 0x37, 0xbe, 0x0c, 0x3b, 0x32, 0x3d, 0x0f, 0xa8, 0xd2, 0xbd,
  0xf3, 0x39, 0x38, 0x3e, 0x27, 0x1f, 0x45, 0xbe, 0x46, 0x1c, 0x4c, 0xbc,
  0x48, 0x2a, 0xda, 0x3d, 0x1b, 0xa5, 0x03, 0x3e, 0x91, 0x53, 0x29, 0xbe,
  0x38, 0xeb, 0xc5, 0x3d, 0xbd, 0xec, 0xa4, 0xbd, 0xb9, 0x40, 0x30, 0x3e,
  0xfa, 0x9b, 0x90, 0xbd, 0xde, 0x7b, 0x3f, 0x3d, 0x22, 0x34, 0x66, 0x3e,
  0xa3, 0x27, 0x61, 0x3e, 0xda, 0x6e, 0x38, 0x3d, 0xda, 0xe2, 0xb2, 0x3c,
  0x4f, 0x1b, 0x5a, 0xbe, 0x6e, 0x90, 0x0f, 0x3e, 0x0a, 0xaf, 0x26, 0xbd,
  0x58, 0xdf, 0xc8, 0xbd, 0xd0, 0x17, 0x17, 0xbe, 0x94, 0xf0, 0xab, 0xbc,
  0xb1, 0x7e, 0x38, 0x3c, 0x88, 0xb7, 0x27, 0x3e, 0xec, 0x28, 0xad, 0xbb,
  0x3e, 0xdf, 0x02, 0x3e, 0x84, 0x3a, 0x0c, 0xbe, 0x52, 0x6e, 0x02, 0xbe,
  0x97, 0x2d, 0x14, 0xbe, 0xca, 0xb5, 0x74, 0xbe, 0x8f, 0x94, 0x06, 0xbe,
  0x92, 0x1f, 0x72, 0x3e, 0xbd, 0xab, 0x1b, 0x3e, 0x75, 0xc8, 0x81, 0x3d,
  0xa7, 0xd8, 0x43, 0xbe, 0xe9, 0xd9, 0xf6, 0x3c, 0x96, 0x92, 0x30, 0x3e,
  0xd1, 0x39, 0x1b, 0xbe, 0x46, 0x94, 0x5b, 0xbe, 0x05, 0x35, 0x97, 0xbd,
  0x71, 0xeb, 0x45, 0x3e, 0x8b, 0x7b, 0xa6, 0x3d, 0xf4, 0x69, 0xd9, 0xbd,
  0x70, 0xcf, 0x10, 0xbe, 0xc2, 0x05, 0xc9, 0xb9, 0xbf, 0xb8, 0xf5, 0x3d,
  0x0d, 0xfa, 0x54, 0xbd, 0x73, 0x44, 0x49, 0xbe, 0xc2, 0x38, 0x58, 0x3e,
  0x86, 0x4f, 0xcf, 0xba, 0x9b, 0x56, 0x5f, 0x3e, 0x13, 0x7e, 0x2a, 0xbd,
  0x72, 0xf5, 0x07, 0x3d, 0xc4, 0x81, 0x1b, 0xbd, 0x6e, 0xc4, 0x44, 0xbe,
  0xde, 0x39, 0xf9, 0x3d, 0x4b, 0x02, 0x86, 0x3b, 0x0e, 0x6a, 0x60, 0xbe,
  0xa9, 0xe7, 0x6c, 0x3c, 0xcc, 0x6d, 0xd8, 0x3c, 0x6e, 0x20, 0x56, 0x3c,
  0x40, 0xfb, 0x8e, 0xbc, 0x5e, 0x6e, 0x4a, 0xbd, 0x68, 0x0b, 0x0f, 0x3e,
  0xd1, 0x72, 0xe5, 0x3a, 0xd4, 0xe3, 0x43, 0x3c, 0x35, 0x34, 0x8f, 0xbc,
  0xc4, 0x17, 0x11, 0x3b, 0x00, 0x13, 0x68, 0x3b, 0x07, 0x66, 0x25, 0xbe,
  0x19, 0x33, 0xa2, 0xbd, 0x56, 0x62, 0xb1, 0x3d, 0xa0, 0xc4, 0x11, 0x3e,
  0x8e, 0x77, 0x33, 0x3d, 0x74, 0x12, 0x47, 0xbd, 0x6a, 0x78, 0x58, 0x3e,
  0x43, 0x85, 0x18, 0x3d, 0x23, 0x33, 0x02, 0xbe, 0x01, 0xae, 0x2d, 0xbe,
  0xa3, 0x44, 0x0c, 0xbd, 0x5c, 0x0e, 0x8e, 0x3d, 0x8d, 0xa6, 0x7c, 0xbd,
  0x43, 0xbe, 0xba, 0xbd, 0x82, 0x62, 0x49, 0x3e, 0x74, 0x1c, 0x5c, 0x3e,
  0xb0, 0xa8, 0xa4, 0x3c, 0x78, 0x20, 0x59, 0x3e, 0x39, 0xca, 0xb4, 0x3b,
  0x10, 0x60, 0x36, 0xbe, 0x5a, 0xb9, 0x0a, 0x3e, 0x2e, 0x4c, 0x42, 0xbe,
  0xc8, 0x3f, 0x15, 0x3e, 0xc3, 0x68, 0x53, 0x3e, 0x28, 0x09, 0x19, 0xbd,
  0x93, 0x44, 0x56, 0xbd, 0xde, 0x1c, 0x29, 0xbe, 0xfa, 0xae, 0x9f, 0xbc,
  0x13, 0x72, 0xda, 0x3d, 0x8b, 0x34, 0xd4, 0x3c, 0x67, 0xf3, 0x0d, 0x3e,
  0x22, 0x96, 0x3f, 0x3e, 0x27, 0x7c, 0x3c, 0x3e, 0x9f, 0x16, 0xbe, 0xbd,
  0x58, 0x80, 0x25, 0x3d, 0xe4, 0x28, 0x3d, 0x3e, 0x2b, 0xf1, 0x44, 0x3e,
  0xe3, 0xb6, 0x1f, 0x3c, 0x6f, 0x07, 0xff, 0x3c, 0x54, 0x7b, 0x5c, 0xbe,
  0xbc, 0x15, 0x66, 0x3d, 0xdc, 0xf8, 0xe8, 0x3d, 0xf4, 0x33, 0x7c, 0xbc,
  0xce, 0xdb, 0x4f, 0x3e, 0xae, 0x74, 0xbf, 0x3c, 0x2b, 0x28, 0x85, 0xbd,
  0xd3, 0xc0, 0xfe, 0x3d, 0x16, 0x36, 0x98, 0x3d, 0x78, 0x66, 0xec, 0x3d,
  0x60, 0x51, 0xa9, 0x3d, 0xa3, 0x4f, 0xeb, 0x3c, 0xdd, 0xdd, 0xb2, 0xbd,
  0x85, 0x87, 0xc2, 0xbd, 0x5b, 0xfb, 0x04, 0xbe, 0xb8, 0x2c, 0xbc, 0x3d,
  0x94, 0x9c, 0x13, 0xbe, 0xdb, 0x7e, 0x1a, 0x3e, 0xd8, 0x22, 0x95, 0x3c,
  0x78, 0x04, 0xf2, 0xbd, 0x93, 0x54, 0xcf, 0x3d, 0xe8, 0xcc, 0x30, 0x3e,
  0x1e, 0x58, 0x23, 0x3d, 0xd7, 0x41, 0x88, 0xbc, 0x9a, 0xfa, 0x52, 0x3d,
  0xa3, 0x6d, 0x54, 0xbd, 0xf5, 0xa1, 0x68, 0xbe, 0x43, 0x5c, 0x6f, 0xbe,
  0x97, 0xdf, 0x96, 0x3c, 0xdc, 0xf3, 0x2f, 0xbe, 0xd8, 0x11, 0x91, 0xbd,
  0xe8, 0x14, 0x3c, 0x3e, 0x5d, 0x46, 0x26, 0xbc, 0xb5, 0x35, 0x46, 0x3e,
  0x51, 0xd4, 0xf7, 0x3d, 0xe4, 0x61, 0xe8, 0xbc, 0x45, 0x3f, 0x6c, 0x3e,
  0x1e, 0x0c, 0x5d, 0xbe, 0x9a, 0xc8, 0xb6, 0xbd, 0xf9, 0x6d, 0x51, 0xbc,
  0x3b, 0x9b, 0x3e, 0x3e, 0x99, 0xc9, 0x34, 0xbe, 0xcd, 0xf1, 0x43, 0xbe,
  0xf0, 0xd0, 0xf6, 0xbc, 0x05, 0xfd, 0x03, 0x3e, 0xbf, 0xf9, 0x2a, 0x3d,
  0x1e, 0x20, 0xd9, 0x3d, 0x3a, 0xcb, 0xcf, 0x3d, 0x59, 0x1e, 0xb4, 0xbd,
  0x66, 0x40, 0x4b, 0x3e, 0xc5, 0x51, 0x1d, 0x3e, 0x70, 0xa6, 0x62, 0x3d,
  0x31, 0x91, 0xb0, 0xbd, 0x9e, 0x87, 0x85, 0x3c, 0x95, 0x7c, 0x3e, 0x3e,
  0x2b, 0x7c, 0x64, 0xbd, 0x64, 0xf2, 0x49, 0x3d, 0x97, 0x40, 0x38, 0x3e,
  0xac, 0xa2, 0x93, 0xbd, 0xf2, 0x48, 0xd7, 0x3d, 0x0f, 0x0a, 0xd0, 0x3c,
  0x05, 0x91, 0x9f, 0xbd, 0x83, 0x43, 0x03, 0x3e, 0x41, 0xb3, 0xfe, 0xbd,
  0x3a, 0xfb, 0x54, 0xbe, 0x36, 0x92, 0xa6, 0xbd, 0x53, 0xc2, 0x3e, 0x3e,
  0x21, 0x86, 0x55, 0xbe, 0xac, 0xed, 0xeb, 0x3d, 0x1e, 0x16, 0xa1, 0xbd,
  0x0c, 0x1a, 0xbc, 0x3d, 0x17, 0x67, 0x00, 0xbe, 0xf6, 0xee, 0xd7, 0x3c,
  0xa7, 0xd0, 0x66, 0x3d, 0x79, 0xbe, 0x24, 0xbe, 0x0e, 0x5a, 0xce, 0xbd,
  0xba, 0xb7, 0x5f, 0xbe, 0xd2, 0x1c, 0x07, 0xbe, 0x2f, 0x88, 0x99, 0xbd,
  0xc5, 0x79, 0xb8, 0x3d, 0xb1, 0xc4, 0xa8, 0x3b, 0x9d, 0xb1, 0x54, 0x3d,
  0x89, 0xcd, 0x7b, 0x3d, 0xa0, 0x2b, 0x59, 0x3e, 0xa5, 0x8b, 0x08, 0x3e,
  0x85, 0x48, 0x0a, 0x3e, 0x53, 0xb1, 0x32, 0xbd, 0x43, 0xb9, 0xe3, 0x3d,
  0x86, 0x91, 0x58, 0xbe, 0x34, 0x8b, 0x0b, 0xbe, 0x82, 0x2b, 0x4f, 0xbe,
  0xf2, 0xf5, 0x2d, 0x3e, 0x1a, 0xab, 0x0a, 0xbe, 0x9a, 0xb5, 0x4c, 0x3e,
  0x5d, 0x22, 0xe3, 0x3d, 0x5b, 0x29, 0x09, 0xbc, 0xba, 0x3a, 0x2b, 0x3e,
  0xb2, 0x90, 0x45, 0x3e, 0x10, 0x94, 0x45, 0xbe, 0x3c, 0x28, 0x0c, 0x3e,
  0xac, 0x59, 0xa0, 0xbd, 0x9f, 0x80, 0x70, 0xbe, 0x9c, 0x02, 0xa7, 0x3d,
  0x24, 0xbb, 0x9c, 0x3d, 0xbf, 0x36, 0x5d, 0x3e, 0xf4, 0x2f, 0x16, 0x3e,
  0x25, 0xd0, 0x67, 0x3e, 0x3a, 0xb1, 0x10, 0x3e, 0x60, 0xd4, 0x39, 0x3d,
  0x1c, 0xe9, 0xb2, 0x3c, 0x2f, 0xda, 0x16, 0x3e, 0x60, 0x44, 0x0b, 0xbd,
  0x8e, 0x55, 0xbe, 0x3d, 0x4c, 0x62, 0x2f, 0x3e, 0xae, 0xa3, 0x93, 0xbd,
  0x57, 0x06, 0xd4, 0xbd, 0x83, 0x25, 0x19, 0x3e, 0xfa, 0x53, 0x06, 0xbd,
  0x54, 0x5e, 0x25, 0xbe, 0x86, 0x00, 0x3c, 0x3e, 0x0c, 0x92, 0x69, 0xbe,
  0x1a, 0x65, 0x1b, 0xbd, 0xc3, 0x33, 0x80, 0xbd, 0x96, 0x1d, 0x3c, 0x3e,
  0x2f, 0xab, 0x35, 0xbe, 0x44, 0x39, 0xba, 0x3d, 0x96, 0xa2, 0x93, 0x3c,
  0x79, 0x60, 0x82, 0xbd, 0x0a, 0x86, 0xcc, 0xbd, 0x76, 0x46, 0x5a, 0x3e,
  0x27, 0xcb, 0x52, 0xbe, 0x09, 0x62, 0x5a, 0xbc, 0xc9, 0x28, 0x61, 0x3d,
  0x65, 0x57, 0x82, 0xbd, 0x15, 0x63, 0x4c, 0x3d, 0x20, 0x43, 0x09, 0xbe,
  0x44, 0x99, 0x8b, 0xbd, 0x83, 0xfc, 0xb3, 0xbd, 0xaf, 0x93, 0x17, 0xbe,
  0xd7, 0xda, 0x55, 0xbe, 0x61, 0xe6, 0x0c, 0xbe, 0x7e, 0x2b, 0x35, 0x3e,
  0xa8, 0x3c, 0x4a, 0x3e, 0xa8, 0x2c, 0x2e, 0xbe, 0xc8, 0x10, 0x95, 0xbd,
  0x50, 0x79, 0x08, 0xbc, 0x14, 0xcb, 0xe4, 0x3d, 0x4b, 0x20, 0x22, 0x3d,
  0x6f, 0x6c, 0x5c, 0xbd, 0x00, 0x68, 0xd9, 0x3c, 0x98, 0xc5, 0x3e, 0xbe,
  0x87, 0x10, 0x0e, 0xbe, 0xd1, 0x8f, 0x32, 0xbc, 0xa9, 0xcc, 0x0d, 0xbe,
  0xb7, 0x55, 0xf6, 0x3c, 0xe9, 0x9f, 0x5f, 0x3e, 0x0c, 0x88, 0xca, 0xbd,
  0x4c, 0xdd, 0x3c, 0x3e, 0xdc, 0x2c, 0x7a, 0xbd, 0x8c, 0x3d, 0xe3, 0x3d,
  0x7d, 0x1f, 0x2e, 0x3e, 0x08, 0x14, 0x21, 0xbe, 0x14, 0x14, 0x95, 0x3d,
  0x92, 0xb0, 0x50, 0x3e, 0x67, 0x29, 0x67, 0xbc, 0xe9, 0x9c, 0xa4, 0x3c,
  0x45, 0xb6, 0xa9, 0x3d, 0xca, 0x44, 0xce, 0xbd, 0x53, 0xdb, 0xf7, 0x3c,
  0x16, 0xcb, 0x93, 0xbc, 0xed, 0xa7, 0x50, 0xbe, 0x9d, 0xf5, 0xd6, 0x3d,
  0xed, 0x8e, 0x00, 0xbd, 0x2b, 0xce, 0xe4, 0x3d, 0xaf, 0x09, 0x61, 0x3e,
  0x8c, 0xa7, 0x07, 0xbe, 0x2c, 0x1a, 0x06, 0x3e, 0x21, 0xf0, 0xc8, 0x3c,
  0x3f, 0xf9, 0xc9, 0x3d, 0x13, 0x5c, 0xd7, 0xbc, 0x48, 0x70, 0xcd, 0x3d,
  0xc8, 0xaa, 0x3e, 0xbe, 0xdd, 0x2b, 0x13, 0xbe, 0x48, 0x79, 0x42, 0xbe,
  0x0d, 0x60, 0xea, 0x3d, 0x1e, 0x8e, 0x36, 0xbe, 0xc5, 0x7f, 0x5e, 0xbd,
  0x5b, 0xde, 0x4f, 0xbd, 0x3e, 0x1a, 0x31, 0xbe, 0xe4, 0x94, 0xc3, 0xbc,
  0xab, 0xdd, 0xef, 0xbd, 0x19, 0x3d, 0x30, 0x3e, 0xa3, 0xe8, 0x2d, 0x3d,
  0xd2, 0x93, 0x88, 0xbd, 0xfe, 0xa5, 0x3b, 0xbe, 0x4a, 0x29, 0x0e, 0xbe,
  0xbf, 0xf0, 0x5d, 0x3e, 0xbe, 0x9f, 0x5c, 0xbe, 0x00, 0x85, 0xeb, 0x3a,
  0x24, 0xbe, 0x15, 0xbe, 0xd6, 0x55, 0xfc, 0x3d, 0x65, 0xcf, 0xc2, 0xbd,
  0xd7, 0x7c, 0x38, 0xbe, 0x24, 0x0e, 0x3b, 0xbd, 0xa5, 0x9d, 0xda, 0x3d,
  0x70, 0x70, 0xa7, 0xbc, 0x0b, 0x0e, 0x43, 0x3e, 0x4f, 0x66, 0xbe, 0xbd,
  0x22, 0x59, 0x3e, 0xbe, 0x48, 0x11, 0x0e, 0x3d, 0xd8, 0x45, 0xc5, 0x3d,
  0x82, 0x2c, 0x1b, 0x3e, 0x96, 0x49, 0x4f, 0x3d, 0x53, 0xcf, 0xa8, 0xbd,
  0xe8, 0x3d, 0x08, 0xbe, 0xd1, 0x7c, 0x49, 0xbe, 0x1a, 0x90, 0x9b, 0x3d,
  0xad, 0x7e, 0xd8, 0x3d, 0x66, 0x31, 0x4b, 0xbe, 0xd8, 0xa3, 0xa6, 0x3d,
  0x4c, 0x3d, 0x03, 0xbe, 0x11, 0x88, 0x68, 0xbe, 0x9d, 0x91, 0x0f, 0xbd,
  0x51, 0x08, 0xbb, 0xbd, 0x79, 0x67, 0xce, 0x3d, 0x95, 0xe6, 0x44, 0xbe,
  0x51, 0xba, 0x66, 0x3e, 0x05, 0x05, 0x07, 0x3e, 0x18, 0xbf, 0x22, 0xbe,
  0xfb, 0x8f, 0x43, 0x3e, 0x01, 0x9b, 0x1f, 0xbe, 0x03, 0xef, 0x79, 0x3c,
  0x96, 0x68, 0x6b, 0x3d, 0x9d, 0x67, 0x43, 0x3e, 0xbb, 0x36, 0xa4, 0xbd,
  0xb1, 0x0e, 0x19, 0xbd, 0xdc, 0xc6, 0x4c, 0x3e, 0xd8, 0x97, 0x37, 0x3e,
  0x2b, 0xe2, 0x33, 0x3e, 0xb0, 0x33, 0x9d, 0x3d, 0x03, 0xde, 0xdc, 0x3d,
  0x84, 0xfb, 0xae, 0xba, 0xc2, 0x54, 0xf3, 0xbd, 0xf9, 0x8b, 0x23, 0xbd,
  0xbf, 0x7d, 0xd1, 0xbd, 0x2c, 0xc8, 0x2b, 0x3e, 0x60, 0x03, 0x69, 0xbe,
  0x34, 0xc8, 0x34, 0xbe, 0x81, 0xbb, 0x6b, 0x3e, 0xb0, 0xb7, 0xed, 0xbd,
  0x1f, 0x21, 0x7a, 0xbd, 0x08, 0xd2, 0x21, 0xbc, 0x6a, 0xf2, 0x0e, 0xbe,
  0x55, 0x26, 0x42, 0xbe, 0x7e, 0x7b, 0x19, 0x3e, 0xee, 0x27, 0x3e, 0x3e,
  0xbc, 0x87, 0x04, 0x3e, 0x00, 0xa7, 0x11, 0xbb, 0x56, 0xdd, 0xa6, 0x3c,
  0x76, 0x76, 0x43, 0x3e, 0x44, 0xc1, 0x8f, 0xbd, 0x54, 0xe4, 0x9a, 0x3d,
  0x25, 0x9d, 0x60, 0xbe, 0xda, 0xb3, 0x08, 0x3e, 0x90, 0xaf, 0x2f, 0xbe,
  0x0f, 0xc4, 0x44, 0xbc, 0xc5, 0x29, 0x80, 0x3d, 0x37, 0x85, 0xb2, 0xbd,
  0x5e, 0x7c, 0x5c, 0xbe, 0xe7, 0xa9, 0x3a, 0xbd, 0x13, 0xa0, 0x4a, 0xbe,
  0x75, 0x91, 0x37, 0x3e, 0xa1, 0x49, 0x6e, 0xbe, 0x1d, 0xe7, 0x5f, 0x3d,
  0x1e, 0x98, 0x14, 0xbe, 0xae, 0x06, 0x8d, 0xbc, 0xec, 0x23, 0x4c, 0x3e,
  0xe5, 0xeb, 0x09, 0x3e, 0x4b, 0xd0, 0x09, 0xbe, 0x01, 0xd5, 0x2a, 0xbd,
  0x70, 0x28, 0x2d, 0xbe, 0x77, 0xe6, 0x6a, 0xbc, 0x25, 0xc6, 0x98, 0xbc,
  0xec, 0x51, 0xea, 0x3d, 0x70, 0x84, 0x2f, 0xbe, 0x7b, 0x40, 0x05, 0xbe,
  0x1c, 0x5e, 0x12, 0x3e, 0x21, 0x06, 0xaa, 0xbd, 0xd2, 0xe4, 0xb0, 0x3d,
  0xc8, 0xde, 0x64, 0x3e, 0x61, 0x34, 0x90, 0xbd, 0x87, 0x20, 0xdc, 0xbd,
  0x9c, 0x03, 0x74, 0xbe, 0x71, 0x85, 0x1d, 0xbe, 0x64, 0xda, 0xe5, 0x3d,
  0xd6, 0x8e, 0xb0, 0xbc, 0x75, 0x69, 0x3e, 0xbe, 0x5c, 0x63, 0xfa, 0xbd,
  0x08, 0xca, 0x62, 0xbe, 0xb7, 0x1c, 0x96, 0x3d, 0xc6, 0xbd, 0x13, 0xbc,
  0x58, 0x6c, 0x18, 0x3e, 0xde, 0xd8, 0xbd, 0x3d, 0x45, 0x85, 0x0b, 0xbe,
  0x90, 0x16, 0x12, 0x3d, 0x37, 0x2d, 0x3f, 0xbe, 0xd3, 0x0d, 0x54, 0x3d,
  0x31, 0xa6, 0x59, 0xbe, 0x51, 0x48, 0xbe, 0x3a, 0x7a, 0x45, 0x3d, 0xbe,
  0x28, 0x47, 0x19, 0x3d, 0x1b, 0xe8, 0xba, 0xbd, 0x9a, 0xc2, 0x19, 0xbe,
  0xd2, 0x8a, 0x59, 0xbe, 0x19, 0xac, 0x5c, 0xbe, 0x35, 0x0b, 0x57, 0x3d,
  0xa0, 0x46, 0x10, 0x3e, 0x66, 0x1d, 0xe5, 0x3d, 0xda, 0x07, 0x57, 0x3e,
  0xa1, 0x10, 0x87, 0x3d, 0xe6, 0x73, 0x90, 0x3d, 0x3f, 0x81, 0x67, 0x3e,
  0xcc, 0x7b, 0x2a, 0x3e, 0xb7, 0xf5, 0x56, 0x3e, 0xe9, 0xe7, 0xfd, 0x3d,
  0xc0, 0x4d, 0x32, 0xbe, 0xe4, 0xad, 0x2f, 0xbe, 0xaa, 0x68, 0x32, 0x3e,
  0xa4, 0xda, 0xa3, 0xbd, 0x0b, 0xa9, 0xa4, 0xbd, 0x77, 0xab, 0x32, 0xbe,
  0xe6, 0x54, 0x02, 0xbe, 0x3b, 0xcc, 0x54, 0x3c, 0x56, 0x19, 0xaf, 0x3d,
  0x3d, 0xe6, 0x51, 0x3e, 0x8b, 0x18, 0x28, 0xbe, 0xb3, 0x45, 0xf6, 0xbd,
  0x80, 0xf5, 0x94, 0x3c, 0x24, 0x0a, 0x76, 0xbd, 0xdd, 0x70, 0x00, 0x3e,
  0x62, 0x21, 0x21, 0x3e, 0xb0, 0xfd, 0xb1, 0x3c, 0x49, 0x15, 0x23, 0xbd,
  0xd7, 0x8a, 0x1d, 0x3e, 0xcc, 0x21, 0x68, 0xbe, 0x0e, 0xce, 0x01, 0x3e,
  0xae, 0xde, 0x22, 0xbe, 0x81, 0xf2, 0x7c, 0x3d, 0x4c, 0xbb, 0x98, 0xbd,
  0x27, 0x0f, 0xed, 0x3c, 0xdd, 0x4e, 0xbf, 0xbd, 0x32, 0xbd, 0x57, 0xbe,
  0x96, 0x57, 0xa7, 0xbd, 0x80, 0x42, 0x48, 0xbd, 0x7b, 0x07, 0xa7, 0xbd,
  0x61, 0x16, 0x49, 0x3e, 0x80, 0x98, 0xd4, 0xbb, 0x9d, 0x6f, 0xd6, 0x3d,
  0xe4, 0xa0, 0x55, 0xbd, 0x68, 0x91, 0x30, 0xbe, 0x7f, 0x1b, 0x95, 0x3d,
  0x8f, 0xc3, 0x31, 0x3e, 0xbc, 0x68, 0x55, 0x3e, 0x85, 0xf0, 0xa8, 0x3c,
  0x3e, 0x2f, 0xfe, 0x3d, 0xa7, 0xec, 0x41, 0xbd, 0xcd, 0x2b, 0x2d, 0xbe,
  0xda, 0x56, 0x15, 0x3d, 0x0a, 0xb2, 0x18, 0xbe, 0x99, 0xcf, 0xab, 0x3d,
  0xe2, 0x33, 0x2b, 0x3e, 0x1e, 0x99, 0x0a, 0xbe, 0x0b, 0x8c, 0x2a, 0x3d,
  0x4d, 0x5a, 0x53, 0x3e, 0x85, 0x5f, 0xf2, 0x3d, 0x99, 0xa6, 0xc3, 0x3d,
  0x7c, 0xfd, 0xcb, 0x3d, 0x2f, 0x55, 0x60, 0xbe, 0x6a, 0xe8, 0x88, 0xbd,
  0x98, 0x15, 0x4c, 0xbc, 0x77, 0x96, 0x0e, 0xbe, 0x63, 0xcf, 0xea, 0x3d,
  0x00, 0x30, 0x04, 0x3d, 0xef, 0xa3, 0x3d, 0xbe, 0xd0, 0xa3, 0x00, 0xbe,
  0x3e, 0xd5, 0x48, 0xbe, 0xd2, 0x1c, 0x48, 0x3e, 0x9d, 0x2f, 0xc4, 0xbd,
  0x5c, 0xda, 0x45, 0xbe, 0xbf, 0x37, 0x49, 0xbe, 0x16, 0x81, 0x48, 0xbe,
  0x8d, 0x54, 0x18, 0xbe, 0x38, 0xd8, 0x94, 0xbd, 0x10, 0x8c, 0x1e, 0xbe,
  0x0a, 0xc7, 0x3b, 0x3e, 0x84, 0x29, 0xe3, 0x3c, 0xfe, 0x0a, 0x9e, 0x3d,
  0x6d, 0xd6, 0x75, 0x3d, 0x33, 0x22, 0x57, 0xbe, 0x11, 0x3a, 0x2f, 0xbc,
  0x12, 0xd5, 0x73, 0xbd, 0x2a, 0x44, 0xbd, 0xbd, 0xda, 0xb4, 0xa3, 0xbd,
  0x30, 0xe0, 0x18, 0xbe, 0xf5, 0xb2, 0x80, 0x3d, 0x48, 0xd7, 0xb1, 0xbd,
  0xb6, 0x5e, 0x9d, 0x3c, 0x3c, 0xc5, 0xa1, 0xbd, 0x30, 0xa9, 0x4a, 0x3e,
  0x15, 0xce, 0x1d, 0x3e, 0x93, 0xb7, 0x69, 0x3e, 0xaf, 0x77, 0x47, 0x3e,
  0x18, 0xab, 0xf6, 0xbd, 0x41, 0xe0, 0x3b, 0x3e, 0xbd, 0x82, 0x4f, 0x3e,
  0xc2, 0xbb, 0x39, 0x3e, 0x63, 0xd8, 0x65, 0x3e, 0x6b, 0x96, 0x1d, 0x3d,
  0xb2, 0xae, 0x3c, 0x3e, 0xc0, 0x68, 0xb9, 0xbd, 0x8d, 0x90, 0x1f, 0x3e,
  0xc2, 0x1b, 0xdf, 0xbd, 0x4a, 0xf8, 0xa3, 0xbd, 0x89, 0x36, 0x51, 0x3e,
  0xf8, 0xb4, 0x6e, 0xbd, 0x8e, 0x2f, 0xf9, 0xbd, 0xe0, 0x51, 0x41, 0x3e,
  0xec, 0x18, 0xbd, 0xba, 0x52, 0xbb, 0xb2, 0x3d, 0x7b, 0xd0, 0xb6, 0xbd,
  0xbe, 0xec, 0x1a, 0x3c, 0x5b, 0xa2, 0xa6, 0x3d, 0xaa, 0x05, 0xd0, 0x3d,
  0x1f, 0xe8, 0x1a, 0xbe, 0xb7, 0x88, 0x5d, 0xbd, 0xeb, 0x9a, 0xa8, 0x3d,
  0xfb, 0x46, 0xc0, 0xbd, 0x98, 0xcd, 0xa4, 0xbb, 0xdc, 0x00, 0x39, 0xbe,
  0x5f, 0x0e, 0xa3, 0x3d, 0x0e, 0x13, 0xd0, 0xbd, 0xec, 0xda, 0x4c, 0x3e,
  0xe2, 0x5d, 0x54, 0xbe, 0xf6, 0xaa, 0xeb, 0xbd, 0xd6, 0x5a, 0x1f, 0xbe,
  0xae, 0x84, 0x51, 0xbe, 0xaf, 0xd8, 0x49, 0xbe, 0x5c, 0x7a, 0xc6, 0x3d,
  0x60, 0xdf, 0xd0, 0xbd, 0xe1, 0x57, 0x14, 0xbe, 0x00, 0x53, 0x4b, 0x3d,
  0xa8, 0xcb, 0xc5, 0xbc, 0xba, 0xff, 0xe3, 0x3c, 0x79, 0xd2, 0xd2, 0x3d,
  0x62, 0x2e, 0x1b, 0x3e, 0x72, 0x59, 0xd8, 0xbd, 0x10, 0x26, 0x31, 0x3d,
  0x70, 0xa3, 0xea, 0xbd, 0x66, 0x8a, 0x1d, 0x3e, 0xc3, 0xa4, 0x5d, 0x3e,
  0xdf, 0xf3, 0x08, 0x3e, 0xa3, 0x70, 0x6c, 0xbe, 0xa1, 0x88, 0x61, 0xbd,
  0xcd, 0x33, 0x11, 0xbe, 0x72, 0x30, 0x33, 0xbe, 0x05, 0x62, 0xfd, 0xbd,
  0x68, 0x43, 0x19, 0xbe, 0x71, 0xb2, 0x6e, 0xbc, 0xd7, 0xde, 0xaa, 0xbd,
  0x77, 0x0d, 0xdb, 0x3a, 0x25, 0xf8, 0x87, 0xbc, 0xe1, 0x88, 0xad, 0xbc,
  0x47, 0xad, 0x11, 0xbe, 0x19, 0xe5, 0x83, 0xbd, 0x64, 0x0e, 0xb6, 0x3d,
  0xed, 0xc7, 0x2e, 0x3e, 0xbb, 0xe5, 0x0c, 0xbe, 0x15, 0xad, 0x40, 0x3e,
  0xcc, 0x9b, 0x8c, 0xbd, 0x54, 0x0b, 0xa1, 0xbd, 0x57, 0x54, 0x94, 0x3d,
  0x41, 0xa5, 0x53, 0xbe, 0x03, 0xa4, 0x52, 0xbe, 0x05, 0xcc, 0x62, 0xbe,
  0x67, 0xf6, 0x2f, 0xbc, 0x1a, 0x2a, 0x1d, 0x3e, 0xb7, 0xbb, 0x23, 0x3d,
  0xce, 0x94, 0x1a, 0xbe, 0x87, 0xca, 0xb5, 0xbd, 0xe7, 0x0b, 0xc8, 0xbd,
  0x1f, 0xab, 0xc4, 0x3d, 0xf6, 0x0c, 0xe9, 0x3c, 0x52, 0x79, 0x56, 0x3e,
  0x93, 0x56, 0xf2, 0xbc, 0xf5, 0xba, 0x05, 0xbd, 0x85, 0xa5, 0x60, 0xbe,
  0xe9, 0xc6, 0x60, 0x3e, 0xd0, 0x10, 0xa6, 0xbd, 0x44, 0x76, 0x2d, 0xbd,
  0xd0, 0x29, 0xf0, 0x3c, 0xb8, 0xef, 0x06, 0x3e, 0x11, 0x70, 0xa8, 0x3d,
  0x55, 0x66, 0xbf, 0x3d, 0xa6, 0x20, 0x1e, 0x3e, 0x32, 0xe7, 0x1e, 0xbe,
  0x74, 0x69, 0x46, 0x3e, 0x94, 0x54, 0x4f, 0xbd, 0xa4, 0xe4, 0x40, 0x3e,
  0x41, 0x54, 0xc2, 0xbd, 0xa9, 0x2e, 0xbf, 0xbd, 0x95, 0xe8, 0x1c, 0xbe,
  0x63, 0xeb, 0x36, 0x3e, 0xe0, 0xe8, 0xf5, 0xbd, 0xed, 0xdf, 0x8c, 0xbd,
  0xea, 0xde, 0x06, 0xbe, 0x42, 0x22, 0xd1, 0x3d, 0x3a, 0x02, 0x16, 0x3e,
  0x88, 0x33, 0x0d, 0x3d, 0x48, 0xba, 0x6e, 0xbe, 0x14, 0x95, 0x47, 0xbe,
  0x73, 0x7e, 0x98, 0x3d, 0xc4, 0x4c, 0x88, 0xbd, 0xd2, 0xfe, 0xbc, 0xbc,
  0xd2, 0x5c, 0xc1, 0x3b, 0x75, 0xce, 0x80, 0xbd, 0x7c, 0xf8, 0x3c, 0x3e,
  0x7b, 0x91, 0x1a, 0x3e, 0x5a, 0x09, 0x16, 0xbd, 0x6b, 0x38, 0xd2, 0xbd,
  0x52, 0x25, 0x30, 0x3d, 0x4b, 0xe1, 0x2c, 0x3e, 0x10, 0x0a, 0x06, 0xbe,
  0x80, 0xf9, 0xb8, 0xb9, 0xfa, 0xa0, 0xd1, 0x3d, 0x44, 0x4b, 0xf7, 0xbd,
  0x79, 0xa3, 0xdd, 0x3c, 0x9d, 0xee, 0x26, 0x3d, 0x6f, 0xa2, 0xc0, 0x3d,
  0xb1, 0x47, 0x56, 0x3d, 0xc9, 0xe2, 0x58, 0x3e, 0x8d, 0x71, 0x11, 0x3e,
  0x24, 0x56, 0x21, 0xbe, 0xcd, 0xf7, 0x4e, 0x3e, 0x06, 0xb5, 0x26, 0x3e,
  0x4a, 0xe3, 0xb2, 0x3d, 0x40, 0x7e, 0x09, 0xbe, 0x6e, 0x25, 0xa3, 0xbc,
  0xe1, 0x89, 0x42, 0xbe, 0xe4, 0xaf, 0x21, 0xbe, 0x64, 0x69, 0x64, 0xbe,
  0x84, 0xb0, 0x5e, 0xbe, 0xb1, 0x9a, 0x24, 0x3e, 0xdf, 0xa9, 0x97, 0xbd,
  0x4e, 0xe0, 0xc5, 0x3d, 0x2d, 0xc8, 0x0f, 0xbe, 0x1e, 0x48, 0x23, 0x3e,
  0x4d, 0x21, 0x34, 0xbe, 0xdd, 0x0d, 0x61, 0xbe, 0x6b, 0xd0, 0x90, 0x3d,
  0xf5, 0x58, 0x98, 0xbd, 0xed, 0x16, 0x12, 0xbe, 0x1a, 0xc0, 0xb5, 0xbc,
  0x2a, 0x76, 0x48, 0xbe, 0x9b, 0xe1, 0x83, 0x3d, 0x34, 0x42, 0x0c, 0xbe,
  0x6c, 0x9b, 0x89, 0x3c, 0x3a, 0x37, 0x6a, 0x3d, 0x62, 0xce, 0x29, 0x3e,
  0x50, 0x3f, 0x30, 0xbe, 0x07, 0xe2, 0x52, 0x3c, 0x6c, 0xd4, 0x11, 0x3d,
  0x90, 0xb7, 0x3a, 0xbe, 0xd5, 0xd4, 0xb1, 0x3d, 0x53, 0xaf, 0x5a, 0x3e,
  0xb4, 0x33, 0x2a, 0x3e, 0x39, 0xb3, 0x44, 0x3e, 0x6a, 0xde, 0x5d, 0xbc,
  0x25, 0xb6, 0xec, 0xbd, 0x94, 0xa6, 0x04, 0x3e, 0xbb, 0x14, 0x21, 0x3e,
  0xc5, 0x30, 0x5e, 0x3e, 0xc5, 0xef, 0x5a, 0xbe, 0xa6, 0x8e, 0xb2, 0xbd,
  0xc4, 0xf3, 0x20, 0x3e, 0x8c, 0xaa, 0x4f, 0x3e, 0x1b, 0xdb, 0xd9, 0xbd,
  0xf5, 0xbd, 0x65, 0xbc, 0x01, 0xa3, 0x35, 0xbd, 0x6d, 0x23, 0x61, 0x3e,
  0x51, 0xa6, 0x14, 0xbe, 0x27, 0xfa, 0xf6, 0xbd, 0x32, 0xbf, 0xa1, 0xbd,
  0xe3, 0x58, 0x0d, 0xbe, 0xb2, 0xdc, 0xb6, 0x3d, 0xf1, 0xe5, 0xe7, 0xbc,
  0x63, 0x98, 0x91, 0xbd, 0xc3, 0x91, 0x14, 0x3e, 0x24, 0x90, 0xe6, 0x3d,
  0x0d, 0x1c, 0xc0, 0xbd, 0x59, 0xe5, 0xd9, 0x3c, 0xc3, 0x17, 0xfd, 0x3d,
  0x74, 0xf7, 0x9d, 0x3d, 0xc8, 0x52, 0x8a, 0xbd, 0xe8, 0x98, 0xe2, 0xbc,
  0xe6, 0xf3, 0xde, 0xbd, 0x03, 0x23, 0x6d, 0x3d, 0x5f, 0x9f, 0xab, 0x3b,
  0x36, 0x85, 0x73, 0xbc, 0x83, 0x1f, 0x22, 0xbe, 0x3f, 0x72, 0x6e, 0xbd,
  0xb5, 0x8c, 0xe9, 0x3c, 0xdf, 0x20, 0x3e, 0x3e, 0x91, 0xd1, 0x10, 0xbe,
  0x1a, 0xe1, 0xd5, 0xbd, 0xc5, 0xf4, 0x5d, 0x3e, 0xe2, 0xa1, 0x4a, 0x3e,
  0x20, 0xc6, 0x93, 0x3d, 0xf8, 0x6a, 0x1d, 0x3e, 0x8a, 0x27, 0x10, 0x3e,
  0x58, 0x69, 0xb8, 0xbd, 0x34, 0x51, 0x00, 0xbe, 0x11, 0x0b, 0x87, 0xbd,
  0xe0, 0xd9, 0x9b, 0xbd, 0x07, 0x9d, 0x1d, 0x3e, 0x7a, 0x73, 0xa9, 0xbd,
  0xc6, 0x4d, 0x61, 0x3e, 0x23, 0x1d, 0xde, 0xbc, 0x34, 0x6c, 0x4b, 0x3b,
  0x06, 0xca, 0xf4, 0xbd, 0x32, 0x2e, 0x25, 0xbe, 0x3b, 0xc1, 0xe2, 0x3c,
  0xfd, 0x40, 0xaa, 0xbd, 0x89, 0x44, 0xa5, 0xbd, 0x29, 0x81, 0xd1, 0xbd,
  0x2e, 0xd8, 0x74, 0x3e, 0x2b, 0xaf, 0xd0, 0x3c, 0xc0, 0x27, 0x3e, 0x3e,
  0x55, 0xb7, 0x09, 0x3e, 0xfe, 0xe5, 0xc6, 0xbc, 0x80, 0x31, 0xc7, 0x3c,
  0x1b, 0x57, 0xdb, 0x3d, 0x3c, 0x2d, 0xb2, 0xbd, 0x59, 0x1b, 0x95, 0x3d,
  0x5b, 0x79, 0xfb, 0x3d, 0xbd, 0x6f, 0x07, 0x3d, 0xd5, 0x52, 0x55, 0x3e,
  0x6e, 0x49, 0x43, 0xbe, 0x67, 0xa5, 0x53, 0xbe, 0xe6, 0xd2, 0xfd, 0xba,
  0x8d, 0x95, 0x53, 0xbe, 0x0c, 0x80, 0x62, 0xbd, 0xaa, 0xee, 0x2f, 0x3d,
  0x0c, 0x47, 0xdd, 0x3d, 0x6a, 0x72, 0x6a, 0xbe, 0x00, 0x9b, 0x67, 0xbd,
  0xe4, 0x4a, 0x02, 0x3e, 0x50, 0xe6, 0x51, 0xbe, 0x0f, 0xb4, 0x09, 0xbe,
  0x26, 0xb8, 0xca, 0xbd, 0x8e, 0xa1, 0x49, 0xbe, 0xe6, 0x21, 0x99, 0xbd,
  0x59, 0xff, 0x3e, 0xbe, 0xaa, 0xb4, 0xef, 0x3d, 0xdd, 0x4d, 0xe2, 0xbc,
  0xa6, 0xb1, 0x10, 0x3e, 0x21, 0x0f, 0xb0, 0xbc, 0x5d, 0xc5, 0x08, 0x3e,
  0x5f, 0x9f, 0x1a, 0xbe, 0x57, 0xc6, 0x30, 0x3e, 0x25, 0x56, 0x20, 0xbe,
  0xd2, 0xe9, 0x40, 0x3d, 0x00, 0xd4, 0x18, 0x3d, 0x56, 0x4a, 0x7e, 0x3d,
  0xe5, 0xbb, 0x0d, 0xbe, 0xa5, 0x5e, 0xc5, 0x3d, 0xaf, 0x80, 0x97, 0xbc,
  0x1b, 0x23, 0xb2, 0x3d, 0x2c, 0x38, 0x00, 0x3e, 0x3d, 0x94, 0xd7, 0xbc,
  0xfd, 0xbf, 0xb6, 0x3d, 0xe7, 0xee, 0xb0, 0x3d, 0xe4, 0x49, 0x47, 0x3d,
  0x63, 0x0f, 0x05, 0x3e, 0x85, 0x23, 0xab, 0xbc, 0x4a, 0x09, 0x50, 0xbe,
  0x5d, 0x7a, 0xde, 0x3d, 0xa0, 0xae, 0x24, 0xbc, 0x46, 0x92, 0x7e, 0xbd,
  0xe6, 0x96, 0x12, 0xbe, 0xed, 0x42, 0x50, 0xbe, 0x41, 0xcd, 0xec, 0xbd,
  0x25, 0xa1, 0x35, 0xbe, 0xa8, 0x50, 0xf8, 0xbd, 0x1d, 0xe4, 0x45, 0x3e,
  0x38, 0x27, 0xf0, 0xbd, 0xcc, 0x30, 0x4b, 0xbe, 0x72, 0x68, 0x59, 0x3e,
  0x56, 0x2a, 0x5f, 0xbe, 0x69, 0x31, 0x48, 0xbe, 0xd3, 0x41, 0xff, 0x3d,
  0x2f, 0x36, 0x67, 0xbc, 0xe2, 0xc0, 0x33, 0x3e, 0x09, 0xd7, 0x68, 0x3e,
  0xb4, 0x8f, 0x44, 0xbe, 0x30, 0x1a, 0xc8, 0x3d, 0x44, 0x14, 0xda, 0x3d,
  0x20, 0xc5, 0x46, 0x3e, 0x8d, 0xb9, 0x05, 0xbe, 0xac, 0x88, 0x89, 0xbd,
  0xc2, 0xfe, 0xdb, 0x3d, 0x26, 0x0a, 0xd5, 0x3d, 0xdc, 0x44, 0x01, 0xbe,
  0x1c, 0x9a, 0x8b, 0xbc, 0x9e, 0xa8, 0x52, 0xba, 0x05, 0xfc, 0x25, 0xbe,
  0x1d, 0x3b, 0x72, 0x3d, 0x84, 0x6b, 0x17, 0xbd, 0x53, 0x85, 0x07, 0xbe,
  0x23, 0xf1, 0xe2, 0xbd, 0x55, 0xd5, 0x28, 0x3e, 0x88, 0x8c, 0x20, 0xbe,
  0xf8, 0x5a, 0x27, 0x3e, 0x0d, 0x01, 0x05, 0x3e, 0x09, 0xc2, 0x39, 0x3c,
  0x47, 0x3a, 0x79, 0xbd, 0x75, 0xfd, 0x39, 0xbe, 0xf6, 0x5d, 0xa3, 0xbb,
  0x88, 0x0d, 0xa5, 0x3d, 0x28, 0x1a, 0xa7, 0xbb, 0x3b, 0xb6, 0x83, 0x3c,
  0xe6, 0xf3, 0x30, 0x3e, 0x11, 0x09, 0xb1, 0xbd, 0xc0, 0x16, 0x13, 0x3d,
  0x8d, 0x5c, 0x2e, 0xbe, 0x63, 0x8d, 0x2c, 0x3e, 0x33, 0xe1, 0x27, 0xbe,
  0x54, 0x94, 0xeb, 0x3d, 0x48, 0xc9, 0x3c, 0x3d, 0xff, 0x6d, 0xac, 0x3d,
  0x0a, 0x5a, 0xd5, 0x3d, 0xea, 0x3b, 0x50, 0x3e, 0xd9, 0x96, 0x5d, 0x3d,
  0x0f, 0x95, 0x62, 0xbd, 0x56, 0xf0, 0x0d, 0xbe, 0xcc, 0xd0, 0xcd, 0xbd,
  0x5c, 0x4a, 0x9f, 0xbd, 0xf3, 0x18, 0x53, 0x3e, 0x51, 0x6d, 0x34, 0xbe,
  0x5e, 0xb2, 0x0b, 0x3e, 0x02, 0x6f, 0x18, 0xbe, 0x76, 0x90, 0x4f, 0x3e,
  0x60, 0x8a, 0xa4, 0xbb, 0xd3, 0x8b, 0xfe, 0xba, 0x5e, 0x8e, 0x81, 0xbc,
  0xa8, 0xe1, 0x8e, 0xbc, 0xdb, 0x6f, 0x1a, 0xbe, 0x44, 0xd7, 0x05, 0xbe,
  0xc5, 0xa9, 0x89, 0xbd, 0xb7, 0x8f, 0xa5, 0xbd, 0xbb, 0xc8, 0xcc, 0x3d,
  0x8b, 0x2b, 0xaa, 0x3d, 0x51, 0xa9, 0x3e, 0x3e, 0xae, 0xd3, 0x2a, 0xbe,
  0x6f, 0x4f, 0x61, 0x3e, 0x31, 0x73, 0x90, 0x3c, 0x1b, 0xba, 0xb5, 0x3d,
  0x28, 0xe7, 0x22, 0x3e, 0x9b, 0xe4, 0xd4, 0xbd, 0xe6, 0x32, 0x00, 0xbe,
  0x21, 0x08, 0x5f, 0xbd, 0xf0, 0xfe, 0x4d, 0xbe, 0x04, 0x98, 0x60, 0x3e,
  0xb2, 0x68, 0x48, 0xbe, 0xc2, 0xbe, 0x17, 0x3c, 0xee, 0x65, 0x00, 0x3c,
  0xe9, 0x2e, 0x1b, 0x3e, 0x9b, 0x6b, 0x40, 0x3e, 0x82, 0x10, 0x36, 0x3b,
  0x50, 0xb9, 0x4d, 0x3d, 0x2d, 0x7d, 0x86, 0xbd, 0xc8, 0xec, 0x23, 0xbe,
  0xe8, 0x07, 0x31, 0xbb, 0x45, 0x11, 0x42, 0xbe, 0x3d, 0x5a, 0x1e, 0x3e,
  0x66, 0xf1, 0x5f, 0x3e, 0x2e, 0xa0, 0x0b, 0x3e, 0x13, 0xb5, 0x69, 0xbe,
  0x72, 0x09, 0x34, 0xbe, 0x9f, 0xd9, 0x18, 0x3e, 0xa0, 0x29, 0x31, 0x3e,
  0xeb, 0x18, 0x37, 0xbe, 0x32, 0x03, 0xb5, 0x3d, 0x1b, 0x1a, 0x3d, 0xbd,
  0x28, 0xa5, 0x8b, 0x3d, 0x6f, 0xe9, 0x35, 0x3e, 0x66, 0x72, 0x32, 0x3d,
  0xd8, 0xb7, 0xab, 0x3c, 0xa7, 0xfc, 0xd0, 0x3d, 0x5b, 0xe3, 0x4b, 0x3e,
  0xa8, 0xef, 0x7b, 0x3d, 0x84, 0x5f, 0xc8, 0x3d, 0x84, 0x0e, 0x3d, 0xbe,
  0x5d, 0x13, 0x40, 0xbe, 0x88, 0x80, 0x57, 0x3e, 0x4f, 0xec, 0x17, 0xbd,
  0x5e, 0xba, 0x88, 0xbd, 0xc5, 0x8f, 0x6c, 0xbb, 0xd8, 0xe2, 0x2e, 0x3d,
  0x5d, 0x33, 0x56, 0xbe, 0xe9, 0x69, 0xc2, 0xbd, 0x72, 0x09, 0xe6, 0xbd,
  0x62, 0x02, 0xde, 0xbd, 0x13, 0x99, 0x67, 0xbe, 0x6d, 0x5f, 0xd7, 0x3d,
  0x3e, 0x21, 0xcd, 0xbd, 0xf5, 0x9d, 0x04, 0xbc, 0x73, 0x36, 0x97, 0xbd,
  0xc5, 0x02, 0x26, 0xbe, 0xd4, 0x2f, 0x5d, 0xbd, 0x92, 0x3e, 0x2c, 0xbe,
  0x00, 0x45, 0x53, 0xbe, 0xd6, 0x00, 0x0a, 0x3e, 0x12, 0x38, 0x5e, 0x3e,
  0x1c, 0x37, 0x8f, 0x3d, 0xd1, 0xd9, 0xcf, 0x3d, 0xe1, 0x6d, 0x8f, 0x3d,
  0x59, 0x94, 0xf7, 0x3d, 0x61, 0xee, 0x0d, 0x3e, 0xbe, 0xf5, 0x49, 0xbe,
  0xcd, 0x34, 0x6b, 0xbe, 0x68, 0x74, 0x5c, 0xbd, 0x3a, 0x84, 0x43, 0xbc,
  0x4d, 0xb8, 0xa9, 0xbd, 0xf6, 0xba, 0x44, 0xbe, 0xe0, 0x15, 0x45, 0x3d,
  0x49, 0x24, 0x14, 0xbe, 0x58, 0x2d, 0xe5, 0xbd, 0xe7, 0x2f, 0x55, 0x3d,
  0x8f, 0xa6, 0x01, 0xbe, 0x4d, 0x7c, 0x4c, 0xbe, 0xa3, 0x06, 0xc0, 0xbc,
  0xef, 0xed, 0xf2, 0xbd, 0x40, 0x4c, 0xc4, 0x3d, 0x18, 0xf7, 0x18, 0xbe,
  0xd2, 0xfa, 0xce, 0x3d, 0x80, 0x2b, 0x03, 0xbe, 0x13, 0x00, 0x59, 0xbe,
  0x23, 0x11, 0x19, 0xbc, 0xf0, 0xbb, 0xcf, 0xbc, 0x92, 0xd4, 0x9f, 0xbd,
  0x36, 0xc1, 0xf6, 0x3d, 0x8d, 0x29, 0x7d, 0x3d, 0x48, 0x85, 0x24, 0xbe,
  0x7f, 0x57, 0x26, 0xbe, 0x28, 0x81, 0x38, 0x3d, 0xf2, 0x9f, 0x1e, 0xbe,
  0xe7, 0xd5, 0x43, 0x3e, 0xc2, 0x67, 0x07, 0x3e, 0xd7, 0x59, 0x4c, 0xbe,
  0x90, 0x93, 0xf0, 0xbd, 0x65, 0x36, 0x47, 0xbe, 0x9c, 0x3b, 0x68, 0x3e,
  0xc2, 0x93, 0xbf, 0x3c, 0x66, 0x8c, 0x3c, 0x3e, 0x5e, 0xeb, 0x2d, 0x3e,
  0xda, 0xb2, 0x2f, 0x3a, 0x1f, 0x55, 0xc4, 0x3d, 0xe5, 0x79, 0x25, 0xbe,
  0xe1, 0xb0, 0x38, 0x3e, 0xed, 0x0c, 0xde, 0x3d, 0xc9, 0x6e, 0x76, 0x3c,
  0x2f, 0xf9, 0x40, 0x3e, 0x3f, 0x9a, 0x8f, 0x3d, 0x76, 0x6e, 0xf6, 0x3d,
  0x87, 0x28, 0x5a, 0xbe, 0x55, 0x28, 0x59, 0xbe, 0xfc, 0x92, 0x92, 0xbd,
  0x28, 0x42, 0x9a, 0x3c, 0x94, 0x57, 0xab, 0x3c, 0x14, 0xdc, 0x29, 0x3e,
  0x85, 0x36, 0x7d, 0x3d, 0x22, 0xce, 0xde, 0xbd, 0x8a, 0xbf, 0xa1, 0x3d,
  0x88, 0xf4, 0x1a, 0xbe, 0x2a, 0x6d, 0x41, 0x3e, 0x54, 0x55, 0xf3, 0x3c,
  0x64, 0xce, 0xf7, 0xbd, 0xb9, 0xe5, 0x0b, 0x3e, 0xca, 0xdc, 0x27, 0x3e,
  0xc0, 0x5b, 0x18, 0x3c, 0x80, 0x12, 0x5e, 0xbd, 0xe2, 0x0b, 0x3b, 0x3e,
  0xcf, 0x6e, 0x31, 0xbe, 0xa0, 0x89, 0x86, 0xbd, 0x9c, 0xc0, 0x71, 0xbd,
  0x1a, 0x82, 0xa8, 0x3c, 0x24, 0x8b, 0x4f, 0xbe, 0x7a, 0xc1, 0x49, 0x3e,
  0x1d, 0xee, 0x58, 0x3e, 0xb7, 0xf3, 0x21, 0xbc, 0x38, 0x53, 0x06, 0x3e,
  0x1a, 0x2e, 0xc9, 0xbd, 0x4d, 0x4d, 0x13, 0xbe, 0xf6, 0xb6, 0x55, 0x3a,
  0x6f, 0x34, 0xc5, 0xbd, 0xfa, 0x88, 0xe9, 0xbd, 0x85, 0x72, 0x51, 0xbe,
  0xf7, 0xa7, 0x8c, 0xbd, 0x02, 0x1c, 0x23, 0xbe, 0xf4, 0x1b, 0x37, 0x3e,
  0xd8, 0x0c, 0x60, 0x3e, 0x36, 0x6b, 0xe7, 0x3d, 0x48, 0x49, 0xb2, 0xbc,
  0x92, 0x13, 0xe9, 0xbc, 0xb2, 0xb8, 0x54, 0x3e, 0xc3, 0x60, 0x8b, 0xbd,
  0x4e, 0x62, 0x7a, 0xbd, 0x68, 0x51, 0x58, 0x39, 0x1b, 0xdf, 0xe7, 0x3d,
  0x03, 0xb7, 0x31, 0x3d, 0x3f, 0x8f, 0x45, 0x3e, 0xae, 0xa2, 0x54, 0xbd,
  0x56, 0xb7, 0x9b, 0x3d, 0x16, 0xdf, 0x63, 0x3d, 0x5d, 0x32, 0xa7, 0x3d,
  0x81, 0x25, 0xf3, 0xbd, 0xcf, 0x48, 0xae, 0xbc, 0x62, 0x35, 0xed, 0x3d,
  0x37, 0xee, 0xb1, 0x3d, 0xd5, 0x8b, 0x6d, 0x3d, 0xe5, 0x94, 0x07, 0xbe,
  0x5d, 0x71, 0x55, 0xbe, 0xc5, 0x0a, 0x35, 0xbe, 0x94, 0xbd, 0x2d, 0x3e,
  0x0b, 0x4b, 0x56, 0xbe, 0x36, 0x47, 0x67, 0x3e, 0xdd, 0x5c, 0xbe, 0x3d,
  0xe0, 0x4c, 0x66, 0x3c, 0xac, 0xdb, 0x37, 0x3e, 0xf7, 0xcb, 0x41, 0xbe,
  0xc0, 0x2a, 0x28, 0x3c, 0xc0, 0x95, 0x4a, 0xbd, 0x1d, 0xa0, 0xbf, 0xba,
  0x6e, 0x43, 0x42, 0xbe, 0x45, 0xbb, 0x73, 0xbe, 0x76, 0xc8, 0x62, 0xbb,
  0x00, 0xcb, 0xfc, 0xbb, 0x1d, 0xf4, 0x15, 0x3e, 0xf1, 0xb8, 0x2f, 0xbe,
  0x76, 0xde, 0x1b, 0x3e, 0x15, 0xa9, 0x29, 0x3e, 0x8a, 0x3c, 0x34, 0x3d,
  0xab, 0xa5, 0x17, 0x3d, 0x47, 0x72, 0xd9, 0x3d, 0xe6, 0x1d, 0xc1, 0xbd,
  0x3d, 0x07, 0x2a, 0x3d, 0xf2, 0x44, 0xe8, 0xbd, 0x38, 0xd8, 0x03, 0x3d,
  0x42, 0x72, 0xe0, 0x3d, 0x75, 0x4c, 0x6a, 0x3d, 0xf8, 0x1f, 0xb7, 0x3d,
  0x40, 0xf4, 0x6c, 0x3d, 0xab, 0x38, 0x6e, 0xbe, 0x2e, 0x38, 0xad, 0x3d,
  0x71, 0x0f, 0x23, 0x3e, 0x86, 0xba, 0x36, 0x3e, 0xb0, 0xf3, 0x5e, 0x3e,
  0x7c, 0xcf, 0x1a, 0xbe, 0xcf, 0x02, 0x15, 0xbe, 0xf4, 0xb4, 0xd2, 0x3d,
  0xd8, 0xdd, 0x2b, 0xbd, 0x7e, 0x92, 0xc6, 0xbd, 0x19, 0xa7, 0x8b, 0xbd,
  0x0e, 0x97, 0xe7, 0xbd, 0xe8, 0x0d, 0x0c, 0xbe, 0xaa, 0x5e, 0x2a, 0x3e,
  0x72, 0xe8, 0x8b, 0xbd, 0x5f, 0xe0, 0x16, 0xbe, 0x25, 0x52, 0x22, 0x3e,
  0x76, 0x4a, 0x3e, 0xbd, 0x81, 0xa2, 0x58, 0xbe, 0xe4, 0x54, 0x32, 0x3e,
  0x62, 0x28, 0x38, 0x3e, 0xbb, 0x49, 0xf7, 0xbd, 0x8a, 0x33, 0x07, 0xbe,
  0xf8, 0xc7, 0x21, 0x3d, 0x94, 0x5f, 0x54, 0x3e, 0x58, 0x75, 0x79, 0x3c,
  0x63, 0x01, 0x2d, 0x3e, 0x6c, 0x87, 0xc6, 0x3d, 0xbc, 0x38, 0x93, 0xbd,
  0x3c, 0xb8, 0xf6, 0xbd, 0x60, 0xb3, 0x04, 0x3e, 0x69, 0x7c, 0x31, 0x3d,
  0x19, 0xb3, 0x0a, 0xbe, 0x50, 0xa3, 0x25, 0xbe, 0x34, 0xf5, 0x8b, 0x3d,
  0x7a, 0x6f, 0xab, 0xbd, 0x04, 0x92, 0x50, 0xbe, 0x3e, 0x87, 0x43, 0x3e,
  0x27, 0x3d, 0x29, 0x3d, 0x40, 0x6d, 0x55, 0x3d, 0x07, 0xda, 0xbe, 0x3d,
  0xab, 0xe6, 0x02, 0x3e, 0xcb, 0xa8, 0x00, 0x3e, 0xdb, 0x30, 0x3f, 0xbd,
  0x79, 0xd3, 0x36, 0xbe, 0xc5, 0xe9, 0x1c, 0x3e, 0x28, 0x91, 0x9b, 0x3d,
  0xbd, 0xe5, 0x9f, 0xbd, 0xb4, 0xdb, 0xd2, 0x3d, 0x22, 0x7d, 0xf1, 0x3d,
  0x7c, 0x91, 0xf8, 0xbd, 0x75, 0xf7, 0x47, 0x3e, 0xa6, 0xdc, 0x4b, 0x3e,
  0x94, 0x5c, 0x8d, 0x3d, 0x92, 0xf8, 0x30, 0x3e, 0xc9, 0x38, 0x58, 0x3e,
  0x80, 0x81, 0x0c, 0x3e, 0xe2, 0xb8, 0xda, 0x3c, 0xa2, 0x9b, 0x4f, 0x3e,
  0x18, 0xbd, 0x04, 0x3c, 0x8e, 0x06, 0x63, 0x3e, 0x1a, 0x9e, 0xb4, 0x3b,
  0x6d, 0x78, 0x82, 0x3d, 0x1e, 0x98, 0xd5, 0x3d, 0xc1, 0x61, 0xd6, 0x3c,
  0x0c, 0x5c, 0xf0, 0x3d, 0x4c, 0xf6, 0x2d, 0xbe, 0x6a, 0xa0, 0x24, 0xbe,
  0x2a, 0x2b, 0xbf, 0xbd, 0x10, 0xf9, 0xa3, 0xbc, 0x63, 0xa1, 0x39, 0xbe,
  0xfd, 0xa8, 0x19, 0x3e, 0x4c, 0x7d, 0x5e, 0xbe, 0xd8, 0x70, 0xe8, 0xbd,
  0x44, 0xd5, 0x2f, 0xbe, 0x2d, 0xb6, 0xc3, 0xbd, 0x58, 0x98, 0x9a, 0xbc,
  0x33, 0x19, 0x51, 0xbe, 0x9d, 0xf9, 0x30, 0xbd, 0x21, 0x01, 0x35, 0xbe,
  0xb6, 0x1b, 0xe3, 0x3d, 0x78, 0x95, 0x3d, 0xbe, 0x2d, 0x3f, 0x27, 0xbe,
  0x1d, 0xc6, 0x18, 0xbe, 0x3b, 0x60, 0x8c, 0xbd, 0x86, 0x5a, 0x55, 0x3e,
  0x7d, 0x5b, 0x46, 0x3e, 0x28, 0x21, 0x05, 0x3e, 0x31, 0x1c, 0xe7, 0xbd,
  0x88, 0x9b, 0xe6, 0xbc, 0xb1, 0x63, 0x37, 0xbe, 0xb6, 0x76, 0x80, 0x3d,
  0x10, 0x60, 0xc2, 0xbd, 0x1c, 0xd6, 0xf2, 0xbc, 0x19, 0x64, 0xea, 0xbd,
  0x54, 0x36, 0xec, 0xbd, 0x88, 0xfa, 0x59, 0x3e, 0x1f, 0x34, 0x06, 0xbe,
  0x23, 0x16, 0xea, 0xbd, 0xb7, 0x12, 0xf6, 0xba, 0x83, 0xb1, 0x37, 0x3e,
  0x97, 0xe8, 0x32, 0x3d, 0xe4, 0x0e, 0x9e, 0x3d, 0x84, 0xba, 0x25, 0x3e,
  0xe1, 0xfe, 0x9a, 0x3c, 0x69, 0xaa, 0x71, 0xbe, 0xb3, 0x6f, 0x51, 0x3e,
  0x62, 0x72, 0x55, 0x3e, 0x4e, 0x04, 0x26, 0xbe, 0x01, 0xb6, 0x22, 0x3d,
  0x19, 0x3f, 0x1f, 0xbc, 0x47, 0xdb, 0x63, 0xbe, 0xa2, 0x3f, 0x40, 0xbe,
  0x51, 0x52, 0x55, 0x3e, 0xb2, 0x99, 0xff, 0x3a, 0x83, 0x46, 0x4a, 0x3e,
  0xe1, 0x5b, 0x0b, 0x3e, 0xbb, 0x51, 0xf2, 0x3b, 0xd0, 0xa6, 0xbc, 0xbd,
  0xfd, 0x53, 0x16, 0xbe, 0x3d, 0x5c, 0x23, 0xbe, 0xb3, 0x43, 0x0e, 0x3e,
  0x41, 0xcd, 0x86, 0xbd, 0xac, 0x56, 0x50, 0xbd, 0x58, 0xc1, 0x05, 0x3e,
  0x20, 0xb3, 0x09, 0x3e, 0x07, 0x8a, 0x44, 0xbe, 0x8e, 0x70, 0x50, 0x3d,
  0xc8, 0xf8, 0xce, 0xbc, 0xcc, 0x99, 0x5f, 0xbe, 0xc8, 0x21, 0xd6, 0xbb,
  0xf6, 0x08, 0x32, 0x3e, 0x08, 0x3c, 0x00, 0x3e, 0x75, 0x86, 0xd6, 0x3c,
  0x65, 0x16, 0x74, 0xbe, 0xf2, 0xa0, 0xc0, 0xbd, 0x83, 0x66, 0x2f, 0xbe,
  0xc6, 0xa1, 0x15, 0xbd, 0xa4, 0xb3, 0xd2, 0xbd, 0x88, 0x60, 0xc8, 0xbc,
  0x6c, 0xe8, 0x96, 0x3d, 0xf9, 0x6f, 0xd2, 0xbd, 0xd0, 0xd1, 0x65, 0x3d,
  0xbc, 0x7c, 0x4c, 0xbe, 0x35, 0x43, 0x70, 0xbe, 0xbe, 0x8d, 0x2a, 0x3e,
  0x39, 0xa3, 0xbf, 0x3d, 0xfd, 0x1d, 0x55, 0x3e, 0x8f, 0x1f, 0xa3, 0x3d,
  0xe9, 0x9f, 0x15, 0x3e, 0x0b, 0xc7, 0xbb, 0x3d, 0x5e, 0xd5, 0x8c, 0x3c,
  0x38, 0xf6, 0x60, 0xbe, 0x45, 0x83, 0x58, 0xbe, 0xc9, 0xf4, 0x10, 0xbe,
  0x0b, 0x27, 0x60, 0xbe, 0xee, 0x3e, 0x10, 0x3e, 0xc7, 0x0f, 0x41, 0xbe,
  0xb3, 0x3d, 0x5e, 0x3e, 0x1f, 0x85, 0xb0, 0x3d, 0x3e, 0xbb, 0x96, 0xbd,
  0x66, 0x7a, 0x4d, 0x3e, 0x55, 0x86, 0x1c, 0xbe, 0xfd, 0x57, 0xaa, 0x3d,
  0xeb, 0xfa, 0x11, 0xbe, 0x3a, 0x50, 0xbd, 0xbd, 0x3a, 0x80, 0x36, 0x3e,
  0x38, 0xd3, 0xee, 0x3d, 0x3a, 0x5e, 0x4d, 0x3d, 0x42, 0x09, 0x43, 0xbe,
  0x7a, 0x08, 0x3a, 0x3e, 0x4f, 0x3a, 0xbe, 0x3d, 0x70, 0xc0, 0x44, 0x3d,
  0x21, 0x0a, 0x03, 0xbe, 0xae, 0x51, 0x8a, 0xbd, 0xbe, 0x68, 0x0e, 0x3e,
  0x6b, 0x78, 0x08, 0x3e, 0xd1, 0xab, 0x44, 0x3d, 0xd4, 0xf6, 0xf8, 0x3c,
  0x79, 0x0a, 0x09, 0xbe, 0xc3, 0x1b, 0x61, 0xbe, 0xd8, 0xf1, 0x4a, 0x3e,
  0xb7, 0xf8, 0xef, 0xbd, 0xb8, 0x19, 0xa1, 0xbd, 0x64, 0x22, 0x32, 0xbe,
  0x8f, 0xec, 0x3d, 0x3e, 0x6b, 0x49, 0x26, 0x3e, 0x5d, 0x61, 0xc5, 0x3d,
  0x3a, 0x43, 0x16, 0xbe, 0xdc, 0x10, 0x89, 0xbd, 0x7d, 0x20, 0x55, 0xbe,
  0x43, 0x3e, 0x02, 0xbd, 0x04, 0xfd, 0xdd, 0x3d, 0x14, 0x5a, 0x43, 0x3e,
  0xa3, 0xfb, 0xae, 0xbd, 0xe0, 0x11, 0xb9, 0x3d, 0x26, 0x40, 0x8f, 0x3c,
  0x3d, 0x2b, 0x35, 0x3e, 0xca, 0x60, 0xaf, 0xbd, 0xb0, 0x46, 0x18, 0x3e,
  0xa1, 0x5e, 0x0c, 0xbd, 0x5c, 0x6f, 0xda, 0xbd, 0x1f, 0xaa, 0x0c, 0x3e,
  0x56, 0x93, 0x46, 0xbe, 0x3e, 0xd7, 0x5a, 0xbe, 0xe2, 0x01, 0x17, 0xbe,
  0x1f, 0xab, 0x5b, 0xbe, 0x70, 0x72, 0x19, 0xbe, 0xa0, 0xb0, 0x2f, 0x3d,
  0x80, 0x19, 0x54, 0x3e, 0xba, 0xbc, 0x39, 0xbc, 0x6d, 0x5f, 0xe8, 0xbd,
  0xbf, 0x4c, 0x5a, 0xbe, 0x5e, 0xc2, 0x66, 0x3e, 0x7c, 0x2a, 0x6d, 0x3e,
  0xc6, 0x86, 0x46, 0xbe, 0x78, 0x01, 0xdc, 0x3d, 0xde, 0x0b, 0x5d, 0xbe,
  0x9e, 0x84, 0xe0, 0x3d, 0x89, 0x1e, 0x68, 0x3c, 0x65, 0x29, 0x70, 0xbe,
  0x53, 0xcb, 0x8d, 0xbd, 0x40, 0x40, 0x18, 0xbc, 0x48, 0xba, 0xa2, 0xbc,
  0xe4, 0x46, 0x5b, 0xbd, 0xf8, 0xd5, 0x55, 0xbe, 0xd1, 0xd4, 0x8d, 0xbd,
  0x51, 0xd8, 0x05, 0xbe, 0xd0, 0xdd, 0x31, 0x3e, 0x50, 0x64, 0x3d, 0x3d,
  0x9a, 0x76, 0x37, 0xbe, 0x2e, 0xff, 0x95, 0xbc, 0xa3, 0x62, 0xa3, 0xbc,
  0x6c, 0x87, 0x96, 0xbc, 0xcf, 0xb7, 0x3c, 0x3d, 0xcd, 0x29, 0xc8, 0xbc,
  0xf7, 0x1b, 0x48, 0xbc, 0x73, 0x0c, 0x41, 0x3e, 0xdd, 0x2f, 0x4f, 0xbd,
  0x7a, 0xb0, 0x04, 0x3e, 0x26, 0xea, 0x37, 0x3d, 0x2e, 0xe7, 0x6d, 0xbe,
  0xf9, 0xa6, 0x6a, 0xbd, 0x73, 0xd0, 0xed, 0x3a, 0x8b, 0xc7, 0xe3, 0xbd,
  0x94, 0x5b, 0x2b, 0xbe, 0x13, 0xcb, 0xa0, 0x3d, 0x88, 0x72, 0x06, 0x3e,
  0x67, 0x2f, 0x04, 0xbe, 0x08, 0x38, 0x92, 0xbd, 0x42, 0x79, 0x26, 0xbe,
  0xa0, 0x49, 0x0a, 0xbe, 0xf5, 0x1d, 0x46, 0xbd, 0x5a, 0x9c, 0x60, 0xbe,
  0x8c, 0xb0, 0x0c, 0xbe, 0xb9, 0x3c, 0x91, 0x3d, 0x08, 0x99, 0x94, 0x3b,
  0x3f, 0x3b, 0x94, 0x3c, 0x60, 0x03, 0x85, 0x3d, 0x4b, 0x18, 0xa2, 0xbd,
  0x40, 0xc6, 0x4f, 0x3d, 0xc5, 0x3c, 0x0b, 0x3e, 0xdb, 0x21, 0x49, 0xbe,
  0xff, 0x4f, 0xb6, 0x3c, 0x76, 0x5c, 0xc9, 0xbd, 0x92, 0x8c, 0x14, 0xbe,
  0xbc, 0xcd, 0x25, 0x3d, 0xb7, 0xd0, 0x32, 0x3e, 0xb1, 0xcf, 0x51, 0xbe,
  0x5e, 0x0f, 0x11, 0x3e, 0x00, 0x3b, 0x65, 0xbb, 0x14, 0xa8, 0x92, 0x3d,
  0x39, 0x14, 0xe5, 0xbd, 0xae, 0x16, 0x6f, 0x3d, 0x06, 0x6c, 0x0f, 0x3e,
  0x8e, 0xf0, 0x17, 0xbe, 0x05, 0x98, 0x3c, 0xbd, 0x7a, 0x8a, 0x26, 0xbe,
  0xe0, 0x40, 0x05, 0xbd, 0x04, 0x29, 0xcc, 0x3d, 0x72, 0x48, 0x25, 0xbe,
  0x99, 0x37, 0x0d, 0x3d, 0x2d, 0xaf, 0x56, 0x3c, 0x46, 0xd7, 0xb6, 0x3c,
  0x2b, 0xe2, 0xe9, 0x3b, 0x02, 0x8f, 0xd2, 0x3d, 0x60, 0xe5, 0x14, 0x3e,
  0x6a, 0x8c, 0xda, 0xbd, 0x74, 0x3e, 0x40, 0xbe, 0xff, 0xe7, 0xd9, 0x3d,
  0xb3, 0xf2, 0xf9, 0x3d, 0x3d, 0x59, 0x4f, 0x3e, 0xcf, 0xa4, 0x43, 0x3e,
  0x84, 0xe6, 0x78, 0xbd, 0xd4, 0x4e, 0xae, 0xbd, 0xb2, 0x0c, 0x9e, 0x3b,
  0x49, 0x02, 0x42, 0x3d, 0x09, 0x97, 0x56, 0x3e, 0x92, 0x90, 0x45, 0x3e,
  0xf3, 0x28, 0xc2, 0xbd, 0x59, 0x61, 0x5b, 0xbe, 0x04, 0x86, 0x10, 0xbe,
  0x2a, 0x8f, 0xea, 0x3c, 0x07, 0xf5, 0x3e, 0x3e, 0xfb, 0x2d, 0xa2, 0xbd,
  0xe6, 0x64, 0x23, 0xbd, 0x7d, 0xc4, 0x47, 0xbe, 0x0f, 0x7f, 0xec, 0xbd,
  0x55, 0x41, 0x50, 0xbe, 0x8f, 0xb0, 0xe3, 0xbc, 0x4f, 0xe5, 0xde, 0xbd,
  0xf2, 0xd5, 0xd9, 0x3d, 0x18, 0x39, 0x4b, 0xbe, 0x82, 0xf2, 0x60, 0x3e,
  0x7a, 0xa5, 0x90, 0xbd, 0xa4, 0xea, 0x3e, 0x3e, 0xfd, 0x02, 0xb8, 0x3d,
  0x1a, 0x01, 0x6e, 0x3e, 0xd8, 0xe6, 0x51, 0x3e, 0x02, 0x52, 0xb7, 0x3d,
  0xdb, 0x51, 0x89, 0x3d, 0xfe, 0x0e, 0x59, 0x3e, 0xad, 0x1d, 0x5e, 0xbe,
  0xcb, 0xb3, 0xe4, 0x3d, 0xdf, 0xea, 0x30, 0x3e, 0x79, 0xa0, 0x1a, 0xbe,
  0xe3, 0xad, 0x49, 0x3e, 0x46, 0xaa, 0xfe, 0xbd, 0x7c, 0xa0, 0x5e, 0xbd,
  0x1f, 0x2e, 0x0d, 0x3c, 0xf4, 0x5d, 0xa8, 0xbd, 0x05, 0x49, 0x9c, 0xbc,
  0x31, 0x6d, 0x30, 0x3e, 0x2b, 0x59, 0xac, 0xbd, 0xc0, 0xe6, 0x3c, 0xbe,
  0x82, 0x8d, 0xb8, 0x3d, 0x61, 0xe2, 0xc3, 0x3c, 0x40, 0x3a, 0x2f, 0xbe,
  0x5d, 0x9b, 0xc4, 0xbd, 0x0b, 0x31, 0x01, 0xbd, 0x10, 0xfe, 0xea, 0x3d,
  0x65, 0xe3, 0x41, 0x3c, 0x29, 0xcd, 0x1b, 0x3e, 0x38, 0x82, 0x25, 0xbe,
  0x97, 0x25, 0x1d, 0xbe, 0xee, 0x0c, 0x08, 0xbe, 0xea, 0x31, 0x42, 0x3e,
  0x1d, 0x11, 0x27, 0x3e, 0xdf, 0x7c, 0x2d, 0x3e, 0x07, 0x60, 0xad, 0x3d,
  0xff, 0xcd, 0x32, 0x3e, 0xb2, 0xe6, 0xa8, 0x3d, 0x09, 0x09, 0x3f, 0x3e,
  0xa9, 0x90, 0x71, 0x3e, 0x58, 0xa2, 0x2b, 0x3e, 0x37, 0xdc, 0x17, 0x3e,
  0xb2, 0x06, 0x5e, 0xbe, 0xa5, 0x4d, 0x5b, 0x3e, 0x23, 0xdc, 0x3d, 0xbe,
  0x18, 0xeb, 0x0e, 0xbe, 0x2d, 0x85, 0x2f, 0x3e, 0x7d, 0x5b, 0x29, 0xbe,
  0x5a, 0x5f, 0x92, 0xbc, 0x8c, 0x9a, 0xcb, 0x3d, 0xa2, 0x32, 0x50, 0xbe,
  0x91, 0xeb, 0x1b, 0xbe, 0xc7, 0x21, 0x61, 0xbe, 0xcc, 0x96, 0xb6, 0x3d,
  0x04, 0xdf, 0xab, 0xbd, 0x0a, 0x99, 0x63, 0xbe, 0x06, 0xea, 0x58, 0xbe,
  0x6c, 0xd3, 0x15, 0x3e, 0x15, 0xed, 0xa8, 0xbd, 0xcb, 0x02, 0x1d, 0xbe,
  0xd3, 0xa0, 0x3d, 0x3c, 0xa1, 0xd5, 0x18, 0xbe, 0xc0, 0xbb, 0x97, 0xbd,
  0xc2, 0x09, 0x51, 0x3e, 0x92, 0xe1, 0x8f, 0x3b, 0x97, 0x53, 0x54, 0x3e,
  0x0c, 0xf3, 0xf0, 0xbd, 0xdd, 0x21, 0x12, 0xbe, 0xf8, 0x6b, 0x3a, 0x3e,
  0xa2, 0xd5, 0xd7, 0xbc, 0x20, 0x83, 0x84, 0xbd, 0x1f, 0x21, 0x4b, 0x3e,
  0x29, 0xb5, 0xf4, 0xba, 0x5f, 0xa6, 0x24, 0x3e, 0x69, 0x8e, 0xe5, 0xbc,
  0xe4, 0xe5, 0x35, 0xbe, 0x4e, 0x8a, 0xe8, 0x3d, 0x2c, 0x4d, 0xe1, 0x3d,
  0x5a, 0x62, 0x27, 0xbc, 0x61, 0xd0, 0x49, 0xbe, 0x66, 0x3d, 0xab, 0xbd,
  0x4b, 0x2e, 0x2a, 0x3d, 0xa2, 0xac, 0x42, 0x3e, 0x96, 0x4d, 0xb2, 0x3d,
  0xef, 0x75, 0x4a, 0xbd, 0x72, 0x3f, 0x85, 0xbd, 0xc5, 0xbb, 0x19, 0x3e,
  0x87, 0x77, 0x04, 0xbe, 0xb9, 0x10, 0xe9, 0xbc, 0x69, 0x91, 0x8e, 0x3c,
  0x2c, 0xea, 0x8c, 0xbc, 0xc8, 0xb0, 0x68, 0xbe, 0xca, 0x9c, 0x08, 0x3d,
  0x84, 0x55, 0xf1, 0x3d, 0x7f, 0x67, 0xf9, 0xbd, 0xb9, 0xd2, 0x64, 0x3e,
  0xf0, 0xdf, 0x30, 0xbe, 0xe4, 0x30, 0x75, 0x3d, 0x74, 0xc6, 0x4f, 0xbe,
  0xce, 0xc7, 0x20, 0x3e, 0x95, 0xf8, 0x5f, 0xbd, 0x42, 0xec, 0x56, 0xbd,
  0x2c, 0x28, 0x29, 0xbe, 0x40, 0x0c, 0x9e, 0x3d, 0x95, 0xae, 0x6b, 0xbe,
  0x60, 0x2d, 0x92, 0xbc, 0x94, 0xd3, 0x60, 0xbe, 0xaf, 0xb5, 0x19, 0xbd,
  0xb9, 0x83, 0xe0, 0x3d, 0xe5, 0xab, 0xf8, 0xbc, 0x25, 0xd3, 0x71, 0x3d,
  0x10, 0x6e, 0x50, 0x3c, 0x24, 0x01, 0x3a, 0xbe, 0xea, 0x0a, 0xc0, 0xbb,
  0xb6, 0xcd, 0xf7, 0xbd, 0xe9, 0x05, 0x9e, 0xbc, 0xd6, 0x6b, 0x55, 0xbe,
  0xaa, 0xc0, 0x0b, 0x3e, 0x72, 0x9b, 0xa4, 0x3c, 0xb5, 0xce, 0xbf, 0xbd,
  0xbf, 0xe6, 0xea, 0xbc, 0xf3, 0x85, 0x5c, 0x3e, 0x8b, 0xd3, 0x20, 0xbe,
  0xf2, 0x13, 0x0f, 0xbe, 0x5b, 0x3c, 0xd0, 0x3c, 0xf1, 0x7d, 0xed, 0x3d,
  0x70, 0xc7, 0x45, 0x3e, 0x13, 0x34, 0x53, 0xbe, 0x60, 0x23, 0x55, 0xbe,
  0xd7, 0x38, 0xd7, 0x3d, 0x14, 0xae, 0xfe, 0x3d, 0x86, 0xf4, 0xf2, 0xbd,
  0x53, 0xa4, 0x59, 0x3d, 0x84, 0x73, 0x01, 0xbe, 0xc3, 0xd6, 0xee, 0x3d,
  0xdc, 0x70, 0xdb, 0xbd, 0x07, 0x40, 0x06, 0x3d, 0xee, 0xe5, 0x8e, 0xbb,
  0xe9, 0xdb, 0xc4, 0x3c, 0x99, 0x15, 0x4f, 0x3c, 0x87, 0x9b, 0x78, 0xbd,
  0x8f, 0x0e, 0xf7, 0x3d, 0xc5, 0x5c, 0x2c, 0x3e, 0xfe, 0xf0, 0x5b, 0xbb,
  0x43, 0x7c, 0x53, 0x3e, 0x94, 0x53, 0xa8, 0xbd, 0x39, 0xd1, 0xea, 0x3d,
  0x78, 0x59, 0x4e, 0xbd, 0x87, 0xba, 0x5b, 0xbe, 0xb1, 0xb2, 0x59, 0x3e,
  0x77, 0xdf, 0x55, 0xbe, 0x03, 0x90, 0x23, 0x3e, 0xc0, 0xd9, 0x30, 0xbd,
  0xf0, 0x29, 0x5f, 0x3d, 0x3d, 0x38, 0x2a, 0xbe, 0xb7, 0x4c, 0x84, 0xbc,
  0x3a, 0x84, 0x46, 0xbd, 0xbb, 0xb9, 0x12, 0xbe, 0xd7, 0xac, 0x0a, 0xbe,
  0x54, 0xdb, 0xde, 0xbd, 0xda, 0x30, 0x1e, 0x3e, 0xe8, 0x4b, 0x12, 0x3d,
  0x1c, 0x92, 0x3f, 0xbc, 0x5c, 0x0d, 0x40, 0xbe, 0xf9, 0x07, 0xce, 0xbd,
  0xfd, 0x78, 0x19, 0xbe, 0x8f, 0x95, 0x6e, 0x3e, 0xdd, 0x45, 0x3e, 0xbe,
  0x9f, 0xa9, 0x55, 0xbe, 0xd5, 0x20, 0xc8, 0xbd, 0x78, 0x31, 0xb6, 0xbd,
  0x1f, 0x22, 0x52, 0x3e, 0x3c, 0xdd, 0x45, 0xbe, 0x14, 0x20, 0xa0, 0x3b,
  0x9a, 0xe8, 0x90, 0x3d, 0xfe, 0xc3, 0xab, 0x3d, 0xe1, 0x5f, 0xc9, 0xbd,
  0x9c, 0x95, 0x09, 0x3d, 0xf9, 0xbf, 0xfd, 0x3d, 0x32, 0x87, 0x9a, 0xbc,
  0xe8, 0x8d, 0xdc, 0xbd, 0x78, 0x21, 0x0e, 0x3e, 0xbd, 0xef, 0x36, 0x3e,
  0xba, 0xe0, 0xe1, 0xbd, 0x37, 0xc4, 0x3f, 0xbd, 0x6c, 0x8c, 0x1b, 0xbc,
  0x52, 0xcd, 0x34, 0x3d, 0xfc, 0x60, 0xfb, 0x3d, 0x5a, 0xc1, 0xc2, 0xbb,
  0x30, 0x5a, 0x80, 0x3d, 0x38, 0x85, 0x05, 0xbe, 0x40, 0xdf, 0x16, 0x3e,
  0x53, 0xb0, 0x39, 0xbd, 0x13, 0xf9, 0xcb, 0x3d, 0xf4, 0x27, 0x02, 0x3e,
  0x4b, 0x52, 0x21, 0x3e, 0x9e, 0x1b, 0x10, 0x3e, 0xc4, 0x8e, 0x40, 0xbe,
  0x75, 0x6c, 0x63, 0xbd, 0xb7, 0x2c, 0x3c, 0xbe, 0xbd, 0x38, 0x97, 0xbd,
  0xa6, 0x1e, 0xcf, 0xbd, 0x8e, 0x1b, 0xf1, 0xbd, 0x67, 0x19, 0x3a, 0xbe,
  0x58, 0x02, 0x87, 0xbd, 0xc2, 0x4e, 0x38, 0xbe, 0x44, 0x82, 0xf1, 0xbd,
  0x89, 0x41, 0x1d, 0x3d, 0x13, 0xc6, 0x16, 0xbe, 0xf8, 0xdd, 0x53, 0x3e,
  0xcf, 0x3a, 0x16, 0xbe, 0x60, 0xe9, 0x98, 0xbd, 0x92, 0x22, 0x02, 0xbe,
  0x0e, 0x2a, 0x0c, 0x3e, 0xf4, 0x12, 0x29, 0xbe, 0xd6, 0x04, 0x07, 0x3e,
  0x15, 0x0a, 0x08, 0xbe, 0x13, 0x16, 0x4d, 0x3e, 0xce, 0xc0, 0x27, 0xbe,
  0xe5, 0x9b, 0x35, 0xbe, 0x8d, 0x91, 0x6e, 0xbe, 0x59, 0xb5, 0x16, 0x3e,
  0x50, 0x68, 0xae, 0x3d, 0xf0, 0xe9, 0xfe, 0xbd, 0x18, 0x90, 0x28, 0x3e,
  0x0e, 0xa8, 0x01, 0x3e, 0x47, 0x8b, 0xcb, 0xbc, 0xcf, 0x78, 0x84, 0x3d,
  0xd4, 0xd2, 0x26, 0xbe, 0x9a, 0x89, 0x6a, 0x3e, 0x69, 0xf6, 0x08, 0xbd,
  0x3c, 0x7b, 0x16, 0x3e, 0xee, 0xb1, 0x34, 0x3e, 0x83, 0x15, 0x02, 0x3e,
  0x4a, 0xf5, 0x8d, 0x3c, 0xc2, 0xaa, 0x10, 0x3e, 0x79, 0x2a, 0x66, 0x3d,
  0x8f, 0x96, 0xcd, 0x3d, 0x85, 0x08, 0xd6, 0x3c, 0x9b, 0x7b, 0x37, 0xbe,
  0x32, 0x66, 0x4f, 0xbe, 0x32, 0x5e, 0x4a, 0x3e, 0x6c, 0xf8, 0x50, 0x3e,
  0x3d, 0xec, 0x51, 0xbe, 0x2c, 0x57, 0x6e, 0x3e, 0xa0, 0x5b, 0x23, 0xbd,
  0xba, 0xf7, 0x44, 0x3d, 0x62, 0xf9, 0x8d, 0xbd, 0xbe, 0x35, 0x57, 0xbd,
  0xeb, 0xac, 0x65, 0xbe, 0x7c, 0xe9, 0x65, 0xbd, 0x48, 0x6a, 0xf0, 0x3c,
  0x08, 0x65, 0xaa, 0x3d, 0x8a, 0xc7, 0x8e, 0xbd, 0x80, 0xdb, 0x23, 0xbe,
  0x52, 0x6e, 0x57, 0xbe, 0x30, 0x84, 0x62, 0xbe, 0x02, 0x6b, 0xc6, 0xbb,
  0x58, 0x00, 0x6b, 0x3e, 0x2f, 0xd5, 0xdb, 0x3c, 0x00, 0x33, 0x5f, 0x3e,
  0x36, 0x94, 0x29, 0x3d, 0x92, 0x4e, 0x5e, 0x3e, 0x14, 0x85, 0x48, 0x3e,
  0x16, 0xaa, 0x07, 0x3d, 0x46, 0xf4, 0x49, 0x3e, 0xf2, 0xf4, 0x15, 0x3e,
  0x9b, 0x66, 0x99, 0xbd, 0x9a, 0x47, 0x20, 0xbe, 0x36, 0x69, 0x8a, 0x3d,
  0xd0, 0x71, 0xfb, 0x3d, 0x02, 0x87, 0xaa, 0x3d, 0xe7, 0x54, 0x25, 0xbe,
  0x12, 0x33, 0x5d, 0x3d, 0xf4, 0x0f, 0xc9, 0xbd, 0x0a, 0xe8, 0x44, 0x3e,
  0x6c, 0x81, 0x5d, 0xbd, 0x9c, 0x3d, 0x1a, 0x3e, 0xad, 0xaa, 0x6c, 0xbd,
  0x47, 0xf0, 0x75, 0xbd, 0x92, 0xb2, 0xaa, 0xbc, 0x33, 0x0a, 0x2a, 0x3d,
  0x91, 0x48, 0xb3, 0xbd, 0xc0, 0x08, 0xd8, 0xbd, 0x68, 0xca, 0x3b, 0x3d,
  0x66, 0x65, 0xf1, 0x3c, 0xad, 0x34, 0x3e, 0x3e, 0x68, 0x1e, 0xee, 0x3a,
  0x39, 0x88, 0x3b, 0xbe, 0xec, 0xff, 0x62, 0x3e, 0x75, 0xce, 0x18, 0xbe,
  0x35, 0x13, 0x60, 0xbe, 0xd8, 0xf0, 0xc2, 0x3d, 0x5e, 0x60, 0x84, 0x3d,
  0x2e, 0x8b, 0x38, 0xbe, 0x02, 0xc4, 0x35, 0xbe, 0x55, 0x07, 0x98, 0xbd,
  0xd1, 0xa3, 0x11, 0x3e, 0x21, 0xc6, 0x33, 0x3e, 0x60, 0x0c, 0x8d, 0xbd,
  0x7e, 0x74, 0x89, 0xbd, 0x22, 0xfe, 0xff, 0xff, 0x04, 0x00, 0x00, 0x00,
  0x08, 0x00, 0x00, 0x00, 0xff, 0xff, 0xff, 0xff, 0x31, 0x00, 0x00, 0x00,
  0x36, 0xfe, 0xff, 0xff, 0x04, 0x00, 0x00, 0x00, 0x00, 0x01, 0x00, 0x00,
  0x5e, 0x58, 0x1c, 0xbc, 0x69, 0xc8, 0x23, 0x3c, 0x14, 0x0f, 0x25, 0x3c,
  0x56, 0xba, 0xce, 0xb9, 0x3c, 0x32, 0xa3, 0xbb, 0x9d, 0x4c, 0x00, 0xbc,
  0xbc, 0xbd, 0x25, 0x3c, 0x5d, 0x9f, 0x25, 0x3c, 0x9c, 0xe4, 0x1a, 0xbc,
  0x68, 0xd1, 0x1e, 0xbc, 0x47, 0x4a, 0x1f, 0xbc, 0xe4, 0x72, 0x21, 0xbc,
  0x15, 0x63, 0x21, 0xbc, 0x94, 0x02, 0x26, 0x3c, 0x7c, 0x3b, 0x26, 0x3c,
  0x96, 0xaa, 0x25, 0x3c, 0x31, 0x5f, 0x24, 0x3c, 0x54, 0xba, 0x24, 0x3c,
  0xda, 0xb8, 0x24, 0x3c, 0x60, 0x3f, 0x25, 0x3c, 0xc9, 0xe9, 0x21, 0xbc,
  0xe4, 0xa3, 0x24, 0x3c, 0x55, 0x8d, 0x21, 0xbc, 0xe4, 0x6a, 0x20, 0xbc,
  0x03, 0x6b, 0x1f, 0xbc, 0x47, 0xfa, 0x11, 0xbc, 0xd0, 0x9c, 0x21, 0x3c,
  0xf2, 0xaa, 0x1e, 0xbc, 0x5e, 0x21, 0x25, 0x3c, 0x4f, 0xaf, 0x1e, 0xbc,
  0x1e, 0xe7, 0xc8, 0xbb, 0x15, 0x01, 0x23, 0xbc, 0x3a, 0xb5, 0x13, 0xbc,
  0x3b, 0xce, 0x1c, 0xbc, 0xfd, 0xd2, 0x25, 0x3c, 0x38, 0x2a, 0x26, 0x3c,
  0x04, 0x9d, 0x22, 0xbc, 0x33, 0xc5, 0x1a, 0xbc, 0xfe, 0xfa, 0x18, 0xbc,
  0x35, 0xbc, 0x1b, 0xbc, 0x1c, 0x30, 0x21, 0xbc, 0x4a, 0x74, 0x1e, 0xbc,
  0xc8, 0x46, 0x26, 0x3c, 0x78, 0x6a, 0x08, 0xbc, 0x40, 0xb4, 0x17, 0xbc,
  0x2b, 0x4c, 0x25, 0x3c, 0xf4, 0xef, 0x25, 0x3c, 0x61, 0xbf, 0x24, 0x3c,
  0x48, 0x77, 0x1d, 0xbc, 0xac, 0x44, 0xa3, 0xba, 0x8d, 0xab, 0x1e, 0xbc,
  0xb3, 0xfd, 0x20, 0xbc, 0x2f, 0x0a, 0x22, 0xbc, 0xdb, 0xfb, 0x18, 0xbc,
  0x80, 0x30, 0x26, 0x3c, 0x63, 0x2d, 0x26, 0x3c, 0x0e, 0x26, 0x26, 0x3c,
  0x63, 0xdf, 0x21, 0x3c, 0x9d, 0x16, 0x24, 0x3c, 0x17, 0x58, 0x1f, 0x3c,
  0xe3, 0x3e, 0x22, 0xbc, 0x5a, 0x34, 0x25, 0x3c, 0x53, 0xd1, 0x11, 0xbb,
  0x53, 0x5f, 0x21, 0xbc, 0x42, 0xff, 0xff, 0xff, 0x04, 0x00, 0x00, 0x00,
  0x28, 0x00, 0x00, 0x00, 0x46, 0xc1, 0x22, 0xbc, 0x58, 0x68, 0x23, 0x3c,
  0xb2, 0x14, 0x22, 0xbc, 0x56, 0x29, 0x22, 0x3c, 0x5c, 0xd3, 0x22, 0x3c,
  0x6e, 0xfc, 0x20, 0xbc, 0x65, 0x1a, 0x22, 0x3c, 0x63, 0xf7, 0x22, 0xbc,
  0x6a, 0x4f, 0x26, 0xbc, 0x6d, 0x64, 0x20, 0x3c, 0xd0, 0xf9, 0xff, 0xff,
  0xd4, 0xf9, 0xff, 0xff, 0x0f, 0x00, 0x00, 0x00, 0x4d, 0x4c, 0x49, 0x52,
  0x20, 0x43, 0x6f, 0x6e, 0x76, 0x65, 0x72, 0x74, 0x65, 0x64, 0x2e, 0x00,
  0x01, 0x00, 0x00, 0x00, 0x14, 0x00, 0x00, 0x00, 0x00, 0x00, 0x0e, 0x00,
  0x18, 0x00, 0x14, 0x00, 0x10, 0x00, 0x0c, 0x00, 0x08, 0x00, 0x04, 0x00,
  0x0e, 0x00, 0x00, 0x00, 0x14, 0x00, 0x00, 0x00, 0x1c, 0x00, 0x00, 0x00,
  0x78, 0x01, 0x00, 0x00, 0x7c, 0x01, 0x00, 0x00, 0x80, 0x01, 0x00, 0x00,
  0x04, 0x00, 0x00, 0x00, 0x6d, 0x61, 0x69, 0x6e, 0x00, 0x00, 0x00, 0x00,
  0x05, 0x00, 0x00, 0x00, 0x10, 0x01, 0x00, 0x00, 0xd8, 0x00, 0x00, 0x00,
  0x88, 0x00, 0x00, 0x00, 0x40, 0x00, 0x00, 0x00, 0x04, 0x00, 0x00, 0x00,
  0x92, 0xff, 0xff, 0xff, 0x1c, 0x00, 0x00, 0x00, 0x00, 0x00, 0x00, 0x09,
  0x1c, 0x00, 0x00, 0x00, 0x20, 0x00, 0x00, 0x00, 0x03, 0x00, 0x00, 0x00,
  0x00, 0x00, 0x06, 0x00, 0x08, 0x00, 0x04, 0x00, 0x06, 0x00, 0x00, 0x00,
  0x00, 0x00, 0x80, 0x3f, 0x01, 0x00, 0x00, 0x00, 0x0a, 0x00, 0x00, 0x00,
  0x01, 0x00, 0x00, 0x00, 0x09, 0x00, 0x00, 0x00, 0xca, 0xff, 0xff, 0xff,
  0x14, 0x00, 0x00, 0x00, 0x00, 0x00, 0x00, 0x08, 0x10, 0x00, 0x00, 0x00,
  0x14, 0x00, 0x00, 0x00, 0x02, 0x00, 0x00, 0x00, 0x90, 0xfa, 0xff, 0xff,
  0x01, 0x00, 0x00, 0x00, 0x09, 0x00, 0x00, 0x00, 0x03, 0x00, 0x00, 0x00,
  0x08, 0x00, 0x00, 0x00, 0x05, 0x00, 0x00, 0x00, 0x01, 0x00, 0x00, 0x00,
  0x00, 0x00, 0x0e, 0x00, 0x1a, 0x00, 0x14, 0x00, 0x10, 0x00, 0x0c, 0x00,
  0x0b, 0x00, 0x04, 0x00, 0x0e, 0x00, 0x00, 0x00, 0x1c, 0x00, 0x00, 0x00,
  0x00, 0x00, 0x00, 0x08, 0x1c, 0x00, 0x00, 0x00, 0x20, 0x00, 0x00, 0x00,
  0x02, 0x00, 0x00, 0x00, 0x00, 0x00, 0x06, 0x00, 0x08, 0x00, 0x07, 0x00,
